DEPTH = 10;
WIDTH = 32;
ADDRESS_RADIX = HEX;
DATA_RADIX = BIN;
CONTENT
BEGIN
0000 : 00000000000000000001001110101100;  % 0x000013ac  0.07683915 %
0001 : 11111111111111111111011100101101;  % 0xfffff72d  -0.03447057 %
0002 : 11111111111111111111011101110000;  % 0xfffff770  -0.03345023 %
0003 : 11111111111111111010110111110010;  % 0xffffadf2  -0.320521 %
0004 : 11111111111111111011110101011111;  % 0xffffbd5f  -0.26027578 %
0005 : 00000000000000000100111110111110;  % 0x00004fbe  0.3114983 %
0006 : 00000000000000000001100000001100;  % 0x0000180c  0.0939381 %
0007 : 11111111111111111111111001010110;  % 0xfffffe56  -0.006506595 %
0008 : 00000000000000000000010000010011;  % 0x00000413  0.015909823 %
0009 : 00000000000000000010100000110100;  % 0x00002834  0.15704031 %
END;
