DEPTH = 10;
WIDTH = 32;
ADDRESS_RADIX = HEX;
DATA_RADIX = BIN;
CONTENT
BEGIN
0000 : 00000000000000000000001100000110;  % 0x00000306  0.0118045695 %
0001 : 00000000000000000010000111010010;  % 0x000021d2  0.13211408 %
0002 : 00000000000000000010000001100001;  % 0x00002061  0.12648621 %
0003 : 11111111111111111110001000100001;  % 0xffffe221  -0.11667935 %
0004 : 00000000000000000000100100001111;  % 0x0000090f  0.03537856 %
0005 : 00000000000000000001010001001000;  % 0x00001448  0.07923047 %
0006 : 11111111111111111111111000001001;  % 0xfffffe09  -0.0076712677 %
0007 : 00000000000000000000100001110100;  % 0x00000874  0.03301281 %
0008 : 11111111111111111111001001110100;  % 0xfffff274  -0.052920304 %
0009 : 00000000000000000000101011111101;  % 0x00000afd  0.042918146 %
END;
