DEPTH = 10;
WIDTH = 32;
ADDRESS_RADIX = HEX;
DATA_RADIX = BIN;
CONTENT
BEGIN
0000 : 00000000000000000001000110011000;  % 0x00001198  0.06872603 %
0001 : 11111111111111111101001100001111;  % 0xffffd30f  -0.17555502 %
0002 : 00000000000000001001111011011111;  % 0x00009edf  0.62058854 %
0003 : 00000000000000000011001100011001;  % 0x00003319  0.1996071 %
0004 : 11111111111111110111110110000111;  % 0xffff7d87  -0.509653 %
0005 : 11111111111111111110110001110101;  % 0xffffec75  -0.07634591 %
0006 : 11111111111111111101110100100111;  % 0xffffdd27  -0.13612282 %
0007 : 00000000000000000110010000111000;  % 0x00006438  0.39148346 %
0008 : 11111111111111111001010010000111;  % 0xffff9487  -0.41981146 %
0009 : 11111111111111110110111011100110;  % 0xffff6ee6  -0.56680113 %
END;
