DEPTH = 784;
WIDTH = 32;
ADDRESS_RADIX = HEX;
DATA_RADIX = BIN;
CONTENT
BEGIN
0000 : 11111111111111111111001110010000;  % 0xfffff390  -0.04859160631895065 %
0001 : 00000000000000000001010110001001;  % 0x00001589  0.08412420004606247 %
0002 : 11111111111111111111110111011111;  % 0xfffffddf  -0.008317522704601288 %
0003 : 00000000000000000000011011011100;  % 0x000006dc  0.026796504855155945 %
0004 : 00000000000000000001001011011111;  % 0x000012df  0.07371526211500168 %
0005 : 11111111111111111110101011011111;  % 0xffffeadf  -0.08252925425767899 %
0006 : 11111111111111111110100111011101;  % 0xffffe9dd  -0.08647416532039642 %
0007 : 00000000000000000001001110100100;  % 0x000013a4  0.07672769576311111 %
0008 : 11111111111111111110111111011100;  % 0xffffefdc  -0.0630522146821022 %
0009 : 00000000000000000000010110010110;  % 0x00000596  0.02182731032371521 %
000a : 00000000000000000000110001101001;  % 0x00000c69  0.04848093539476395 %
000b : 11111111111111111111001101001010;  % 0xfffff34a  -0.049652792513370514 %
000c : 11111111111111111111101000110000;  % 0xfffffa30  -0.02270006388425827 %
000d : 11111111111111111111100110111111;  % 0xfffff9bf  -0.024424031376838684 %
000e : 00000000000000000000011000000100;  % 0x00000604  0.02349204570055008 %
000f : 11111111111111111111101111010010;  % 0xfffffbd2  -0.016329720616340637 %
0010 : 00000000000000000001010001100101;  % 0x00001465  0.07966751605272293 %
0011 : 00000000000000000000010101000000;  % 0x00000540  0.020506203174591064 %
0012 : 00000000000000000000010011100001;  % 0x000004e1  0.01906488835811615 %
0013 : 00000000000000000000111100010001;  % 0x00000f11  0.058847106993198395 %
0014 : 00000000000000000000011000101011;  % 0x0000062b  0.02409014105796814 %
0015 : 00000000000000000000000101101011;  % 0x0000016b  0.005543991923332214 %
0016 : 00000000000000000000111001010011;  % 0x00000e53  0.05596023052930832 %
0017 : 11111111111111111110101010111011;  % 0xffffeabb  -0.08309102058410645 %
0018 : 11111111111111111111010100010011;  % 0xfffff513  -0.04268151521682739 %
0019 : 11111111111111111111111010101000;  % 0xfffffea8  -0.005245193839073181 %
001a : 11111111111111111111001111001001;  % 0xfffff3c9  -0.04771582782268524 %
001b : 11111111111111111110111011001011;  % 0xffffeecb  -0.06720845401287079 %
001c : 00000000000000000000000010011011;  % 0x0000009b  0.0023705437779426575 %
001d : 00000000000000000000000010101101;  % 0x000000ad  0.0026452988386154175 %
001e : 11111111111111111111100110000111;  % 0xfffff987  -0.025285735726356506 %
001f : 11111111111111111111010100110010;  % 0xfffff532  -0.042207296937704086 %
0020 : 11111111111111111111001111100001;  % 0xfffff3e1  -0.047346871346235275 %
0021 : 11111111111111111111110100001001;  % 0xfffffd09  -0.011584446765482426 %
0022 : 11111111111111111110100111111011;  % 0xffffe9fb  -0.08601254224777222 %
0023 : 11111111111111111111101101000010;  % 0xfffffb42  -0.018530944362282753 %
0024 : 00000000000000000000101110110100;  % 0x00000bb4  0.04571253061294556 %
0025 : 00000000000000000001001010110010;  % 0x000012b2  0.07302794605493546 %
0026 : 00000000000000000000010101011010;  % 0x0000055a  0.020906630903482437 %
0027 : 11111111111111111110100101110111;  % 0xffffe977  -0.0880235806107521 %
0028 : 11111111111111111111110010000000;  % 0xfffffc80  -0.013671656139194965 %
0029 : 11111111111111111110100111111011;  % 0xffffe9fb  -0.08600863814353943 %
002a : 11111111111111111111001000100011;  % 0xfffff223  -0.054151274263858795 %
002b : 00000000000000000000001010001110;  % 0x0000028e  0.009979406371712685 %
002c : 11111111111111111111111001111011;  % 0xfffffe7b  -0.005932821426540613 %
002d : 11111111111111111111101000101000;  % 0xfffffa28  -0.022826258093118668 %
002e : 00000000000000000000000111100011;  % 0x000001e3  0.007371929474174976 %
002f : 00000000000000000000000110100010;  % 0x000001a2  0.00637264596298337 %
0030 : 00000000000000000000110010000001;  % 0x00000c81  0.048842672258615494 %
0031 : 00000000000000000000000101100010;  % 0x00000162  0.005402136594057083 %
0032 : 11111111111111111111000110000000;  % 0xfffff180  -0.056637607514858246 %
0033 : 00000000000000000000000100010100;  % 0x00000114  0.0042107850313186646 %
0034 : 00000000000000000000101010000010;  % 0x00000a82  0.041045792400836945 %
0035 : 00000000000000000000011111010011;  % 0x000007d3  0.030557312071323395 %
0036 : 00000000000000000000011110010011;  % 0x00000793  0.029588185250759125 %
0037 : 11111111111111111111011111110110;  % 0xfffff7f6  -0.03140445053577423 %
0038 : 11111111111111111111001101001100;  % 0xfffff34c  -0.04962427541613579 %
0039 : 00000000000000000000011000011101;  % 0x0000061d  0.02387942373752594 %
003a : 00000000000000000000100000010010;  % 0x00000812  0.03152362257242203 %
003b : 00000000000000000000010101101011;  % 0x0000056b  0.02115894854068756 %
003c : 11111111111111111111010110001000;  % 0xfffff588  -0.04089997708797455 %
003d : 11111111111111111111101000111000;  % 0xfffffa38  -0.022584276273846626 %
003e : 00000000000000000000100010011011;  % 0x0000089b  0.03361215069890022 %
003f : 11111111111111111111001101011111;  % 0xfffff35f  -0.049329664558172226 %
0040 : 00000000000000000000010111101100;  % 0x000005ec  0.02312527596950531 %
0041 : 00000000000000000000111000111111;  % 0x00000e3f  0.05564766749739647 %
0042 : 00000000000000000001001001001000;  % 0x00001248  0.07140996307134628 %
0043 : 11111111111111111110100101110001;  % 0xffffe971  -0.08811602741479874 %
0044 : 11111111111111111111010101101000;  % 0xfffff568  -0.04138126224279404 %
0045 : 11111111111111111111011100000011;  % 0xfffff703  -0.035112641751766205 %
0046 : 11111111111111111111101011111011;  % 0xfffffafb  -0.019613169133663177 %
0047 : 00000000000000000000110110101010;  % 0x00000daa  0.05337582156062126 %
0048 : 00000000000000000001000000001110;  % 0x0000100e  0.06271199136972427 %
0049 : 00000000000000000001000100100001;  % 0x00001121  0.06691455841064453 %
004a : 00000000000000000000010001001101;  % 0x0000044d  0.016795294359326363 %
004b : 11111111111111111111111100000000;  % 0xffffff00  -0.0039048122707754374 %
004c : 00000000000000000000011011111110;  % 0x000006fe  0.027315041050314903 %
004d : 00000000000000000001000111000100;  % 0x000011c4  0.06939529627561569 %
004e : 11111111111111111110110100111000;  % 0xffffed38  -0.07336708158254623 %
004f : 11111111111111111111111010001100;  % 0xfffffe8c  -0.00567074678838253 %
0050 : 11111111111111111111011110011010;  % 0xfffff79a  -0.03280152752995491 %
0051 : 11111111111111111110110010000000;  % 0xffffec80  -0.07617683708667755 %
0052 : 00000000000000000001010110111011;  % 0x000015bb  0.08488970249891281 %
0053 : 11111111111111111111110001111100;  % 0xfffffc7c  -0.013738885521888733 %
0054 : 11111111111111111111111011111000;  % 0xfffffef8  -0.004024006426334381 %
0055 : 11111111111111111111101100111000;  % 0xfffffb38  -0.018681511282920837 %
0056 : 00000000000000000001001110110011;  % 0x000013b3  0.07695058733224869 %
0057 : 11111111111111111111111100001000;  % 0xffffff08  -0.003781236009672284 %
0058 : 00000000000000000001010001110110;  % 0x00001476  0.07992343604564667 %
0059 : 00000000000000000000011000100101;  % 0x00000625  0.02400165982544422 %
005a : 00000000000000000000000110010001;  % 0x00000191  0.006125241983681917 %
005b : 11111111111111111111101001100110;  % 0xfffffa66  -0.021882707253098488 %
005c : 11111111111111111110101011111111;  % 0xffffeaff  -0.08204837888479233 %
005d : 11111111111111111110110101111110;  % 0xffffed7e  -0.07229474186897278 %
005e : 11111111111111111110110001011110;  % 0xffffec5e  -0.07669370621442795 %
005f : 11111111111111111110101010100101;  % 0xffffeaa5  -0.08342210203409195 %
0060 : 00000000000000000000100001101000;  % 0x00000868  0.03283459320664406 %
0061 : 11111111111111111110100101101110;  % 0xffffe96e  -0.08816368132829666 %
0062 : 00000000000000000000010001100110;  % 0x00000466  0.017185673117637634 %
0063 : 11111111111111111111001111010010;  % 0xfffff3d2  -0.04757607728242874 %
0064 : 11111111111111111111011101011100;  % 0xfffff75c  -0.03375505283474922 %
0065 : 00000000000000000000010101011011;  % 0x0000055b  0.020925156772136688 %
0066 : 11111111111111111111100000000011;  % 0xfffff803  -0.031199488788843155 %
0067 : 00000000000000000000000110000000;  % 0x00000180  0.005866378080099821 %
0068 : 11111111111111111111100101101001;  % 0xfffff969  -0.02574070543050766 %
0069 : 11111111111111111111000001011101;  % 0xfffff05d  -0.061074066907167435 %
006a : 00000000000000000000111100101001;  % 0x00000f29  0.05922500416636467 %
006b : 00000000000000000000001010000011;  % 0x00000283  0.009813155978918076 %
006c : 11111111111111111111011001010001;  % 0xfffff651  -0.03782424330711365 %
006d : 00000000000000000001000110010100;  % 0x00001194  0.06865730881690979 %
006e : 00000000000000000001000111100011;  % 0x000011e3  0.06987101584672928 %
006f : 11111111111111111110101101010100;  % 0xffffeb54  -0.08074793219566345 %
0070 : 00000000000000000000001111011001;  % 0x000003d9  0.015032738447189331 %
0071 : 11111111111111111110111000001010;  % 0xffffee0a  -0.07015331834554672 %
0072 : 11111111111111111111100101010011;  % 0xfffff953  -0.026076581329107285 %
0073 : 00000000000000000001000011111011;  % 0x000010fb  0.06633616983890533 %
0074 : 11111111111111111110110101011000;  % 0xffffed58  -0.07287522405385971 %
0075 : 00000000000000000001001100110010;  % 0x00001332  0.07498785853385925 %
0076 : 11111111111111111111110011011101;  % 0xfffffcdd  -0.012258931063115597 %
0077 : 00000000000000000000010101101000;  % 0x00000568  0.02112291380763054 %
0078 : 11111111111111111110101111100011;  % 0xffffebe3  -0.07856425642967224 %
0079 : 00000000000000000000100110110000;  % 0x000009b0  0.03784093260765076 %
007a : 11111111111111111111111010110000;  % 0xfffffeb0  -0.005134231876581907 %
007b : 11111111111111111111101000110101;  % 0xfffffa35  -0.022630231454968452 %
007c : 00000000000000000000010010011111;  % 0x0000049f  0.01804843544960022 %
007d : 00000000000000000000000111111101;  % 0x000001fd  0.007771215867251158 %
007e : 00000000000000000000011101011110;  % 0x0000075e  0.028780585154891014 %
007f : 11111111111111111111001110011111;  % 0xfffff39f  -0.0483478344976902 %
0080 : 11111111111111111111111111010001;  % 0xffffffd1  -0.0007211568299680948 %
0081 : 00000000000000000000010100110010;  % 0x00000532  0.02029736526310444 %
0082 : 11111111111111111111111101110111;  % 0xffffff77  -0.00209685112349689 %
0083 : 11111111111111111111110001011000;  % 0xfffffc58  -0.014277994632720947 %
0084 : 00000000000000000001011111011000;  % 0x000017d8  0.09313990920782089 %
0085 : 00000000000000000000111001110100;  % 0x00000e74  0.05646495893597603 %
0086 : 11111111111111111111111010101101;  % 0xfffffead  -0.005168576259166002 %
0087 : 00000000000000000000000111010010;  % 0x000001d2  0.007103984244167805 %
0088 : 00000000000000000000001110010100;  % 0x00000394  0.013978349976241589 %
0089 : 00000000000000000000010001000001;  % 0x00000441  0.016620831564068794 %
008a : 11111111111111111111001010010001;  % 0xfffff291  -0.052468426525592804 %
008b : 00000000000000000000001001001110;  % 0x0000024e  0.00900343805551529 %
008c : 11111111111111111111110111110010;  % 0xfffffdf2  -0.008018642663955688 %
008d : 00000000000000000000110110110110;  % 0x00000db6  0.05355911701917648 %
008e : 11111111111111111111011100011111;  % 0xfffff71f  -0.03468352556228638 %
008f : 11111111111111111111010010111010;  % 0xfffff4ba  -0.044031307101249695 %
0090 : 11111111111111111110111011110101;  % 0xffffeef5  -0.06657205522060394 %
0091 : 11111111111111111111011101101000;  % 0xfffff768  -0.03357022628188133 %
0092 : 00000000000000000000001100110110;  % 0x00000336  0.012536581605672836 %
0093 : 00000000000000000000110011011010;  % 0x00000cda  0.050203584134578705 %
0094 : 00000000000000000000100011000000;  % 0x000008c0  0.03417797014117241 %
0095 : 00000000000000000000001011010000;  % 0x000002d0  0.010993857868015766 %
0096 : 00000000000000000000001111101010;  % 0x000003ea  0.015286969020962715 %
0097 : 11111111111111111111101011000101;  % 0xfffffac5  -0.020434467121958733 %
0098 : 11111111111111111111110011010101;  % 0xfffffcd5  -0.01237189769744873 %
0099 : 11111111111111111111001111101110;  % 0xfffff3ee  -0.04715580493211746 %
009a : 11111111111111111110101000110001;  % 0xffffea31  -0.08519116789102554 %
009b : 11111111111111111110110100010101;  % 0xffffed15  -0.07389923185110092 %
009c : 11111111111111111101111000011110;  % 0xffffde1e  -0.13234835863113403 %
009d : 00000000000000000000010000010100;  % 0x00000414  0.015928534790873528 %
009e : 00000000000000000000001110010011;  % 0x00000393  0.013955401256680489 %
009f : 00000000000000000000010110111010;  % 0x000005ba  0.02236483059823513 %
00a0 : 00000000000000000001100110111010;  % 0x000019ba  0.10049469769001007 %
00a1 : 00000000000000000001100000011110;  % 0x0000181e  0.09420168399810791 %
00a2 : 00000000000000000000101100111111;  % 0x00000b3f  0.04392630234360695 %
00a3 : 00000000000000000000000000101000;  % 0x00000028  0.0006040915031917393 %
00a4 : 11111111111111111111010001000100;  % 0xfffff444  -0.04583517089486122 %
00a5 : 11111111111111111111100001010111;  % 0xfffff857  -0.029919620603322983 %
00a6 : 11111111111111111110110111110100;  % 0xffffedf4  -0.07049766927957535 %
00a7 : 00000000000000000001000010101110;  % 0x000010ae  0.06515377014875412 %
00a8 : 00000000000000000001000100111001;  % 0x00001139  0.06727927178144455 %
00a9 : 00000000000000000000001011111000;  % 0x000002f8  0.01159261167049408 %
00aa : 11111111111111111111000010000100;  % 0xfffff084  -0.06048934534192085 %
00ab : 11111111111111111111001100000001;  % 0xfffff301  -0.05077287182211876 %
00ac : 00000000000000000000010011110100;  % 0x000004f4  0.019344769418239594 %
00ad : 00000000000000000000011001100000;  % 0x00000660  0.02490992844104767 %
00ae : 11111111111111111111111111010111;  % 0xffffffd7  -0.0006213929154910147 %
00af : 00000000000000000001110101111011;  % 0x00001d7b  0.11515882611274719 %
00b0 : 00000000000000000000001010000000;  % 0x00000280  0.009758575819432735 %
00b1 : 00000000000000000000110010000000;  % 0x00000c80  0.04882962256669998 %
00b2 : 00000000000000000000001011000010;  % 0x000002c2  0.01077545527368784 %
00b3 : 11111111111111111111010111111010;  % 0xfffff5fa  -0.03915344923734665 %
00b4 : 11111111111111111111100100111000;  % 0xfffff938  -0.026485105976462364 %
00b5 : 11111111111111111111000011000111;  % 0xfffff0c7  -0.05946681275963783 %
00b6 : 11111111111111111111100000110100;  % 0xfffff834  -0.030459091067314148 %
00b7 : 11111111111111111110010010111100;  % 0xffffe4bc  -0.1064997985959053 %
00b8 : 11111111111111111110010111010000;  % 0xffffe5d0  -0.10229471325874329 %
00b9 : 11111111111111111111011010011010;  % 0xfffff69a  -0.03670603036880493 %
00ba : 11111111111111111111110000110110;  % 0xfffffc36  -0.014806396327912807 %
00bb : 00000000000000000000011110110100;  % 0x000007b4  0.030086277052760124 %
00bc : 11111111111111111111100010011011;  % 0xfffff89b  -0.028882961720228195 %
00bd : 00000000000000000001001011100000;  % 0x000012e0  0.07373427599668503 %
00be : 00000000000000000000110111110101;  % 0x00000df5  0.054520975798368454 %
00bf : 00000000000000000001011111110011;  % 0x000017f3  0.09354793280363083 %
00c0 : 00000000000000000000101011110110;  % 0x00000af6  0.04281036555767059 %
00c1 : 11111111111111111111101111010110;  % 0xfffffbd6  -0.01626121625304222 %
00c2 : 00000000000000000000010010010100;  % 0x00000494  0.01787853240966797 %
00c3 : 11111111111111111111001011010101;  % 0xfffff2d5  -0.05143826827406883 %
00c4 : 00000000000000000000011110110110;  % 0x000007b6  0.03011663444340229 %
00c5 : 00000000000000000000000101100101;  % 0x00000165  0.005448841955512762 %
00c6 : 11111111111111111111001111011000;  % 0xfffff3d8  -0.04748091846704483 %
00c7 : 00000000000000000001011100100000;  % 0x00001720  0.09033209085464478 %
00c8 : 00000000000000000000001000010100;  % 0x00000214  0.008122523315250874 %
00c9 : 00000000000000000001011010010101;  % 0x00001695  0.08821062743663788 %
00ca : 11111111111111111111100010011101;  % 0xfffff89d  -0.028853528201580048 %
00cb : 00000000000000000000100111101010;  % 0x000009ea  0.03873318061232567 %
00cc : 00000000000000000000001110100111;  % 0x000003a7  0.014267027378082275 %
00cd : 00000000000000000001100011111011;  % 0x000018fb  0.09758557379245758 %
00ce : 11111111111111111111100000000100;  % 0xfffff804  -0.03119410201907158 %
00cf : 11111111111111111111010011000101;  % 0xfffff4c5  -0.04387388005852699 %
00d0 : 11111111111111111111111011101110;  % 0xfffffeee  -0.004186325240880251 %
00d1 : 11111111111111111110111011101001;  % 0xffffeee9  -0.06675644218921661 %
00d2 : 11111111111111111110000100000110;  % 0xffffe106  -0.12099692970514297 %
00d3 : 11111111111111111110011111010000;  % 0xffffe7d0  -0.09448353201150894 %
00d4 : 11111111111111111101011110101010;  % 0xffffd7aa  -0.15755505859851837 %
00d5 : 11111111111111111111100100111010;  % 0xfffff93a  -0.026456912979483604 %
00d6 : 11111111111111111111101110111000;  % 0xfffffbb8  -0.016722964122891426 %
00d7 : 00000000000000000000010101001111;  % 0x0000054f  0.02073514461517334 %
00d8 : 00000000000000000000001110101000;  % 0x000003a8  0.014278892427682877 %
00d9 : 11111111111111111111000010101100;  % 0xfffff0ac  -0.05987922474741936 %
00da : 11111111111111111111100001101100;  % 0xfffff86c  -0.029598983004689217 %
00db : 00000000000000000000101111001100;  % 0x00000bcc  0.04608820006251335 %
00dc : 00000000000000000001010010111001;  % 0x000014b9  0.08095189183950424 %
00dd : 00000000000000000000011001001110;  % 0x0000064e  0.024624967947602272 %
00de : 11111111111111111111100010000110;  % 0xfffff886  -0.029197990894317627 %
00df : 11111111111111111111000001100001;  % 0xfffff061  -0.06102050468325615 %
00e0 : 11111111111111111110101100001001;  % 0xffffeb09  -0.08189783245325089 %
00e1 : 00000000000000000001001001011111;  % 0x0000125f  0.07176483422517776 %
00e2 : 00000000000000000000110001010000;  % 0x00000c50  0.04809319227933884 %
00e3 : 00000000000000000001001110111000;  % 0x000013b8  0.07702626287937164 %
00e4 : 00000000000000000000010000111101;  % 0x0000043d  0.016553180292248726 %
00e5 : 00000000000000000000100010101010;  % 0x000008aa  0.03384185582399368 %
00e6 : 11111111111111111111101010001010;  % 0xfffffa8a  -0.021336721256375313 %
00e7 : 00000000000000000001000001111011;  % 0x0000107b  0.06437773257493973 %
00e8 : 00000000000000000001011011001110;  % 0x000016ce  0.08908365666866302 %
00e9 : 11111111111111111111110000100011;  % 0xfffffc23  -0.015089939348399639 %
00ea : 00000000000000000000101011001000;  % 0x00000ac8  0.0421200655400753 %
00eb : 00000000000000000001001111100110;  % 0x000013e6  0.07773061096668243 %
00ec : 00000000000000000000010100000111;  % 0x00000507  0.01964542642235756 %
00ed : 11111111111111111110110101111111;  % 0xffffed7f  -0.07227516919374466 %
00ee : 11111111111111111110101011111011;  % 0xffffeafb  -0.08210612088441849 %
00ef : 11111111111111111101101101000010;  % 0xffffdb42  -0.14352864027023315 %
00f0 : 11111111111111111111000110000100;  % 0xfffff184  -0.05657657980918884 %
00f1 : 11111111111111111111011010000111;  % 0xfffff687  -0.03699640929698944 %
00f2 : 00000000000000000000011101011100;  % 0x0000075c  0.02874356508255005 %
00f3 : 11111111111111111111101001101101;  % 0xfffffa6d  -0.021780751645565033 %
00f4 : 11111111111111111111111110100011;  % 0xffffffa3  -0.0014120200648903847 %
00f5 : 00000000000000000001001100110101;  % 0x00001335  0.07502013444900513 %
00f6 : 00000000000000000000010111011111;  % 0x000005df  0.022936325520277023 %
00f7 : 00000000000000000000001001000011;  % 0x00000243  0.008840025402605534 %
00f8 : 00000000000000000001101010000000;  % 0x00001a80  0.10351014882326126 %
00f9 : 00000000000000000000101011011000;  % 0x00000ad8  0.04235178977251053 %
00fa : 00000000000000000000100101100010;  % 0x00000962  0.0366487093269825 %
00fb : 11111111111111111111000110011001;  % 0xfffff199  -0.05625659227371216 %
00fc : 11111111111111111110101001010110;  % 0xffffea56  -0.08461999148130417 %
00fd : 00000000000000000000000001010010;  % 0x00000052  0.0012509140651673079 %
00fe : 11111111111111111111000001100100;  % 0xfffff064  -0.06097292900085449 %
00ff : 00000000000000000000110110011000;  % 0x00000d98  0.05309348925948143 %
0100 : 00000000000000000000100101100111;  % 0x00000967  0.03672345355153084 %
0101 : 00000000000000000001111110110010;  % 0x00001fb2  0.12381007522344589 %
0102 : 00000000000000000000001000100010;  % 0x00000222  0.008327912539243698 %
0103 : 11111111111111111111101000111010;  % 0xfffffa3a  -0.02255769819021225 %
0104 : 00000000000000000000111100100100;  % 0x00000f24  0.059144116938114166 %
0105 : 00000000000000000001100000001110;  % 0x0000180e  0.09396612644195557 %
0106 : 00000000000000000000100101010110;  % 0x00000956  0.036465078592300415 %
0107 : 00000000000000000001001001110001;  % 0x00001271  0.07204146683216095 %
0108 : 00000000000000000000110001100101;  % 0x00000c65  0.048414915800094604 %
0109 : 11111111111111111111111110111111;  % 0xffffffbf  -0.0009973513660952449 %
010a : 11111111111111111101101111011011;  % 0xffffdbdb  -0.1411886364221573 %
010b : 11111111111111111110100011001111;  % 0xffffe8cf  -0.09058878570795059 %
010c : 11111111111111111111010010110100;  % 0xfffff4b4  -0.044122084975242615 %
010d : 00000000000000000001001011010111;  % 0x000012d7  0.07358914613723755 %
010e : 00000000000000000001000001000001;  % 0x00001041  0.06348631531000137 %
010f : 00000000000000000001010001101110;  % 0x0000146e  0.07980040460824966 %
0110 : 00000000000000000000000011110101;  % 0x000000f5  0.0037322635762393475 %
0111 : 00000000000000000001011010111000;  % 0x000016b8  0.08874637633562088 %
0112 : 00000000000000000000110010000101;  % 0x00000c85  0.04890744015574455 %
0113 : 00000000000000000001111111010000;  % 0x00001fd0  0.12426840513944626 %
0114 : 00000000000000000001100111000110;  % 0x000019c6  0.10068178921937943 %
0115 : 11111111111111111111111011110001;  % 0xfffffef1  -0.004139525815844536 %
0116 : 11111111111111111110101111111011;  % 0xffffebfb  -0.07819855958223343 %
0117 : 00000000000000000000001100000111;  % 0x00000307  0.011825383640825748 %
0118 : 00000000000000000000001110011101;  % 0x0000039d  0.014107830822467804 %
0119 : 11111111111111111111110011010111;  % 0xfffffcd7  -0.012349235825240612 %
011a : 00000000000000000000010011000001;  % 0x000004c1  0.018567288294434547 %
011b : 00000000000000000001000011101001;  % 0x000010e9  0.06605728715658188 %
011c : 00000000000000000001101001110000;  % 0x00001a70  0.10326828062534332 %
011d : 11111111111111111111011000011000;  % 0xfffff618  -0.03869679197669029 %
011e : 11111111111111111111011011101010;  % 0xfffff6ea  -0.035493992269039154 %
011f : 00000000000000000000110101010101;  % 0x00000d55  0.052073851227760315 %
0120 : 00000000000000000000011110001010;  % 0x0000078a  0.02945033088326454 %
0121 : 00000000000000000000001011110111;  % 0x000002f7  0.011579474434256554 %
0122 : 11111111111111111111111111001010;  % 0xffffffca  -0.0008204268524423242 %
0123 : 00000000000000000001011011000001;  % 0x000016c1  0.08887684345245361 %
0124 : 00000000000000000001010101101100;  % 0x0000156c  0.0836864784359932 %
0125 : 00000000000000000001000001110010;  % 0x00001072  0.06423195451498032 %
0126 : 11111111111111111110011001111000;  % 0xffffe678  -0.0997324138879776 %
0127 : 11111111111111111110000110010111;  % 0xffffe197  -0.11879042536020279 %
0128 : 00000000000000000001010011001000;  % 0x000014c8  0.08117873966693878 %
0129 : 00000000000000000001001010111010;  % 0x000012ba  0.07315345108509064 %
012a : 00000000000000000001011100001111;  % 0x0000170f  0.09007220715284348 %
012b : 11111111111111111111110101110011;  % 0xfffffd73  -0.009968603029847145 %
012c : 00000000000000000010000100000001;  % 0x00002101  0.12891854345798492 %
012d : 00000000000000000001110110101110;  % 0x00001dae  0.11594208329916 %
012e : 00000000000000000001100101001000;  % 0x00001948  0.09876143932342529 %
012f : 00000000000000000000010011011101;  % 0x000004dd  0.018991567194461823 %
0130 : 11111111111111111111110001000010;  % 0xfffffc42  -0.014619959518313408 %
0131 : 00000000000000000000000111100101;  % 0x000001e5  0.007407072931528091 %
0132 : 11111111111111111110111111000010;  % 0xffffefc2  -0.06344787776470184 %
0133 : 11111111111111111111010010100000;  % 0xfffff4a0  -0.04444080963730812 %
0134 : 00000000000000000000000111001111;  % 0x000001cf  0.007063327357172966 %
0135 : 00000000000000000000110111101011;  % 0x00000deb  0.054368581622838974 %
0136 : 00000000000000000000010100011000;  % 0x00000518  0.019897982478141785 %
0137 : 11111111111111111111101000101101;  % 0xfffffa2d  -0.022758066654205322 %
0138 : 00000000000000000001000001110010;  % 0x00001072  0.0642450675368309 %
0139 : 00000000000000000001010000111101;  % 0x0000143d  0.0790519118309021 %
013a : 11111111111111111111100110001111;  % 0xfffff98f  -0.025167284533381462 %
013b : 11111111111111111111110011100101;  % 0xfffffce5  -0.012136058881878853 %
013c : 11111111111111111110110010001110;  % 0xffffec8e  -0.07595595717430115 %
013d : 00000000000000000010000001101111;  % 0x0000206f  0.12668804824352264 %
013e : 00000000000000000000101110010101;  % 0x00000b95  0.04523776099085808 %
013f : 00000000000000000001111000001100;  % 0x00001e0c  0.11737436056137085 %
0140 : 00000000000000000010100010111001;  % 0x000028b9  0.15906615555286407 %
0141 : 00000000000000000000011101010000;  % 0x00000750  0.028557756915688515 %
0142 : 11111111111111111101110101110010;  % 0xffffdd72  -0.13498207926750183 %
0143 : 11111111111111111110101010101000;  % 0xffffeaa8  -0.08336930721998215 %
0144 : 00000000000000000000011011110100;  % 0x000006f4  0.027156833559274673 %
0145 : 00000000000000000000100111001010;  % 0x000009ca  0.03824082762002945 %
0146 : 00000000000000000001110101110100;  % 0x00001d74  0.11504734307527542 %
0147 : 00000000000000000001001011010011;  % 0x000012d3  0.07352910935878754 %
0148 : 11111111111111111110111000110000;  % 0xffffee30  -0.06957650929689407 %
0149 : 11111111111111111110110101001101;  % 0xffffed4d  -0.07303638756275177 %
014a : 11111111111111111111111100000000;  % 0xffffff00  -0.003911593928933144 %
014b : 11111111111111111111100100100110;  % 0xfffff926  -0.026761043816804886 %
014c : 11111111111111111111000101110101;  % 0xfffff175  -0.05681174248456955 %
014d : 00000000000000000000110100001010;  % 0x00000d0a  0.050938237458467484 %
014e : 00000000000000000000011111111011;  % 0x000007fb  0.031168818473815918 %
014f : 11111111111111111110101001111001;  % 0xffffea79  -0.08409298211336136 %
0150 : 11111111111111111111110001010010;  % 0xfffffc52  -0.014374683611094952 %
0151 : 00000000000000000000010100101110;  % 0x0000052e  0.020234817638993263 %
0152 : 11111111111111111111010101001010;  % 0xfffff54a  -0.04183918237686157 %
0153 : 00000000000000000000000010101010;  % 0x000000aa  0.002592851174995303 %
0154 : 11111111111111111111010001111001;  % 0xfffff479  -0.04502837732434273 %
0155 : 00000000000000000000001101001100;  % 0x0000034c  0.012874984182417393 %
0156 : 00000000000000000000011010010001;  % 0x00000691  0.02564932219684124 %
0157 : 00000000000000000001001000100101;  % 0x00001225  0.07088188827037811 %
0158 : 00000000000000000000111110100010;  % 0x00000fa2  0.0610700286924839 %
0159 : 00000000000000000000110001110111;  % 0x00000c77  0.048692524433135986 %
015a : 00000000000000000000111001000111;  % 0x00000e47  0.05576886236667633 %
015b : 00000000000000000001110001000011;  % 0x00001c43  0.1103900820016861 %
015c : 00000000000000000011001010101101;  % 0x000032ad  0.19794850051403046 %
015d : 11111111111111111111101001111100;  % 0xfffffa7c  -0.021546993404626846 %
015e : 11111111111111111101111100110111;  % 0xffffdf37  -0.1280713528394699 %
015f : 11111111111111111111000110011100;  % 0xfffff19c  -0.05621163174510002 %
0160 : 11111111111111111111111111010011;  % 0xffffffd3  -0.0006850315839983523 %
0161 : 00000000000000000000101110011110;  % 0x00000b9e  0.04537779092788696 %
0162 : 11111111111111111111001001101010;  % 0xfffff26a  -0.05307566002011299 %
0163 : 00000000000000000000010111010010;  % 0x000005d2  0.022743018344044685 %
0164 : 00000000000000000000011001100011;  % 0x00000663  0.02494128793478012 %
0165 : 11111111111111111111111111110100;  % 0xfffffff4  -0.00018515079864300787 %
0166 : 11111111111111111111111100001100;  % 0xffffff0c  -0.00372786121442914 %
0167 : 11111111111111111101111011100010;  % 0xffffdee2  -0.1293586641550064 %
0168 : 11111111111111111110011000000001;  % 0xffffe601  -0.10154372453689575 %
0169 : 00000000000000000000011110011010;  % 0x0000079a  0.029696913436055183 %
016a : 11111111111111111111111001100010;  % 0xfffffe62  -0.00631024269387126 %
016b : 11111111111111111111011001110111;  % 0xfffff677  -0.037249501794576645 %
016c : 11111111111111111111001100111010;  % 0xfffff33a  -0.04989302158355713 %
016d : 00000000000000000000111110110010;  % 0x00000fb2  0.06130892038345337 %
016e : 11111111111111111111111101000101;  % 0xffffff45  -0.002847706200554967 %
016f : 11111111111111111110110101010000;  % 0xffffed50  -0.07299715280532837 %
0170 : 00000000000000000000101110001101;  % 0x00000b8d  0.04512307047843933 %
0171 : 11111111111111111111110110010011;  % 0xfffffd93  -0.009469380602240562 %
0172 : 00000000000000000000010001100011;  % 0x00000463  0.0171347726136446 %
0173 : 11111111111111111111011010011111;  % 0xfffff69f  -0.03663872927427292 %
0174 : 00000000000000000000101000011010;  % 0x00000a1a  0.039453525096178055 %
0175 : 00000000000000000001000010101010;  % 0x000010aa  0.06509373337030411 %
0176 : 00000000000000000000110010111011;  % 0x00000cbb  0.04973268136382103 %
0177 : 00000000000000000001110111110100;  % 0x00001df4  0.1170063242316246 %
0178 : 00000000000000000001101011101110;  % 0x00001aee  0.10519741475582123 %
0179 : 11111111111111111110111011001011;  % 0xffffeecb  -0.06722018122673035 %
017a : 11111111111111111110000111001001;  % 0xffffe1c9  -0.11802428960800171 %
017b : 11111111111111111110011010110101;  % 0xffffe6b5  -0.0987948551774025 %
017c : 11111111111111111111111110010010;  % 0xffffff92  -0.0016849520616233349 %
017d : 00000000000000000000010111011101;  % 0x000005dd  0.022910069674253464 %
017e : 00000000000000000000101111101100;  % 0x00000bec  0.04656548798084259 %
017f : 11111111111111111110110101100110;  % 0xffffed66  -0.07266931980848312 %
0180 : 00000000000000000000001001000100;  % 0x00000244  0.00885047111660242 %
0181 : 00000000000000000000001001111001;  % 0x00000279  0.009654497727751732 %
0182 : 11111111111111111110111111011010;  % 0xffffefda  -0.0630812719464302 %
0183 : 11111111111111111111100100110001;  % 0xfffff931  -0.02659153938293457 %
0184 : 00000000000000000000010110001010;  % 0x0000058a  0.021632233634591103 %
0185 : 11111111111111111111111100011011;  % 0xffffff1b  -0.0035017849877476692 %
0186 : 00000000000000000000011110101110;  % 0x000007ae  0.030004043132066727 %
0187 : 11111111111111111110110010010110;  % 0xffffec96  -0.07584033906459808 %
0188 : 00000000000000000001001001111110;  % 0x0000127e  0.07223567366600037 %
0189 : 00000000000000000000110111001111;  % 0x00000dcf  0.05393611639738083 %
018a : 00000000000000000000111110110001;  % 0x00000fb1  0.0612957701086998 %
018b : 11111111111111111110110011001011;  % 0xffffeccb  -0.07502689957618713 %
018c : 11111111111111111111001011000100;  % 0xfffff2c4  -0.051692020148038864 %
018d : 00000000000000000000010010100000;  % 0x000004a0  0.018065905198454857 %
018e : 00000000000000000000011101010111;  % 0x00000757  0.028669601306319237 %
018f : 00000000000000000000100110101011;  % 0x000009ab  0.03776698186993599 %
0190 : 00000000000000000000100010001011;  % 0x0000088b  0.033366769552230835 %
0191 : 11111111111111111111110111111110;  % 0xfffffdfe  -0.00784560851752758 %
0192 : 00000000000000000001011010101100;  % 0x000016ac  0.08856192976236343 %
0193 : 00000000000000000000010100011111;  % 0x0000051f  0.02000279352068901 %
0194 : 11111111111111111111001101111010;  % 0xfffff37a  -0.04891836643218994 %
0195 : 11111111111111111110110010000111;  % 0xffffec87  -0.07606001198291779 %
0196 : 00000000000000000000110000110011;  % 0x00000c33  0.04764952138066292 %
0197 : 11111111111111111111000100001100;  % 0xfffff10c  -0.05840703472495079 %
0198 : 11111111111111111111100010010111;  % 0xfffff897  -0.028942884877324104 %
0199 : 00000000000000000000101011010111;  % 0x00000ad7  0.04234873503446579 %
019a : 00000000000000000000011101101100;  % 0x0000076c  0.028993654996156693 %
019b : 00000000000000000001010110111101;  % 0x000015bd  0.08491695672273636 %
019c : 11111111111111111111111100100111;  % 0xffffff27  -0.003311503678560257 %
019d : 11111111111111111111010110000110;  % 0xfffff586  -0.04093126207590103 %
019e : 00000000000000000000001101101001;  % 0x00000369  0.013319832272827625 %
019f : 11111111111111111111110101010010;  % 0xfffffd52  -0.010461418889462948 %
01a0 : 11111111111111111111011001110001;  % 0xfffff671  -0.037340596318244934 %
01a1 : 00000000000000000000110100110000;  % 0x00000d30  0.05150757357478142 %
01a2 : 11111111111111111111001011000011;  % 0xfffff2c3  -0.051717326045036316 %
01a3 : 11111111111111111110110010101101;  % 0xffffecad  -0.07548736035823822 %
01a4 : 00000000000000000001000011011110;  % 0x000010de  0.0658915713429451 %
01a5 : 11111111111111111111111100110111;  % 0xffffff37  -0.0030634189024567604 %
01a6 : 00000000000000000001001110101010;  % 0x000013aa  0.07681135088205338 %
01a7 : 00000000000000000000100010001110;  % 0x0000088e  0.033411625772714615 %
01a8 : 11111111111111111111101101000000;  % 0xfffffb40  -0.018547413870692253 %
01a9 : 11111111111111111111101001111101;  % 0xfffffa7d  -0.021532434970140457 %
01aa : 11111111111111111111100011000100;  % 0xfffff8c4  -0.028252527117729187 %
01ab : 00000000000000000000011000111011;  % 0x0000063b  0.024332141503691673 %
01ac : 11111111111111111111111010111111;  % 0xfffffebf  -0.004894598852843046 %
01ad : 00000000000000000000100001110011;  % 0x00000873  0.033004969358444214 %
01ae : 00000000000000000000110011001001;  % 0x00000cc9  0.04994781315326691 %
01af : 11111111111111111110010010001111;  % 0xffffe48f  -0.10720017552375793 %
01b0 : 11111111111111111110110010110100;  % 0xffffecb4  -0.07537727802991867 %
01b1 : 11111111111111111110111110010010;  % 0xffffef92  -0.06417800486087799 %
01b2 : 00000000000000000000001100100001;  % 0x00000321  0.01222180388867855 %
01b3 : 00000000000000000000011000100110;  % 0x00000626  0.024015294387936592 %
01b4 : 11111111111111111111100110110111;  % 0xfffff9b7  -0.02454935386776924 %
01b5 : 00000000000000000001001000011010;  % 0x0000121a  0.07071484625339508 %
01b6 : 00000000000000000000011001100101;  % 0x00000665  0.024986255913972855 %
01b7 : 11111111111111111111111011000011;  % 0xfffffec3  -0.004832037258893251 %
01b8 : 11111111111111111111011110010010;  % 0xfffff792  -0.03293215110898018 %
01b9 : 00000000000000000000001100111101;  % 0x0000033d  0.012646423652768135 %
01ba : 11111111111111111111100001010101;  % 0xfffff855  -0.02995116263628006 %
01bb : 11111111111111111110101011110000;  % 0xffffeaf0  -0.08227519690990448 %
01bc : 00000000000000000000000100000011;  % 0x00000103  0.003944496624171734 %
01bd : 00000000000000000000011111000111;  % 0x000007c7  0.0303726214915514 %
01be : 11111111111111111111011110000001;  % 0xfffff781  -0.033184897154569626 %
01bf : 11111111111111111110111100011011;  % 0xffffef1b  -0.06599993258714676 %
01c0 : 00000000000000000000110110010001;  % 0x00000d91  0.05299420282244682 %
01c1 : 11111111111111111111001011000100;  % 0xfffff2c4  -0.051697634160518646 %
01c2 : 11111111111111111111111100000100;  % 0xffffff04  -0.003838689997792244 %
01c3 : 00000000000000000001001000001011;  % 0x0000120b  0.07048773765563965 %
01c4 : 11111111111111111111011100000101;  % 0xfffff705  -0.03508322685956955 %
01c5 : 11111111111111111111100000010010;  % 0xfffff812  -0.030970843508839607 %
01c6 : 00000000000000000000011000000100;  % 0x00000604  0.02350456826388836 %
01c7 : 11111111111111111110110011011001;  % 0xffffecd9  -0.07481324672698975 %
01c8 : 00000000000000000000000111111110;  % 0x000001fe  0.007786267437040806 %
01c9 : 11111111111111111111110011110111;  % 0xfffffcf7  -0.011849451810121536 %
01ca : 11111111111111111101101011010010;  % 0xffffdad2  -0.1452370584011078 %
01cb : 11111111111111111101110001101010;  % 0xffffdc6a  -0.13900603353977203 %
01cc : 00000000000000000000001000100110;  % 0x00000226  0.008392656221985817 %
01cd : 11111111111111111111011010001100;  % 0xfffff68c  -0.03692762181162834 %
01ce : 00000000000000000000011001000110;  % 0x00000646  0.024508768692612648 %
01cf : 00000000000000000000000001000001;  % 0x00000041  0.0009877668926492333 %
01d0 : 11111111111111111111101110011001;  % 0xfffffb99  -0.01719365082681179 %
01d1 : 00000000000000000000001010000100;  % 0x00000284  0.009828348644077778 %
01d2 : 11111111111111111111101101000110;  % 0xfffffb46  -0.018457593396306038 %
01d3 : 00000000000000000000111100000000;  % 0x00000f00  0.05858800932765007 %
01d4 : 11111111111111111111101001000001;  % 0xfffffa41  -0.02245238982141018 %
01d5 : 00000000000000000000111101010110;  % 0x00000f56  0.059905681759119034 %
01d6 : 00000000000000000001010011001011;  % 0x000014cb  0.08122731745243073 %
01d7 : 11111111111111111111111011101101;  % 0xfffffeed  -0.004189019091427326 %
01d8 : 11111111111111111110110010100101;  % 0xffffeca5  -0.0756145566701889 %
01d9 : 00000000000000000000011100111000;  % 0x00000738  0.02820323035120964 %
01da : 11111111111111111111101000011100;  % 0xfffffa1c  -0.023012373596429825 %
01db : 00000000000000000000001011100101;  % 0x000002e5  0.011310766451060772 %
01dc : 00000000000000000000000111101000;  % 0x000001e8  0.007446371018886566 %
01dd : 00000000000000000000110110000011;  % 0x00000d83  0.052781082689762115 %
01de : 00000000000000000000010110111000;  % 0x000005b8  0.022334691137075424 %
01df : 11111111111111111110100111001000;  % 0xffffe9c8  -0.08679559826850891 %
01e0 : 11111111111111111111001100101000;  % 0xfffff328  -0.05017006769776344 %
01e1 : 00000000000000000000001101001100;  % 0x0000034c  0.012875470332801342 %
01e2 : 00000000000000000000001000101100;  % 0x0000022c  0.008480082266032696 %
01e3 : 00000000000000000000001010100000;  % 0x000002a0  0.010256852954626083 %
01e4 : 11111111111111111110001011000111;  % 0xffffe2c7  -0.11415307968854904 %
01e5 : 11111111111111111111011100101011;  % 0xfffff72b  -0.03450220450758934 %
01e6 : 11111111111111111110101011001001;  % 0xffffeac9  -0.08287038654088974 %
01e7 : 11111111111111111110110110011110;  % 0xffffed9e  -0.07180570811033249 %
01e8 : 11111111111111111111010000000010;  % 0xfffff402  -0.04684670642018318 %
01e9 : 11111111111111111111001011110011;  % 0xfffff2f3  -0.050980664789676666 %
01ea : 00000000000000000000111000100000;  % 0x00000e20  0.055182814598083496 %
01eb : 00000000000000000000101100111000;  % 0x00000b38  0.04381942376494408 %
01ec : 00000000000000000000011110011101;  % 0x0000079d  0.029736332595348358 %
01ed : 00000000000000000000111010000100;  % 0x00000e84  0.05669553577899933 %
01ee : 00000000000000000000001100001000;  % 0x00000308  0.011841470375657082 %
01ef : 11111111111111111111100011011001;  % 0xfffff8d9  -0.027932725846767426 %
01f0 : 00000000000000000000001101001000;  % 0x00000348  0.012812983244657516 %
01f1 : 00000000000000000000010010010001;  % 0x00000491  0.017834970727562904 %
01f2 : 11111111111111111111000011100100;  % 0xfffff0e4  -0.059018272906541824 %
01f3 : 00000000000000000001010011101001;  % 0x000014e9  0.08168139308691025 %
01f4 : 11111111111111111110110000111100;  % 0xffffec3c  -0.07720816880464554 %
01f5 : 00000000000000000001001010100111;  % 0x000012a7  0.07285954803228378 %
01f6 : 11111111111111111111010000111101;  % 0xfffff43d  -0.04595125466585159 %
01f7 : 11111111111111111110100100000010;  % 0xffffe902  -0.0898168534040451 %
01f8 : 11111111111111111111110101100110;  % 0xfffffd66  -0.010162841528654099 %
01f9 : 00000000000000000001010111101001;  % 0x000015e9  0.08558545261621475 %
01fa : 11111111111111111111100011101110;  % 0xfffff8ee  -0.02762092649936676 %
01fb : 11111111111111111110110111011000;  % 0xffffedd8  -0.07091835141181946 %
01fc : 00000000000000000001010011110001;  % 0x000014f1  0.08180741965770721 %
01fd : 11111111111111111111101100000000;  % 0xfffffb00  -0.01953565888106823 %
01fe : 00000000000000000001011000001111;  % 0x0000160f  0.08615896105766296 %
01ff : 00000000000000000000100010100010;  % 0x000008a2  0.03371531516313553 %
0200 : 00000000000000000001000001001101;  % 0x0000104d  0.06368034332990646 %
0201 : 11111111111111111110100001110011;  % 0xffffe873  -0.09199584275484085 %
0202 : 11111111111111111111000101000101;  % 0xfffff145  -0.057537395507097244 %
0203 : 11111111111111111110011000100101;  % 0xffffe625  -0.10099631547927856 %
0204 : 11111111111111111111100110011101;  % 0xfffff99d  -0.024944985285401344 %
0205 : 11111111111111111111001111110001;  % 0xfffff3f1  -0.04710288345813751 %
0206 : 00000000000000000000110001001110;  % 0x00000c4e  0.04807223752140999 %
0207 : 00000000000000000001000100000110;  % 0x00001106  0.06650163233280182 %
0208 : 00000000000000000000010110111010;  % 0x000005ba  0.02237214893102646 %
0209 : 00000000000000000001000101000111;  % 0x00001147  0.06749138236045837 %
020a : 00000000000000000000110010101000;  % 0x00000ca8  0.04943764582276344 %
020b : 00000000000000000000000101101101;  % 0x0000016d  0.005567740648984909 %
020c : 00000000000000000001001111010011;  % 0x000013d3  0.07743397355079651 %
020d : 00000000000000000000101100010100;  % 0x00000b14  0.043272100389003754 %
020e : 11111111111111111111100011000011;  % 0xfffff8c3  -0.02828039787709713 %
020f : 00000000000000000001000000001100;  % 0x0000100c  0.0626772940158844 %
0210 : 11111111111111111111000110011000;  % 0xfffff198  -0.05626896396279335 %
0211 : 11111111111111111111101100000010;  % 0xfffffb02  -0.019494596868753433 %
0212 : 00000000000000000000110101010001;  % 0x00000d51  0.052021175622940063 %
0213 : 11111111111111111111001010001110;  % 0xfffff28e  -0.05251990631222725 %
0214 : 11111111111111111111001001110000;  % 0xfffff270  -0.05297615006566048 %
0215 : 00000000000000000001010001111101;  % 0x0000147d  0.08003346621990204 %
0216 : 11111111111111111111110100111110;  % 0xfffffd3e  -0.010778906755149364 %
0217 : 00000000000000000000100110001001;  % 0x00000989  0.037249743938446045 %
0218 : 00000000000000000000011000010011;  % 0x00000613  0.023726653307676315 %
0219 : 00000000000000000000001011010010;  % 0x000002d2  0.011015317402780056 %
021a : 11111111111111111111011001001110;  % 0xfffff64e  -0.037876956164836884 %
021b : 11111111111111111111001101101001;  % 0xfffff369  -0.04918207973241806 %
021c : 00000000000000000000010111110001;  % 0x000005f1  0.023215631023049355 %
021d : 11111111111111111110110100010010;  % 0xffffed12  -0.07394231855869293 %
021e : 11111111111111111110011101111100;  % 0xffffe77c  -0.09576232731342316 %
021f : 11111111111111111110110111000000;  % 0xffffedc0  -0.07129290699958801 %
0220 : 11111111111111111110110110110010;  % 0xffffedb2  -0.07149524241685867 %
0221 : 11111111111111111110101101001111;  % 0xffffeb4f  -0.08082503080368042 %
0222 : 00000000000000000000010100010000;  % 0x00000510  0.019775448366999626 %
0223 : 11111111111111111111110101100000;  % 0xfffffd60  -0.010254090651869774 %
0224 : 00000000000000000000000011111101;  % 0x000000fd  0.0038658338598906994 %
0225 : 00000000000000000000010111100010;  % 0x000005e2  0.02297317609190941 %
0226 : 11111111111111111111100001100010;  % 0xfffff862  -0.029752783477306366 %
0227 : 11111111111111111110110111010110;  % 0xffffedd6  -0.07095848768949509 %
0228 : 00000000000000000000010011101000;  % 0x000004e8  0.01916261576116085 %
0229 : 00000000000000000000000001010000;  % 0x00000050  0.001217886689119041 %
022a : 11111111111111111110010101010010;  % 0xffffe552  -0.10421391576528549 %
022b : 11111111111111111111111000101110;  % 0xfffffe2e  -0.007114236243069172 %
022c : 00000000000000000000000001110111;  % 0x00000077  0.0018113673431798816 %
022d : 00000000000000000000011110111001;  % 0x000007b9  0.030161023139953613 %
022e : 00000000000000000000011111000110;  % 0x000007c6  0.03035786747932434 %
022f : 00000000000000000000010000100101;  % 0x00000425  0.01619589328765869 %
0230 : 00000000000000000000101010101101;  % 0x00000aad  0.041697971522808075 %
0231 : 00000000000000000001010000101011;  % 0x0000142b  0.07878553122282028 %
0232 : 11111111111111111111001010110101;  % 0xfffff2b5  -0.051930982619524 %
0233 : 11111111111111111111001000011101;  % 0xfffff21d  -0.05424806475639343 %
0234 : 00000000000000000000110101111111;  % 0x00000d7f  0.052714958786964417 %
0235 : 00000000000000000000001001110010;  % 0x00000272  0.009558054618537426 %
0236 : 00000000000000000000100111001100;  % 0x000009cc  0.03827293962240219 %
0237 : 11111111111111111111001000110000;  % 0xfffff230  -0.05395468324422836 %
0238 : 00000000000000000000010011111011;  % 0x000004fb  0.019449349492788315 %
0239 : 11111111111111111101101001110111;  % 0xffffda77  -0.1466207057237625 %
023a : 11111111111111111111101000111110;  % 0xfffffa3e  -0.022498611360788345 %
023b : 11111111111111111111101010101011;  % 0xfffffaab  -0.020820673555135727 %
023c : 00000000000000000000010000110011;  % 0x00000433  0.016402553766965866 %
023d : 11111111111111111110000110000101;  % 0xffffe185  -0.11906901746988297 %
023e : 11111111111111111111100000001100;  % 0xfffff80c  -0.03107188642024994 %
023f : 00000000000000000000010011010000;  % 0x000004d0  0.01879560388624668 %
0240 : 11111111111111111111001100100111;  % 0xfffff327  -0.05018579959869385 %
0241 : 11111111111111111111110111011011;  % 0xfffffddb  -0.008371205069124699 %
0242 : 11111111111111111111110001010101;  % 0xfffffc55  -0.014332256279885769 %
0243 : 00000000000000000001000110111111;  % 0x000011bf  0.06932498514652252 %
0244 : 11111111111111111110010011000110;  % 0xffffe4c6  -0.10636021196842194 %
0245 : 00000000000000000000100111110110;  % 0x000009f6  0.03890389949083328 %
0246 : 00000000000000000000011101110110;  % 0x00000776  0.029142647981643677 %
0247 : 00000000000000000000011010000000;  % 0x00000680  0.025394851341843605 %
0248 : 11111111111111111110110100110110;  % 0xffffed36  -0.07338864356279373 %
0249 : 11111111111111111111010110011111;  % 0xfffff59f  -0.04054735600948334 %
024a : 11111111111111111110110110010100;  % 0xffffed94  -0.07196463644504547 %
024b : 00000000000000000000111001101111;  % 0x00000e6f  0.05638004466891289 %
024c : 11111111111111111111000101101001;  % 0xfffff169  -0.056988075375556946 %
024d : 11111111111111111111011110100011;  % 0xfffff7a3  -0.03266820311546326 %
024e : 11111111111111111110101101101100;  % 0xffffeb6c  -0.08037743717432022 %
024f : 00000000000000000000110111001110;  % 0x00000dce  0.05392644181847572 %
0250 : 00000000000000000000011101001110;  % 0x0000074e  0.02853979729115963 %
0251 : 11111111111111111110011110011111;  % 0xffffe79f  -0.09523725509643555 %
0252 : 11111111111111111111101100001001;  % 0xfffffb09  -0.019399557262659073 %
0253 : 11111111111111111101111000011000;  % 0xffffde18  -0.13244248926639557 %
0254 : 11111111111111111110100100000010;  % 0xffffe902  -0.08981472998857498 %
0255 : 00000000000000000000001001100101;  % 0x00000265  0.009347464889287949 %
0256 : 11111111111111111110110100111111;  % 0xffffed3f  -0.07326427847146988 %
0257 : 00000000000000000000010110001101;  % 0x0000058d  0.02167939580976963 %
0258 : 00000000000000000000011100010100;  % 0x00000714  0.027653783559799194 %
0259 : 11111111111111111111111101011011;  % 0xffffff5b  -0.002517910674214363 %
025a : 11111111111111111110011101111000;  % 0xffffe778  -0.09582722187042236 %
025b : 11111111111111111111000110110110;  % 0xfffff1b6  -0.05582328513264656 %
025c : 11111111111111111111111010001101;  % 0xfffffe8d  -0.005657508037984371 %
025d : 00000000000000000000000111110001;  % 0x000001f1  0.00758425472304225 %
025e : 00000000000000000000110001011000;  % 0x00000c58  0.04821131378412247 %
025f : 11111111111111111111011110011111;  % 0xfffff79f  -0.03273209556937218 %
0260 : 00000000000000000001111110011000;  % 0x00001f98  0.1234123483300209 %
0261 : 11111111111111111111101010100001;  % 0xfffffaa1  -0.0209798701107502 %
0262 : 00000000000000000000010010111011;  % 0x000004bb  0.018475934863090515 %
0263 : 00000000000000000000100001001011;  % 0x0000084b  0.03239704295992851 %
0264 : 00000000000000000000101000111010;  % 0x00000a3a  0.039948973804712296 %
0265 : 00000000000000000000101111001111;  % 0x00000bcf  0.046131033450365067 %
0266 : 11111111111111111111100011110101;  % 0xfffff8f5  -0.02751714549958706 %
0267 : 11111111111111111111110110001100;  % 0xfffffd8c  -0.0095757395029068 %
0268 : 00000000000000000000011001000011;  % 0x00000643  0.024458415806293488 %
0269 : 11111111111111111111101000110000;  % 0xfffffa30  -0.022708311676979065 %
026a : 11111111111111111110110001100001;  % 0xffffec61  -0.07664397358894348 %
026b : 00000000000000000001000111010000;  % 0x000011d0  0.06958308815956116 %
026c : 11111111111111111111010011110100;  % 0xfffff4f4  -0.04314782842993736 %
026d : 11111111111111111110101101011111;  % 0xffffeb5f  -0.08058158308267593 %
026e : 00000000000000000000000111000111;  % 0x000001c7  0.0069499146193265915 %
026f : 11111111111111111111010111110011;  % 0xfffff5f3  -0.039266519248485565 %
0270 : 11111111111111111111001100011100;  % 0xfffff31c  -0.05034840479493141 %
0271 : 11111111111111111111111001010000;  % 0xfffffe50  -0.00658763200044632 %
0272 : 11111111111111111111010010001100;  % 0xfffff48c  -0.044744525104761124 %
0273 : 00000000000000000000010010011100;  % 0x0000049c  0.018010010942816734 %
0274 : 00000000000000000000000101111101;  % 0x0000017d  0.005807692650705576 %
0275 : 11111111111111111111010111010000;  % 0xfffff5d0  -0.03979337960481644 %
0276 : 00000000000000000000111110001010;  % 0x00000f8a  0.06070563569664955 %
0277 : 00000000000000000000000111111010;  % 0x000001fa  0.007718128152191639 %
0278 : 11111111111111111111001011101100;  % 0xfffff2ec  -0.05108538642525673 %
0279 : 11111111111111111111010011110000;  % 0xfffff4f0  -0.04321371018886566 %
027a : 00000000000000000001000001010111;  % 0x00001057  0.06382082402706146 %
027b : 00000000000000000001111001010111;  % 0x00001e57  0.11851462721824646 %
027c : 00000000000000000000001110001110;  % 0x0000038e  0.013880725018680096 %
027d : 11111111111111111111010110100000;  % 0xfffff5a0  -0.04053447023034096 %
027e : 00000000000000000000000001010001;  % 0x00000051  0.0012309184530749917 %
027f : 11111111111111111110111110100101;  % 0xffffefa5  -0.0638841912150383 %
0280 : 00000000000000000001001011100000;  % 0x000012e0  0.07373397052288055 %
0281 : 11111111111111111111000000011111;  % 0xfffff01f  -0.06202258914709091 %
0282 : 00000000000000000000111001001000;  % 0x00000e48  0.05577896535396576 %
0283 : 00000000000000000001000100000110;  % 0x00001106  0.06649430096149445 %
0284 : 11111111111111111111000111011101;  % 0xfffff1dd  -0.05522101745009422 %
0285 : 11111111111111111111110111011100;  % 0xfffffddc  -0.00836925208568573 %
0286 : 11111111111111111111100101110101;  % 0xfffff975  -0.025553086772561073 %
0287 : 00000000000000000000110000110010;  % 0x00000c32  0.04763630032539368 %
0288 : 11111111111111111111000001001100;  % 0xfffff04c  -0.0613386444747448 %
0289 : 11111111111111111111011000100111;  % 0xfffff627  -0.038465455174446106 %
028a : 11111111111111111110111000111111;  % 0xffffee3f  -0.06935106962919235 %
028b : 00000000000000000000010100101110;  % 0x0000052e  0.020230522379279137 %
028c : 00000000000000000000001010101101;  % 0x000002ad  0.010457590222358704 %
028d : 00000000000000000001000100101101;  % 0x0000112d  0.06708970665931702 %
028e : 00000000000000000000010100000110;  % 0x00000506  0.019625507295131683 %
028f : 11111111111111111111110001110100;  % 0xfffffc74  -0.013848665170371532 %
0290 : 00000000000000000000101110001101;  % 0x00000b8d  0.04512777924537659 %
0291 : 00000000000000000000101110110001;  % 0x00000bb1  0.04566669836640358 %
0292 : 00000000000000000000001011011110;  % 0x000002de  0.011197542771697044 %
0293 : 00000000000000000001001011100110;  % 0x000012e6  0.07382015138864517 %
0294 : 00000000000000000000011000001011;  % 0x0000060b  0.02360512875020504 %
0295 : 00000000000000000000100101101011;  % 0x0000096b  0.03678727522492409 %
0296 : 00000000000000000000100110001101;  % 0x0000098d  0.037311192601919174 %
0297 : 11111111111111111111111011101110;  % 0xfffffeee  -0.004177487920969725 %
0298 : 00000000000000000000010000111110;  % 0x0000043e  0.016577379778027534 %
0299 : 11111111111111111111010100000110;  % 0xfffff506  -0.0428772009909153 %
029a : 00000000000000000000101011111011;  % 0x00000afb  0.04289020597934723 %
029b : 11111111111111111111011000011000;  % 0xfffff618  -0.038690052926540375 %
029c : 11111111111111111110111101000101;  % 0xffffef45  -0.06535450369119644 %
029d : 11111111111111111111101101010011;  % 0xfffffb53  -0.018263496458530426 %
029e : 11111111111111111111000010000001;  % 0xfffff081  -0.06052399054169655 %
029f : 00000000000000000000111000110101;  % 0x00000e35  0.05549577623605728 %
02a0 : 11111111111111111111000010011110;  % 0xfffff09e  -0.06008732691407204 %
02a1 : 00000000000000000000110001110101;  % 0x00000c75  0.04866313189268112 %
02a2 : 11111111111111111111100000000000;  % 0xfffff800  -0.031248750165104866 %
02a3 : 11111111111111111110110000101000;  % 0xffffec28  -0.07751229405403137 %
02a4 : 00000000000000000001010111001001;  % 0x000015c9  0.08509925752878189 %
02a5 : 00000000000000000001000000001001;  % 0x00001009  0.06264229118824005 %
02a6 : 00000000000000000001000011011011;  % 0x000010db  0.06584721058607101 %
02a7 : 11111111111111111111011010101000;  % 0xfffff6a8  -0.03650195524096489 %
02a8 : 00000000000000000000001000111010;  % 0x0000023a  0.008701504208147526 %
02a9 : 00000000000000000000101101001010;  % 0x00000b4a  0.04410102218389511 %
02aa : 00000000000000000000010001000000;  % 0x00000440  0.0166067685931921 %
02ab : 00000000000000000001001010100000;  % 0x000012a0  0.07275767624378204 %
02ac : 11111111111111111111111101100100;  % 0xffffff64  -0.0023804372176527977 %
02ad : 11111111111111111111110011000010;  % 0xfffffcc2  -0.0126670952886343 %
02ae : 00000000000000000000000000010100;  % 0x00000014  0.00030671723652631044 %
02af : 11111111111111111111100010111100;  % 0xfffff8bc  -0.028384340927004814 %
02b0 : 00000000000000000001010011100001;  % 0x000014e1  0.0815606415271759 %
02b1 : 11111111111111111111100101011111;  % 0xfffff95f  -0.025889979675412178 %
02b2 : 11111111111111111111111010011111;  % 0xfffffe9f  -0.005393560044467449 %
02b3 : 00000000000000000000100110110000;  % 0x000009b0  0.0378444530069828 %
02b4 : 00000000000000000000001100011111;  % 0x0000031f  0.012198726646602154 %
02b5 : 11111111111111111111010011111110;  % 0xfffff4fe  -0.0430031418800354 %
02b6 : 11111111111111111111110110111000;  % 0xfffffdb8  -0.008910452015697956 %
02b7 : 11111111111111111110110101100110;  % 0xffffed66  -0.07266586273908615 %
02b8 : 11111111111111111111010001000101;  % 0xfffff445  -0.045822106301784515 %
02b9 : 11111111111111111110111110001100;  % 0xffffef8c  -0.06427319347858429 %
02ba : 11111111111111111111010010111111;  % 0xfffff4bf  -0.043961670249700546 %
02bb : 00000000000000000000000000110001;  % 0x00000031  0.0007410198450088501 %
02bc : 00000000000000000000000111000111;  % 0x000001c7  0.006941184401512146 %
02bd : 11111111111111111110110111000100;  % 0xffffedc4  -0.07123208045959473 %
02be : 00000000000000000000001100100111;  % 0x00000327  0.012312282808125019 %
02bf : 00000000000000000000110101101000;  % 0x00000d68  0.05236236751079559 %
02c0 : 11111111111111111111110011011100;  % 0xfffffcdc  -0.012263860553503036 %
02c1 : 11111111111111111110110110100001;  % 0xffffeda1  -0.07176104187965393 %
02c2 : 11111111111111111111111011010001;  % 0xfffffed1  -0.00461711548268795 %
02c3 : 00000000000000000001011100101010;  % 0x0000172a  0.09048343449831009 %
02c4 : 00000000000000000000111111011100;  % 0x00000fdc  0.06194773688912392 %
02c5 : 00000000000000000000010110000011;  % 0x00000583  0.02153373882174492 %
02c6 : 11111111111111111111101010001011;  % 0xfffffa8b  -0.02131340466439724 %
02c7 : 00000000000000000001010011011101;  % 0x000014dd  0.08149699121713638 %
02c8 : 00000000000000000001111011110010;  % 0x00001ef2  0.12088257819414139 %
02c9 : 00000000000000000001011111100000;  % 0x000017e0  0.09326326102018356 %
02ca : 00000000000000000000100011001101;  % 0x000008cd  0.034372515976428986 %
02cb : 00000000000000000000100010011110;  % 0x0000089e  0.033666662871837616 %
02cc : 00000000000000000000111101100000;  % 0x00000f60  0.06005578115582466 %
02cd : 00000000000000000000011110010000;  % 0x00000790  0.029534291476011276 %
02ce : 11111111111111111111100010000101;  % 0xfffff885  -0.02921660803258419 %
02cf : 11111111111111111111100110101110;  % 0xfffff9ae  -0.024696147069334984 %
02d0 : 11111111111111111111101100110001;  % 0xfffffb31  -0.018788263201713562 %
02d1 : 11111111111111111111010000100010;  % 0xfffff422  -0.04634968936443329 %
02d2 : 00000000000000000000111110010010;  % 0x00000f92  0.0608210563659668 %
02d3 : 11111111111111111111100010000111;  % 0xfffff887  -0.029196374118328094 %
02d4 : 00000000000000000000010110111101;  % 0x000005bd  0.02241376042366028 %
02d5 : 11111111111111111111001101110111;  % 0xfffff377  -0.04896782711148262 %
02d6 : 00000000000000000000110111010010;  % 0x00000dd2  0.053989775478839874 %
02d7 : 11111111111111111111101100101010;  % 0xfffffb2a  -0.018897198140621185 %
02d8 : 00000000000000000001001010011110;  % 0x0000129e  0.07273096591234207 %
02d9 : 00000000000000000000011001110111;  % 0x00000677  0.025247909128665924 %
02da : 00000000000000000000111111110000;  % 0x00000ff0  0.06225385516881943 %
02db : 11111111111111111110101101101000;  % 0xffffeb68  -0.08043744415044785 %
02dc : 00000000000000000001000011111100;  % 0x000010fc  0.06634580343961716 %
02dd : 11111111111111111111000110011100;  % 0xfffff19c  -0.05621754005551338 %
02de : 11111111111111111111011011011101;  % 0xfffff6dd  -0.035686615854501724 %
02df : 11111111111111111111001010101101;  % 0xfffff2ad  -0.05205412209033966 %
02e0 : 11111111111111111111010111001010;  % 0xfffff5ca  -0.039893463253974915 %
02e1 : 00000000000000000000000101000001;  % 0x00000141  0.004896041005849838 %
02e2 : 11111111111111111111010101000001;  % 0xfffff541  -0.041975151747465134 %
02e3 : 11111111111111111110110111001011;  % 0xffffedcb  -0.07112691551446915 %
02e4 : 11111111111111111110110001111101;  % 0xffffec7d  -0.07622241973876953 %
02e5 : 00000000000000000000001100000011;  % 0x00000303  0.011770587414503098 %
02e6 : 11111111111111111111100110010000;  % 0xfffff990  -0.025143563747406006 %
02e7 : 00000000000000000000001010100101;  % 0x000002a5  0.010332271456718445 %
02e8 : 00000000000000000000000101000110;  % 0x00000146  0.0049727847799658775 %
02e9 : 11111111111111111110110010010101;  % 0xffffec95  -0.0758444294333458 %
02ea : 11111111111111111111101101111110;  % 0xfffffb7e  -0.01760316640138626 %
02eb : 00000000000000000000011010010110;  % 0x00000696  0.025719741359353065 %
02ec : 11111111111111111110010111010100;  % 0xffffe5d4  -0.10223764181137085 %
02ed : 00000000000000000000001110011111;  % 0x0000039f  0.014151254668831825 %
02ee : 00000000000000000000101100001100;  % 0x00000b0c  0.04314932972192764 %
02ef : 00000000000000000000000000000010;  % 0x00000002  2.6166548195760697e-05 %
02f0 : 11111111111111111111011010111000;  % 0xfffff6b8  -0.03625476732850075 %
02f1 : 00000000000000000000001010000111;  % 0x00000287  0.009869365021586418 %
02f2 : 11111111111111111111010110001100;  % 0xfffff58c  -0.04082600027322769 %
02f3 : 00000000000000000000000111010100;  % 0x000001d4  0.0071355924010276794 %
02f4 : 00000000000000000000011110010101;  % 0x00000795  0.02961789071559906 %
02f5 : 11111111111111111111001001110101;  % 0xfffff275  -0.05290728062391281 %
02f6 : 00000000000000000000101000110110;  % 0x00000a36  0.03988967090845108 %
02f7 : 00000000000000000000110100011110;  % 0x00000d1e  0.0512438639998436 %
02f8 : 11111111111111111111011101110011;  % 0xfffff773  -0.033400263637304306 %
02f9 : 11111111111111111111000010100001;  % 0xfffff0a1  -0.06003652513027191 %
02fa : 00000000000000000000101001010001;  % 0x00000a51  0.04030507430434227 %
02fb : 00000000000000000000111010000001;  % 0x00000e81  0.05664937570691109 %
02fc : 11111111111111111111110110100110;  % 0xfffffda6  -0.009183804504573345 %
02fd : 11111111111111111111101100110111;  % 0xfffffb37  -0.018696928396821022 %
02fe : 00000000000000000000100010001000;  % 0x00000888  0.033327605575323105 %
02ff : 00000000000000000000010011101001;  % 0x000004e9  0.01918749511241913 %
0300 : 11111111111111111110110000100001;  % 0xffffec21  -0.0776151567697525 %
0301 : 00000000000000000000001111111110;  % 0x000003fe  0.01559983380138874 %
0302 : 00000000000000000000110110000111;  % 0x00000d87  0.05284721776843071 %
0303 : 11111111111111111111011001010110;  % 0xfffff656  -0.03774969279766083 %
0304 : 11111111111111111111000001001111;  % 0xfffff04f  -0.061292778700590134 %
0305 : 11111111111111111111111101010001;  % 0xffffff51  -0.0026712159160524607 %
0306 : 11111111111111111110110001110111;  % 0xffffec77  -0.07630190253257751 %
0307 : 11111111111111111111000110010111;  % 0xfffff197  -0.056284550577402115 %
0308 : 11111111111111111111010101111011;  % 0xfffff57b  -0.04108845070004463 %
0309 : 11111111111111111111100011111010;  % 0xfffff8fa  -0.027432473376393318 %
030a : 00000000000000000001000111110001;  % 0x000011f1  0.07008860260248184 %
030b : 00000000000000000001000001000100;  % 0x00001044  0.06353460252285004 %
030c : 11111111111111111111110101000010;  % 0xfffffd42  -0.010716214776039124 %
030d : 00000000000000000000000101010110;  % 0x00000156  0.0052198246121406555 %
030e : 00000000000000000000001101010100;  % 0x00000354  0.013002552092075348 %
030f : 00000000000000000000011111100011;  % 0x000007e3  0.03081497550010681 %
END;
