DEPTH = 10;
WIDTH = 32;
ADDRESS_RADIX = HEX;
DATA_RADIX = BIN;
CONTENT
BEGIN
0000 : 00000000000000000110010000111000;  % 0x00006438  0.39148345589637756 %
0001 : 00000000000000001010000011111011;  % 0x0000a0fb  0.6288303732872009 %
0002 : 11111111111111110111111000101111;  % 0xffff7e2f  -0.5070880055427551 %
0003 : 11111111111111111000101000101001;  % 0xffff8a29  -0.4603162705898285 %
0004 : 00000000000000000000101001001001;  % 0x00000a49  0.04017426446080208 %
0005 : 11111111111111111000100011010010;  % 0xffff88d2  -0.4655526280403137 %
0006 : 11111111111111111111111010100100;  % 0xfffffea4  -0.005306807812303305 %
0007 : 00000000000000001010110110010100;  % 0x0000ad94  0.6780378818511963 %
0008 : 11111111111111111111111010000100;  % 0xfffffe84  -0.00580442463979125 %
0009 : 11111111111111111111101110011011;  % 0xfffffb9b  -0.01716187782585621 %
END;
