DEPTH = 10;
WIDTH = 32;
ADDRESS_RADIX = HEX;
DATA_RADIX = BIN;
CONTENT
BEGIN
0000 : 11111111111111111011011011011010;  % 0xffffb6da  -0.28574228 %
0001 : 00000000000000000000000110101101;  % 0x000001ad  0.0065426566 %
0002 : 00000000000000000100001011010010;  % 0x000042d2  0.2610214 %
0003 : 11111111111111111011101001010111;  % 0xffffba57  -0.27211434 %
0004 : 00000000000000000011000001101011;  % 0x0000306b  0.18913406 %
0005 : 11111111111111111101010000111110;  % 0xffffd43e  -0.1709273 %
0006 : 00000000000000001010010100110111;  % 0x0000a537  0.64537394 %
0007 : 11111111111111111000100011010010;  % 0xffff88d2  -0.46555263 %
0008 : 11111111111111111011001001001100;  % 0xffffb24c  -0.30352926 %
0009 : 11111111111111111100010111111110;  % 0xffffc5fe  -0.22659297 %
END;
