DEPTH = 784;
WIDTH = 32;
ADDRESS_RADIX = HEX;
DATA_RADIX = BIN;
CONTENT
BEGIN
0000 : 11111111111111111110111110000100;  % 0xffffef84  -0.06439025700092316 %
0001 : 11111111111111111111001101111111;  % 0xfffff37f  -0.04883769899606705 %
0002 : 00000000000000000000010010001100;  % 0x0000048c  0.017754435539245605 %
0003 : 00000000000000000000111100101111;  % 0x00000f2f  0.059310950338840485 %
0004 : 11111111111111111111000011100011;  % 0xfffff0e3  -0.05904186889529228 %
0005 : 00000000000000000000000001011000;  % 0x00000058  0.0013443604111671448 %
0006 : 11111111111111111110101111011010;  % 0xffffebda  -0.07870118319988251 %
0007 : 00000000000000000000111101101111;  % 0x00000f6f  0.060288213193416595 %
0008 : 00000000000000000000110101011111;  % 0x00000d5f  0.0522238090634346 %
0009 : 11111111111111111110110111110001;  % 0xffffedf1  -0.07054729014635086 %
000a : 00000000000000000000101011100101;  % 0x00000ae5  0.04255028814077377 %
000b : 00000000000000000000101111111101;  % 0x00000bfd  0.04683627933263779 %
000c : 00000000000000000001001011110100;  % 0x000012f4  0.07403404265642166 %
000d : 11111111111111111111000101001010;  % 0xfffff14a  -0.057460345327854156 %
000e : 00000000000000000000001100011100;  % 0x0000031c  0.012153111398220062 %
000f : 11111111111111111111010100110000;  % 0xfffff530  -0.04223444685339928 %
0010 : 11111111111111111111111111110101;  % 0xfffffff5  -0.0001741349697113037 %
0011 : 11111111111111111111000010001010;  % 0xfffff08a  -0.06038757786154747 %
0012 : 00000000000000000000010101011111;  % 0x0000055f  0.020981647074222565 %
0013 : 11111111111111111111100100011111;  % 0xfffff91f  -0.02687811851501465 %
0014 : 11111111111111111111101011110001;  % 0xfffffaf1  -0.019766345620155334 %
0015 : 11111111111111111111111010001000;  % 0xfffffe88  -0.005731314420700073 %
0016 : 11111111111111111111101111111010;  % 0xfffffbfa  -0.01572057604789734 %
0017 : 00000000000000000001000110111111;  % 0x000011bf  0.06932368129491806 %
0018 : 00000000000000000000110011111101;  % 0x00000cfd  0.050734274089336395 %
0019 : 11111111111111111111010011100111;  % 0xfffff4e7  -0.04334865137934685 %
001a : 11111111111111111111111001110111;  % 0xfffffe77  -0.005998589098453522 %
001b : 11111111111111111110111001100000;  % 0xffffee60  -0.06884510070085526 %
001c : 11111111111111111110111101100111;  % 0xffffef67  -0.0648411214351654 %
001d : 00000000000000000000100111000100;  % 0x000009c4  0.03815091401338577 %
001e : 00000000000000000000000000011001;  % 0x00000019  0.00038269907236099243 %
001f : 11111111111111111111001101011001;  % 0xfffff359  -0.049428585916757584 %
0020 : 00000000000000000000011011100000;  % 0x000006e0  0.026851100847125053 %
0021 : 00000000000000000000011110000010;  % 0x00000782  0.029333414509892464 %
0022 : 11111111111111111111101000110101;  % 0xfffffa35  -0.02262151427567005 %
0023 : 11111111111111111111110010000011;  % 0xfffffc83  -0.013620978221297264 %
0024 : 00000000000000000000011110100110;  % 0x000007a6  0.029882164672017097 %
0025 : 11111111111111111111100111111001;  % 0xfffff9f9  -0.023546874523162842 %
0026 : 00000000000000000000001010011111;  % 0x0000029f  0.010240142233669758 %
0027 : 00000000000000000000101100011111;  % 0x00000b1f  0.043448109179735184 %
0028 : 00000000000000000000100000000110;  % 0x00000806  0.03133801370859146 %
0029 : 00000000000000000000011010010111;  % 0x00000697  0.025744687765836716 %
002a : 00000000000000000000011101111101;  % 0x0000077d  0.029248462989926338 %
002b : 00000000000000000000001110111011;  % 0x000003bb  0.014576115645468235 %
002c : 00000000000000000000000111100111;  % 0x000001e7  0.007437387481331825 %
002d : 11111111111111111111011100010111;  % 0xfffff717  -0.03481046110391617 %
002e : 11111111111111111111000110111010;  % 0xfffff1ba  -0.055749356746673584 %
002f : 00000000000000000000110001011100;  % 0x00000c5c  0.0482800230383873 %
0030 : 11111111111111111111001111111110;  % 0xfffff3fe  -0.04690951853990555 %
0031 : 11111111111111111111100101011001;  % 0xfffff959  -0.02598429098725319 %
0032 : 00000000000000000000111100110011;  % 0x00000f33  0.059374310076236725 %
0033 : 00000000000000000000100101000001;  % 0x00000941  0.036151155829429626 %
0034 : 00000000000000000000001011111111;  % 0x000002ff  0.011696986854076385 %
0035 : 00000000000000000001010110001101;  % 0x0000158d  0.08418663591146469 %
0036 : 00000000000000000000100000010110;  % 0x00000816  0.03158760070800781 %
0037 : 00000000000000000000010011011010;  % 0x000004da  0.018952228128910065 %
0038 : 00000000000000000001001101010111;  % 0x00001357  0.07553946226835251 %
0039 : 00000000000000000000100000111111;  % 0x0000083f  0.032211482524871826 %
003a : 11111111111111111110111001110110;  % 0xffffee76  -0.0685148611664772 %
003b : 00000000000000000001011000001110;  % 0x0000160e  0.08614660054445267 %
003c : 11111111111111111111110011001110;  % 0xfffffcce  -0.01247915904968977 %
003d : 11111111111111111111111111011101;  % 0xffffffdd  -0.0005360499490052462 %
003e : 11111111111111111111011011101011;  % 0xfffff6eb  -0.035470932722091675 %
003f : 00000000000000000000010111001010;  % 0x000005ca  0.02260962687432766 %
0040 : 00000000000000000000111111100110;  % 0x00000fe6  0.062109943479299545 %
0041 : 00000000000000000001010010010001;  % 0x00001491  0.08034057170152664 %
0042 : 00000000000000000000101101101000;  % 0x00000b68  0.044553618878126144 %
0043 : 00000000000000000000001100010001;  % 0x00000311  0.011983731761574745 %
0044 : 11111111111111111111101011111110;  % 0xfffffafe  -0.019565729424357414 %
0045 : 00000000000000000000100100110110;  % 0x00000936  0.03597531467676163 %
0046 : 00000000000000000000111001010110;  % 0x00000e56  0.056004296988248825 %
0047 : 00000000000000000000101101111000;  % 0x00000b78  0.04480602964758873 %
0048 : 00000000000000000000011111101000;  % 0x000007e8  0.030880790203809738 %
0049 : 11111111111111111111010110101101;  % 0xfffff5ad  -0.04032164812088013 %
004a : 11111111111111111111011111000101;  % 0xfffff7c5  -0.032145313918590546 %
004b : 11111111111111111111001110010001;  % 0xfffff391  -0.048573363572359085 %
004c : 11111111111111111110110010100001;  % 0xffffeca1  -0.07566332817077637 %
004d : 00000000000000000000101001110000;  % 0x00000a70  0.040772341191768646 %
004e : 00000000000000000000001001001100;  % 0x0000024c  0.00896651204675436 %
004f : 11111111111111111110111101110100;  % 0xffffef74  -0.06464093923568726 %
0050 : 00000000000000000000110101010110;  % 0x00000d56  0.052099812775850296 %
0051 : 00000000000000000000010110011001;  % 0x00000599  0.021870413795113564 %
0052 : 11111111111111111111111110110111;  % 0xffffffb7  -0.0011089816689491272 %
0053 : 00000000000000000000000010001000;  % 0x00000088  0.00206892192363739 %
0054 : 00000000000000000000101111101011;  % 0x00000beb  0.04655403643846512 %
0055 : 00000000000000000001000010010001;  % 0x00001091  0.06470770388841629 %
0056 : 11111111111111111111100110001000;  % 0xfffff988  -0.025269778445363045 %
0057 : 11111111111111111111100011101101;  % 0xfffff8ed  -0.027631273493170738 %
0058 : 00000000000000000000000101100010;  % 0x00000162  0.00540665490552783 %
0059 : 11111111111111111111010100110011;  % 0xfffff533  -0.042193468660116196 %
005a : 11111111111111111111010101000000;  % 0xfffff540  -0.041986338794231415 %
005b : 11111111111111111110110110100000;  % 0xffffeda0  -0.07178368419408798 %
005c : 00000000000000000000111101000001;  % 0x00000f41  0.05958716198801994 %
005d : 11111111111111111111111001110100;  % 0xfffffe74  -0.006049098912626505 %
005e : 11111111111111111111100111010000;  % 0xfffff9d0  -0.024165397509932518 %
005f : 11111111111111111111101110110001;  % 0xfffffbb1  -0.016832370311021805 %
0060 : 00000000000000000001011110001110;  % 0x0000178e  0.0920066237449646 %
0061 : 00000000000000000001010111110101;  % 0x000015f5  0.08577543497085571 %
0062 : 00000000000000000000111110010000;  % 0x00000f90  0.060785021632909775 %
0063 : 00000000000000000001000110010111;  % 0x00001197  0.06871463358402252 %
0064 : 00000000000000000001010110101001;  % 0x000015a9  0.08460927754640579 %
0065 : 00000000000000000000000111101001;  % 0x000001e9  0.0074650938622653484 %
0066 : 11111111111111111111010010011101;  % 0xfffff49d  -0.04447411745786667 %
0067 : 11111111111111111111111100101111;  % 0xffffff2f  -0.0031943160574883223 %
0068 : 00000000000000000000100001000111;  % 0x00000847  0.03233805298805237 %
0069 : 11111111111111111111101010000110;  % 0xfffffa86  -0.021390005946159363 %
006a : 11111111111111111111011001100001;  % 0xfffff661  -0.037581007927656174 %
006b : 11111111111111111111000001110011;  % 0xfffff073  -0.060743965208530426 %
006c : 00000000000000000000101101101111;  % 0x00000b6f  0.044658858329057693 %
006d : 00000000000000000001010100111001;  % 0x00001539  0.08289936184883118 %
006e : 00000000000000000001010001100110;  % 0x00001466  0.07967620342969894 %
006f : 00000000000000000001010001000110;  % 0x00001446  0.07919805496931076 %
0070 : 11111111111111111110110001101100;  % 0xffffec6c  -0.07647665590047836 %
0071 : 11111111111111111111111111101010;  % 0xffffffea  -0.0003326473233755678 %
0072 : 00000000000000000000011110111100;  % 0x000007bc  0.030209727585315704 %
0073 : 11111111111111111110111111000001;  % 0xffffefc1  -0.06345781683921814 %
0074 : 11111111111111111110111110111001;  % 0xffffefb9  -0.0635809451341629 %
0075 : 00000000000000000001001010100010;  % 0x000012a2  0.07278341799974442 %
0076 : 00000000000000000000110011101000;  % 0x00000ce8  0.05040871351957321 %
0077 : 00000000000000000001000111010101;  % 0x000011d5  0.06965319067239761 %
0078 : 00000000000000000000011111111110;  % 0x000007fe  0.03121897578239441 %
0079 : 00000000000000000000011001110011;  % 0x00000673  0.02519853040575981 %
007a : 00000000000000000000111011110100;  % 0x00000ef4  0.05841761454939842 %
007b : 00000000000000000001010111001111;  % 0x000015cf  0.08518967032432556 %
007c : 00000000000000000000101111101110;  % 0x00000bee  0.04660074785351753 %
007d : 00000000000000000000010111111011;  % 0x000005fb  0.02335716411471367 %
007e : 00000000000000000000101011010100;  % 0x00000ad4  0.04229259118437767 %
007f : 00000000000000000000110111111010;  % 0x00000dfa  0.05459487810730934 %
0080 : 00000000000000000000100100101101;  % 0x0000092d  0.03584286943078041 %
0081 : 11111111111111111111100011110100;  % 0xfffff8f4  -0.027531227096915245 %
0082 : 00000000000000000000011010000001;  % 0x00000681  0.025411486625671387 %
0083 : 00000000000000000000010000001101;  % 0x0000040d  0.015828164294362068 %
0084 : 00000000000000000000010101110110;  % 0x00000576  0.0213365126401186 %
0085 : 11111111111111111111101101010011;  % 0xfffffb53  -0.018261754885315895 %
0086 : 11111111111111111111110111011111;  % 0xfffffddf  -0.00832350179553032 %
0087 : 11111111111111111111000000011011;  % 0xfffff01b  -0.06208096072077751 %
0088 : 11111111111111111111010101000110;  % 0xfffff546  -0.041906051337718964 %
0089 : 00000000000000000000010011111101;  % 0x000004fd  0.019479384645819664 %
008a : 11111111111111111111001000001001;  % 0xfffff209  -0.05454343929886818 %
008b : 11111111111111111111001011000101;  % 0xfffff2c5  -0.051682792603969574 %
008c : 11111111111111111111011100001111;  % 0xfffff70f  -0.0349208228290081 %
008d : 11111111111111111111110001001100;  % 0xfffffc4c  -0.014458119869232178 %
008e : 11111111111111111111101011010001;  % 0xfffffad1  -0.02024889551103115 %
008f : 00000000000000000000000111010111;  % 0x000001d7  0.007181617897003889 %
0090 : 00000000000000000000011100010101;  % 0x00000715  0.02765839174389839 %
0091 : 00000000000000000000110111111010;  % 0x00000dfa  0.05459485203027725 %
0092 : 00000000000000000001111010001110;  % 0x00001e8e  0.11934920400381088 %
0093 : 00000000000000000010001000100010;  % 0x00002222  0.13332748413085938 %
0094 : 11111111111111111111100001011100;  % 0xfffff85c  -0.02983948588371277 %
0095 : 11111111111111111111101010111100;  % 0xfffffabc  -0.020575011149048805 %
0096 : 11111111111111111111100011101100;  % 0xfffff8ec  -0.027654407545924187 %
0097 : 11111111111111111111100100001011;  % 0xfffff90b  -0.027175551280379295 %
0098 : 11111111111111111110111000011010;  % 0xffffee1a  -0.0699128583073616 %
0099 : 00000000000000000000011000111011;  % 0x0000063b  0.024335656315088272 %
009a : 11111111111111111111011110010010;  % 0xfffff792  -0.032923150807619095 %
009b : 00000000000000000000101101101100;  % 0x00000b6c  0.04460947960615158 %
009c : 11111111111111111111100101010010;  % 0xfffff952  -0.02609439752995968 %
009d : 11111111111111111111100110001111;  % 0xfffff98f  -0.0251667108386755 %
009e : 11111111111111111111110101100010;  % 0xfffffd62  -0.01022912748157978 %
009f : 00000000000000000000100011100111;  % 0x000008e7  0.03478165715932846 %
00a0 : 00000000000000000000010010101001;  % 0x000004a9  0.018196947872638702 %
00a1 : 11111111111111111111110111101110;  % 0xfffffdee  -0.008084780536592007 %
00a2 : 00000000000000000000010110101010;  % 0x000005aa  0.02212333120405674 %
00a3 : 11111111111111111111101100000100;  % 0xfffffb04  -0.019474051892757416 %
00a4 : 11111111111111111110111010110110;  % 0xffffeeb6  -0.06753291189670563 %
00a5 : 11111111111111111111110100101101;  % 0xfffffd2d  -0.011024507693946362 %
00a6 : 11111111111111111111000101100101;  % 0xfffff165  -0.05704591050744057 %
00a7 : 11111111111111111111001110001000;  % 0xfffff388  -0.048701222985982895 %
00a8 : 11111111111111111110101001000010;  % 0xffffea42  -0.08493132144212723 %
00a9 : 11111111111111111110110100001010;  % 0xffffed0a  -0.07407346367835999 %
00aa : 11111111111111111111010100111010;  % 0xfffff53a  -0.04208456724882126 %
00ab : 11111111111111111111010001001110;  % 0xfffff44e  -0.045688170939683914 %
00ac : 00000000000000000001011011101000;  % 0x000016e8  0.08947145938873291 %
00ad : 00000000000000000001101001100011;  % 0x00001a63  0.10307206958532333 %
00ae : 00000000000000000000101001101011;  % 0x00000a6b  0.040689270943403244 %
00af : 11111111111111111111011011000110;  % 0xfffff6c6  -0.03603643551468849 %
00b0 : 00000000000000000000111011011111;  % 0x00000edf  0.05808743089437485 %
00b1 : 00000000000000000000000010000110;  % 0x00000086  0.002051947172731161 %
00b2 : 00000000000000000000011100100111;  % 0x00000727  0.027934113517403603 %
00b3 : 00000000000000000000101100010111;  % 0x00000b17  0.04332531988620758 %
00b4 : 00000000000000000000001101000000;  % 0x00000340  0.012699867598712444 %
00b5 : 11111111111111111111101110001011;  % 0xfffffb8b  -0.01741422899067402 %
00b6 : 11111111111111111111111110101101;  % 0xffffffad  -0.0012636891333386302 %
00b7 : 11111111111111111111100010000001;  % 0xfffff881  -0.029289213940501213 %
00b8 : 00000000000000000000101001001111;  % 0x00000a4f  0.04026169702410698 %
00b9 : 11111111111111111111101100001111;  % 0xfffffb0f  -0.019307205453515053 %
00ba : 00000000000000000000001101110101;  % 0x00000375  0.013499029912054539 %
00bb : 11111111111111111111011010001001;  % 0xfffff689  -0.036966126412153244 %
00bc : 11111111111111111111010001101100;  % 0xfffff46c  -0.04522473365068436 %
00bd : 00000000000000000000110101010111;  % 0x00000d57  0.05211283639073372 %
00be : 11111111111111111111011010010100;  % 0xfffff694  -0.036807965487241745 %
00bf : 00000000000000000000000001001101;  % 0x0000004d  0.0011730408295989037 %
00c0 : 11111111111111111111000000011010;  % 0xfffff01a  -0.06210634112358093 %
00c1 : 00000000000000000000100001011101;  % 0x0000085d  0.03266407549381256 %
00c2 : 00000000000000000000010000111101;  % 0x0000043d  0.01654929481446743 %
00c3 : 11111111111111111111110001101001;  % 0xfffffc69  -0.014016539789736271 %
00c4 : 11111111111111111111000101010011;  % 0xfffff153  -0.05732768774032593 %
00c5 : 11111111111111111111011001001110;  % 0xfffff64e  -0.037875931710004807 %
00c6 : 11111111111111111111011100100110;  % 0xfffff726  -0.03456971049308777 %
00c7 : 11111111111111111111000011011011;  % 0xfffff0db  -0.0591651126742363 %
00c8 : 00000000000000000001010111001011;  % 0x000015cb  0.08512983471155167 %
00c9 : 00000000000000000000011011100100;  % 0x000006e4  0.02691246196627617 %
00ca : 11111111111111111111100110000010;  % 0xfffff982  -0.025352617725729942 %
00cb : 00000000000000000000101000001010;  % 0x00000a0a  0.039208803325891495 %
00cc : 11111111111111111110111111110001;  % 0xffffeff1  -0.06273216754198074 %
00cd : 00000000000000000000000111011000;  % 0x000001d8  0.007199808023869991 %
00ce : 00000000000000000000100011110100;  % 0x000008f4  0.034969497472047806 %
00cf : 11111111111111111111010001001010;  % 0xfffff44a  -0.04573975130915642 %
00d0 : 11111111111111111111111010111100;  % 0xfffffebc  -0.004944693297147751 %
00d1 : 00000000000000000000000111110010;  % 0x000001f2  0.007595843635499477 %
00d2 : 00000000000000000000011111101000;  % 0x000007e8  0.03088713251054287 %
00d3 : 11111111111111111110111100111101;  % 0xffffef3d  -0.06547334790229797 %
00d4 : 00000000000000000000010100001000;  % 0x00000508  0.019657278433442116 %
00d5 : 00000000000000000000001010101011;  % 0x000002ab  0.010424734093248844 %
00d6 : 11111111111111111111101111101000;  % 0xfffffbe8  -0.015992172062397003 %
00d7 : 00000000000000000000101111001000;  % 0x00000bc8  0.046014029532670975 %
00d8 : 00000000000000000001000111110110;  % 0x000011f6  0.07015537470579147 %
00d9 : 11111111111111111111101111000100;  % 0xfffffbc4  -0.016543088480830193 %
00da : 00000000000000000000001010000011;  % 0x00000283  0.009814795106649399 %
00db : 11111111111111111111110000110110;  % 0xfffffc36  -0.014796565286815166 %
00dc : 11111111111111111101111001000011;  % 0xffffde43  -0.13179397583007812 %
00dd : 11111111111111111111001001010010;  % 0xfffff252  -0.05343956500291824 %
00de : 00000000000000000000101010111000;  % 0x00000ab8  0.0418708398938179 %
00df : 00000000000000000000010011110010;  % 0x000004f2  0.019312230870127678 %
00e0 : 00000000000000000000001000110101;  % 0x00000235  0.008627045899629593 %
00e1 : 11111111111111111111000111000001;  % 0xfffff1c1  -0.055649369955062866 %
00e2 : 00000000000000000000001100011011;  % 0x0000031b  0.012137833051383495 %
00e3 : 00000000000000000000011111001111;  % 0x000007cf  0.030496900901198387 %
00e4 : 00000000000000000001111100110110;  % 0x00001f36  0.12191946804523468 %
00e5 : 00000000000000000000110111001100;  % 0x00000dcc  0.05389276519417763 %
00e6 : 11111111111111111111011000101110;  % 0xfffff62e  -0.038366831839084625 %
00e7 : 00000000000000000000010100011001;  % 0x00000519  0.01991284266114235 %
00e8 : 11111111111111111111011010110111;  % 0xfffff6b7  -0.03626666218042374 %
00e9 : 11111111111111111111011100110010;  % 0xfffff732  -0.03438982740044594 %
00ea : 11111111111111111111000111100111;  % 0xfffff1e7  -0.055064789950847626 %
00eb : 11111111111111111111001101100000;  % 0xfffff360  -0.04931262135505676 %
00ec : 00000000000000000000000001000100;  % 0x00000044  0.0010382445761933923 %
00ed : 00000000000000000000011001101100;  % 0x0000066c  0.025085709989070892 %
00ee : 11111111111111111111010110110001;  % 0xfffff5b1  -0.04026547819375992 %
00ef : 00000000000000000001010110101111;  % 0x000015af  0.08469871431589127 %
00f0 : 11111111111111111111011101110100;  % 0xfffff774  -0.03338538110256195 %
00f1 : 00000000000000000001010101011111;  % 0x0000155f  0.08347849547863007 %
00f2 : 00000000000000000000101010001111;  % 0x00000a8f  0.04124606400728226 %
00f3 : 11111111111111111111111111110010;  % 0xfffffff2  -0.0002144782047253102 %
00f4 : 11111111111111111111010110111010;  % 0xfffff5ba  -0.040123023092746735 %
00f5 : 00000000000000000000001101001001;  % 0x00000349  0.012836956419050694 %
00f6 : 11111111111111111111111100001010;  % 0xffffff0a  -0.0037545610684901476 %
00f7 : 11111111111111111101010111010111;  % 0xffffd5d7  -0.1646837294101715 %
00f8 : 11111111111111111110000000011011;  % 0xffffe01b  -0.12458794564008713 %
00f9 : 00000000000000000000010011000001;  % 0x000004c1  0.018572857603430748 %
00fa : 00000000000000000000111010100001;  % 0x00000ea1  0.05714248865842819 %
00fb : 00000000000000000000000110001001;  % 0x00000189  0.005990324076265097 %
00fc : 11111111111111111111000011000001;  % 0xfffff0c1  -0.05955018848180771 %
00fd : 11111111111111111111110000110110;  % 0xfffffc36  -0.014798862859606743 %
00fe : 00000000000000000001010100110100;  % 0x00001534  0.08281872421503067 %
00ff : 00000000000000000000000110100000;  % 0x000001a0  0.006344413384795189 %
0100 : 00000000000000000000100110000100;  % 0x00000984  0.03717120364308357 %
0101 : 00000000000000000000100010100110;  % 0x000008a6  0.03378212824463844 %
0102 : 00000000000000000001000100100110;  % 0x00001126  0.06698920577764511 %
0103 : 00000000000000000000011111011001;  % 0x000007d9  0.03065505623817444 %
0104 : 00000000000000000000011101001111;  % 0x0000074f  0.02854260616004467 %
0105 : 11111111111111111110101100010101;  % 0xffffeb15  -0.08171004801988602 %
0106 : 11111111111111111111011100001110;  % 0xfffff70e  -0.03494776785373688 %
0107 : 11111111111111111110110101101100;  % 0xffffed6c  -0.0725783035159111 %
0108 : 11111111111111111110100111001100;  % 0xffffe9cc  -0.0867290273308754 %
0109 : 11111111111111111111100001110010;  % 0xfffff872  -0.029505660757422447 %
010a : 11111111111111111111111101010101;  % 0xffffff55  -0.0026126238517463207 %
010b : 00000000000000000001111001100010;  % 0x00001e62  0.11867854744195938 %
010c : 00000000000000000001001101101111;  % 0x0000136f  0.07591113448143005 %
010d : 11111111111111111111110000111110;  % 0xfffffc3e  -0.01467541977763176 %
010e : 00000000000000000000011010010110;  % 0x00000696  0.02572033368051052 %
010f : 11111111111111111111101100110010;  % 0xfffffb32  -0.018770506605505943 %
0110 : 00000000000000000000111010001001;  % 0x00000e89  0.05677881836891174 %
0111 : 11111111111111111111101000011111;  % 0xfffffa1f  -0.022960562258958817 %
0112 : 11111111111111111110001010101110;  % 0xffffe2ae  -0.11453468352556229 %
0113 : 11111111111111111110001010100001;  % 0xffffe2a1  -0.11473193019628525 %
0114 : 11111111111111111101111101000000;  % 0xffffdf40  -0.12792791426181793 %
0115 : 11111111111111111111000011110010;  % 0xfffff0f2  -0.05881180241703987 %
0116 : 00000000000000000000101110001101;  % 0x00000b8d  0.04512714967131615 %
0117 : 11111111111111111111110110100001;  % 0xfffffda1  -0.009261811152100563 %
0118 : 11111111111111111111001100110001;  % 0xfffff331  -0.05003412067890167 %
0119 : 00000000000000000001001101110010;  % 0x00001372  0.07596055418252945 %
011a : 00000000000000000000110011110000;  % 0x00000cf0  0.05053235590457916 %
011b : 11111111111111111111111001101110;  % 0xfffffe6e  -0.006128587294369936 %
011c : 00000000000000000000011001111101;  % 0x0000067d  0.025350308045744896 %
011d : 11111111111111111111010101101100;  % 0xfffff56c  -0.04131795093417168 %
011e : 11111111111111111110110011110011;  % 0xffffecf3  -0.07441934198141098 %
011f : 11111111111111111111010000100100;  % 0xfffff424  -0.04633019492030144 %
0120 : 11111111111111111111001111110010;  % 0xfffff3f2  -0.04709538444876671 %
0121 : 11111111111111111110011111111100;  % 0xffffe7fc  -0.0938120037317276 %
0122 : 11111111111111111110110000001100;  % 0xffffec0c  -0.07794345915317535 %
0123 : 11111111111111111101111100011110;  % 0xffffdf1e  -0.12844127416610718 %
0124 : 11111111111111111110110000101110;  % 0xffffec2e  -0.07742082327604294 %
0125 : 11111111111111111111110000101001;  % 0xfffffc29  -0.015002927742898464 %
0126 : 00000000000000000000011001000010;  % 0x00000642  0.02444237284362316 %
0127 : 00000000000000000001011000010110;  % 0x00001616  0.0862673744559288 %
0128 : 00000000000000000000111011000110;  % 0x00000ec6  0.05771465599536896 %
0129 : 00000000000000000000111000000000;  % 0x00000e00  0.05468354374170303 %
012a : 11111111111111111111100011000111;  % 0xfffff8c7  -0.028210073709487915 %
012b : 11111111111111111111111100100111;  % 0xffffff27  -0.0033069720957428217 %
012c : 11111111111111111111110000101110;  % 0xfffffc2e  -0.014919046312570572 %
012d : 11111111111111111110110011010001;  % 0xffffecd1  -0.07493918389081955 %
012e : 11111111111111111111010111010111;  % 0xfffff5d7  -0.03968162089586258 %
012f : 11111111111111111101100110000011;  % 0xffffd983  -0.1503421515226364 %
0130 : 11111111111111111111010001011001;  % 0xfffff459  -0.04551916569471359 %
0131 : 11111111111111111111000110011000;  % 0xfffff198  -0.056276723742485046 %
0132 : 00000000000000000000010101101101;  % 0x0000056d  0.021198676899075508 %
0133 : 00000000000000000000111000000001;  % 0x00000e01  0.05469626188278198 %
0134 : 00000000000000000001000110011100;  % 0x0000119c  0.06878703087568283 %
0135 : 00000000000000000000110001001110;  % 0x00000c4e  0.048070985823869705 %
0136 : 11111111111111111111011101100001;  % 0xfffff761  -0.03368362784385681 %
0137 : 00000000000000000000101100011101;  % 0x00000b1d  0.043415382504463196 %
0138 : 11111111111111111111110000011010;  % 0xfffffc1a  -0.015227009542286396 %
0139 : 11111111111111111110101011010011;  % 0xffffead3  -0.082716204226017 %
013a : 11111111111111111110001010001001;  % 0xffffe289  -0.11508983373641968 %
013b : 11111111111111111110101110010111;  % 0xffffeb97  -0.07972799986600876 %
013c : 11111111111111111100111101011000;  % 0xffffcf58  -0.19007077813148499 %
013d : 11111111111111111101001111100000;  % 0xffffd3e0  -0.17236866056919098 %
013e : 11111111111111111101101011000100;  % 0xffffdac4  -0.14545081555843353 %
013f : 00000000000000000000100001001110;  % 0x0000084e  0.03243795409798622 %
0140 : 11111111111111111111111101110010;  % 0xffffff72  -0.0021698931232094765 %
0141 : 00000000000000000000100010100001;  % 0x000008a1  0.03370079770684242 %
0142 : 00000000000000000000100100101110;  % 0x0000092e  0.03585495427250862 %
0143 : 00000000000000000000111011001101;  % 0x00000ecd  0.05781286954879761 %
0144 : 00000000000000000000000001011110;  % 0x0000005e  0.001432771678082645 %
0145 : 00000000000000000000000111101000;  % 0x000001e8  0.007449880242347717 %
0146 : 11111111111111111110111110001110;  % 0xffffef8e  -0.06424549967050552 %
0147 : 11111111111111111111011001101101;  % 0xfffff66d  -0.03740089014172554 %
0148 : 00000000000000000000100110110101;  % 0x000009b5  0.037915028631687164 %
0149 : 11111111111111111111101101111111;  % 0xfffffb7f  -0.017595700919628143 %
014a : 11111111111111111111001001000100;  % 0xfffff244  -0.0536569282412529 %
014b : 11111111111111111111100001100000;  % 0xfffff860  -0.029777580872178078 %
014c : 00000000000000000000010010001001;  % 0x00000489  0.0177116971462965 %
014d : 11111111111111111111001110100100;  % 0xfffff3a4  -0.04827810078859329 %
014e : 00000000000000000001001011010111;  % 0x000012d7  0.07359485328197479 %
014f : 11111111111111111110101101111110;  % 0xffffeb7e  -0.08011524379253387 %
0150 : 00000000000000000000001010000101;  % 0x00000285  0.009835854172706604 %
0151 : 00000000000000000001010110100110;  % 0x000015a6  0.08457154780626297 %
0152 : 00000000000000000000111111100111;  % 0x00000fe7  0.062121499329805374 %
0153 : 00000000000000000001001100010001;  % 0x00001311  0.07447357475757599 %
0154 : 00000000000000000000011010010100;  % 0x00000694  0.025698689743876457 %
0155 : 11111111111111111111011111010011;  % 0xfffff7d3  -0.03193943202495575 %
0156 : 11111111111111111111011100110110;  % 0xfffff736  -0.034330688416957855 %
0157 : 11111111111111111110101011111111;  % 0xffffeaff  -0.08205383270978928 %
0158 : 11111111111111111111010101100101;  % 0xfffff565  -0.041422415524721146 %
0159 : 00000000000000000000101000110000;  % 0x00000a30  0.03980027139186859 %
015a : 00000000000000000001001000101110;  % 0x0000122e  0.07100820541381836 %
015b : 11111111111111111111111010100111;  % 0xfffffea7  -0.005265293177217245 %
015c : 00000000000000000000111001111100;  % 0x00000e7c  0.05658463388681412 %
015d : 00000000000000000000001000110101;  % 0x00000235  0.00862376019358635 %
015e : 00000000000000000010100011101000;  % 0x000028e8  0.15978333353996277 %
015f : 00000000000000000001000010000001;  % 0x00001081  0.06446584314107895 %
0160 : 00000000000000000000101101001001;  % 0x00000b49  0.04407830908894539 %
0161 : 00000000000000000000010101010010;  % 0x00000552  0.020783962681889534 %
0162 : 00000000000000000000111000011010;  % 0x00000e1a  0.055078912526369095 %
0163 : 11111111111111111111010010101010;  % 0xfffff4aa  -0.044277988374233246 %
0164 : 11111111111111111101110101000101;  % 0xffffdd45  -0.13566865026950836 %
0165 : 11111111111111111101100010000011;  % 0xffffd883  -0.15424586832523346 %
0166 : 11111111111111111111011001010101;  % 0xfffff655  -0.0377589613199234 %
0167 : 11111111111111111110111100000111;  % 0xffffef07  -0.066304050385952 %
0168 : 11111111111111111110011110000011;  % 0xffffe783  -0.09565120190382004 %
0169 : 00000000000000000000010101000011;  % 0x00000543  0.020558902993798256 %
016a : 11111111111111111111100010101001;  % 0xfffff8a9  -0.02866477705538273 %
016b : 11111111111111111110110000011100;  % 0xffffec1c  -0.07769115269184113 %
016c : 00000000000000000001010000100000;  % 0x00001420  0.07861224561929703 %
016d : 00000000000000000000001101101101;  % 0x0000036d  0.013382385484874249 %
016e : 11111111111111111111100100100100;  % 0xfffff924  -0.026791101321578026 %
016f : 00000000000000000001010011001010;  % 0x000014ca  0.08120185136795044 %
0170 : 11111111111111111111001010001101;  % 0xfffff28d  -0.05253363028168678 %
0171 : 00000000000000000000010100001101;  % 0x0000050d  0.01972906105220318 %
0172 : 11111111111111111111000011001001;  % 0xfffff0c9  -0.0594368614256382 %
0173 : 00000000000000000000000100111000;  % 0x00000138  0.004764227196574211 %
0174 : 11111111111111111111111010011011;  % 0xfffffe9b  -0.005446568131446838 %
0175 : 00000000000000000000111000010111;  % 0x00000e17  0.05503495782613754 %
0176 : 00000000000000000000010011010110;  % 0x000004d6  0.01889057084918022 %
0177 : 11111111111111111111100111111000;  % 0xfffff9f8  -0.023559467867016792 %
0178 : 00000000000000000000101100001000;  % 0x00000b08  0.04309263452887535 %
0179 : 00000000000000000001010010001001;  % 0x00001489  0.08021771162748337 %
017a : 00000000000000000010011010001000;  % 0x00002688  0.15051241219043732 %
017b : 00000000000000000000100111111101;  % 0x000009fd  0.03902252018451691 %
017c : 00000000000000000000111010000001;  % 0x00000e81  0.05665632709860802 %
017d : 00000000000000000000011000100011;  % 0x00000623  0.02397076040506363 %
017e : 00000000000000000000110110011000;  % 0x00000d98  0.053105250000953674 %
017f : 11111111111111111111010110000101;  % 0xfffff585  -0.040946248918771744 %
0180 : 11111111111111111111010100011111;  % 0xfffff51f  -0.04249231889843941 %
0181 : 11111111111111111111101111000000;  % 0xfffffbc0  -0.016607796773314476 %
0182 : 11111111111111111101101111110010;  % 0xffffdbf2  -0.14084424078464508 %
0183 : 11111111111111111110101110100111;  % 0xffffeba7  -0.07947860658168793 %
0184 : 00000000000000000000111100100101;  % 0x00000f25  0.0591609887778759 %
0185 : 11111111111111111110110000000110;  % 0xffffec06  -0.07802686840295792 %
0186 : 11111111111111111110110111110010;  % 0xffffedf2  -0.07052765786647797 %
0187 : 00000000000000000001000100010101;  % 0x00001115  0.06672168523073196 %
0188 : 11111111111111111111000000000011;  % 0xfffff003  -0.062456436455249786 %
0189 : 00000000000000000000000100011010;  % 0x0000011a  0.00430638063699007 %
018a : 11111111111111111110111000011100;  % 0xffffee1c  -0.06988772749900818 %
018b : 00000000000000000000110001011111;  % 0x00000c5f  0.04832865297794342 %
018c : 00000000000000000001011100011100;  % 0x0000171c  0.09026828408241272 %
018d : 11111111111111111111011111101011;  % 0xfffff7eb  -0.0315655954182148 %
018e : 11111111111111111110110111000100;  % 0xffffedc4  -0.07123115658760071 %
018f : 11111111111111111110011011001110;  % 0xffffe6ce  -0.09842593967914581 %
0190 : 00000000000000000000110101111111;  % 0x00000d7f  0.05271490663290024 %
0191 : 00000000000000000000000000101000;  % 0x00000028  0.0006146089872345328 %
0192 : 00000000000000000000001011101011;  % 0x000002eb  0.011403577402234077 %
0193 : 11111111111111111110100001101110;  % 0xffffe86e  -0.09207560867071152 %
0194 : 00000000000000000000101001010011;  % 0x00000a53  0.040330346673727036 %
0195 : 00000000000000000000101011101110;  % 0x00000aee  0.042690254747867584 %
0196 : 00000000000000000010001111001101;  % 0x000023cd  0.13984720408916473 %
0197 : 00000000000000000000101000111000;  % 0x00000a38  0.03991580381989479 %
0198 : 00000000000000000000011011110101;  % 0x000006f5  0.02717450074851513 %
0199 : 00000000000000000000001011110011;  % 0x000002f3  0.011514044366776943 %
019a : 11111111111111111111111010011011;  % 0xfffffe9b  -0.005447547882795334 %
019b : 11111111111111111111010010111010;  % 0xfffff4ba  -0.04403454065322876 %
019c : 00000000000000000000110000000001;  % 0x00000c01  0.046895697712898254 %
019d : 00000000000000000001000010110101;  % 0x000010b5  0.0652664452791214 %
019e : 11111111111111111111001001010001;  % 0xfffff251  -0.05344714969396591 %
019f : 11111111111111111110111110111111;  % 0xffffefbf  -0.06349024921655655 %
01a0 : 00000000000000000000100010001100;  % 0x0000088c  0.03338056057691574 %
01a1 : 11111111111111111111001011111010;  % 0xfffff2fa  -0.05087525025010109 %
01a2 : 11111111111111111110110010111001;  % 0xffffecb9  -0.07530323415994644 %
01a3 : 11111111111111111111100100100010;  % 0xfffff922  -0.026832031086087227 %
01a4 : 00000000000000000000000101110100;  % 0x00000174  0.005679643712937832 %
01a5 : 11111111111111111111101111100100;  % 0xfffffbe4  -0.016051102429628372 %
01a6 : 11111111111111111111111111011000;  % 0xffffffd8  -0.0006063353503122926 %
01a7 : 11111111111111111111100011000011;  % 0xfffff8c3  -0.02826952561736107 %
01a8 : 00000000000000000000011001010000;  % 0x00000650  0.02465474233031273 %
01a9 : 00000000000000000001000010100100;  % 0x000010a4  0.06500779837369919 %
01aa : 00000000000000000000011110111010;  % 0x000007ba  0.03017563186585903 %
01ab : 00000000000000000000001001101010;  % 0x0000026a  0.009425736032426357 %
01ac : 00000000000000000000010010110100;  % 0x000004b4  0.018372884020209312 %
01ad : 11111111111111111111010111011000;  % 0xfffff5d8  -0.039665549993515015 %
01ae : 00000000000000000000000111110000;  % 0x000001f0  0.007571141701191664 %
01af : 11111111111111111111011100011111;  % 0xfffff71f  -0.034682776778936386 %
01b0 : 00000000000000000001000100011000;  % 0x00001118  0.0667768344283104 %
01b1 : 00000000000000000000110100101000;  % 0x00000d28  0.05139325559139252 %
01b2 : 00000000000000000010001101011000;  % 0x00002358  0.138060063123703 %
01b3 : 00000000000000000000101100111010;  % 0x00000b3a  0.04384858161211014 %
01b4 : 00000000000000000001001011000110;  % 0x000012c6  0.07333309203386307 %
01b5 : 11111111111111111111111001010110;  % 0xfffffe56  -0.006506334990262985 %
01b6 : 00000000000000000000000000010111;  % 0x00000017  0.00034410349326208234 %
01b7 : 00000000000000000001110011101000;  % 0x00001ce8  0.1129136011004448 %
01b8 : 00000000000000000000000101110101;  % 0x00000175  0.0056847636587917805 %
01b9 : 00000000000000000000011000001011;  % 0x0000060b  0.023608824238181114 %
01ba : 00000000000000000000100111011100;  % 0x000009dc  0.038517776876688004 %
01bb : 00000000000000000000101011000101;  % 0x00000ac5  0.04206779971718788 %
01bc : 11111111111111111111111110010011;  % 0xffffff93  -0.001667395350523293 %
01bd : 11111111111111111111001111001110;  % 0xfffff3ce  -0.04763321951031685 %
01be : 00000000000000000000011111011000;  % 0x000007d8  0.030635492876172066 %
01bf : 11111111111111111111101100000110;  % 0xfffffb06  -0.01944166235625744 %
01c0 : 11111111111111111110101000010010;  % 0xffffea12  -0.08566409349441528 %
01c1 : 00000000000000000000000100101000;  % 0x00000128  0.0045145065523684025 %
01c2 : 11111111111111111110110100000100;  % 0xffffed04  -0.07416491955518723 %
01c3 : 00000000000000000000100101011001;  % 0x00000959  0.03651575371623039 %
01c4 : 00000000000000000000011011111000;  % 0x000006f8  0.027223866432905197 %
01c5 : 11111111111111111111010010110100;  % 0xfffff4b4  -0.044124916195869446 %
01c6 : 11111111111111111111100111100001;  % 0xfffff9e1  -0.02390914224088192 %
01c7 : 11111111111111111110100000100011;  % 0xffffe823  -0.0932198241353035 %
01c8 : 11111111111111111111000110110110;  % 0xfffff1b6  -0.055811941623687744 %
01c9 : 11111111111111111111101000110100;  % 0xfffffa34  -0.02265155129134655 %
01ca : 11111111111111111111101001001100;  % 0xfffffa4c  -0.0222784373909235 %
01cb : 00000000000000000000000101110011;  % 0x00000173  0.005661274306476116 %
01cc : 11111111111111111111111101011000;  % 0xffffff58  -0.002561405301094055 %
01cd : 00000000000000000010011011010101;  % 0x000026d5  0.15168315172195435 %
01ce : 00000000000000000001010010001100;  % 0x0000148c  0.08026290684938431 %
01cf : 11111111111111111111101001000110;  % 0xfffffa46  -0.022362349554896355 %
01d0 : 11111111111111111110111101100100;  % 0xffffef64  -0.06487318873405457 %
01d1 : 11111111111111111111011101100011;  % 0xfffff763  -0.03364153951406479 %
01d2 : 00000000000000000000111100000111;  % 0x00000f07  0.058698832988739014 %
01d3 : 00000000000000000000001010010001;  % 0x00000291  0.010030955076217651 %
01d4 : 00000000000000000000011011011101;  % 0x000006dd  0.02680441550910473 %
01d5 : 00000000000000000001000011110010;  % 0x000010f2  0.06619774550199509 %
01d6 : 00000000000000000000110101001101;  % 0x00000d4d  0.05196109414100647 %
01d7 : 11111111111111111111100111001110;  % 0xfffff9ce  -0.024207431823015213 %
01d8 : 11111111111111111111111101011010;  % 0xffffff5a  -0.002526583382859826 %
01d9 : 11111111111111111110101100100100;  % 0xffffeb24  -0.08147506415843964 %
01da : 00000000000000000000001001110101;  % 0x00000275  0.009595291689038277 %
01db : 00000000000000000000010110101010;  % 0x000005aa  0.022131284698843956 %
01dc : 11111111111111111110110010100100;  % 0xffffeca4  -0.07561668753623962 %
01dd : 11111111111111111110110110010001;  % 0xffffed91  -0.07200131565332413 %
01de : 00000000000000000000010011110110;  % 0x000004f6  0.01937510259449482 %
01df : 00000000000000000000111110010101;  % 0x00000f95  0.0608697235584259 %
01e0 : 00000000000000000000010100010101;  % 0x00000515  0.019850166514515877 %
01e1 : 11111111111111111111110110100001;  % 0xfffffda1  -0.009266951121389866 %
01e2 : 00000000000000000000010011001110;  % 0x000004ce  0.018774766474962234 %
01e3 : 11111111111111111111010001110000;  % 0xfffff470  -0.04517154395580292 %
01e4 : 11111111111111111101111100011011;  % 0xffffdf1b  -0.12849846482276917 %
01e5 : 11111111111111111110011101000010;  % 0xffffe742  -0.09664242714643478 %
01e6 : 11111111111111111101110111010110;  % 0xffffddd6  -0.13345909118652344 %
01e7 : 11111111111111111100101110111010;  % 0xffffcbba  -0.20419102907180786 %
01e8 : 11111111111111111110100111110001;  % 0xffffe9f1  -0.08616116642951965 %
01e9 : 11111111111111111111111000011100;  % 0xfffffe1c  -0.007387244608253241 %
01ea : 00000000000000000000100101010010;  % 0x00000952  0.03640950471162796 %
01eb : 00000000000000000000000001000011;  % 0x00000043  0.0010266628814861178 %
01ec : 11111111111111111111111100001010;  % 0xffffff0a  -0.0037504788488149643 %
01ed : 00000000000000000000011110111100;  % 0x000007bc  0.030217045918107033 %
01ee : 11111111111111111111101111100100;  % 0xfffffbe4  -0.016048355028033257 %
01ef : 00000000000000000001100110101010;  % 0x000019aa  0.10025320947170258 %
01f0 : 00000000000000000000000010100011;  % 0x000000a3  0.0024877111427485943 %
01f1 : 00000000000000000000100010110010;  % 0x000008b2  0.033968735486269 %
01f2 : 00000000000000000001010101011110;  % 0x0000155e  0.08346051722764969 %
01f3 : 00000000000000000000010011100001;  % 0x000004e1  0.019061550498008728 %
01f4 : 11111111111111111111101111101010;  % 0xfffffbea  -0.015962958335876465 %
01f5 : 11111111111111111110010110000011;  % 0xffffe583  -0.1034732237458229 %
01f6 : 00000000000000000001000111101011;  % 0x000011eb  0.06998984515666962 %
01f7 : 11111111111111111110101100001011;  % 0xffffeb0b  -0.08186865597963333 %
01f8 : 00000000000000000000101111010001;  % 0x00000bd1  0.04615848511457443 %
01f9 : 00000000000000000000110001010010;  % 0x00000c52  0.04812735319137573 %
01fa : 11111111111111111111111011100000;  % 0xfffffee0  -0.004395924974232912 %
01fb : 00000000000000000001011100001110;  % 0x0000170e  0.09005039185285568 %
01fc : 00000000000000000001101001110111;  % 0x00001a77  0.10338398069143295 %
01fd : 00000000000000000000010111111000;  % 0x000005f8  0.023318734019994736 %
01fe : 11111111111111111110100101111001;  % 0xffffe979  -0.08799154311418533 %
01ff : 11111111111111111111111000110000;  % 0xfffffe30  -0.007073137443512678 %
0200 : 11111111111111111111000000010111;  % 0xfffff017  -0.06215563789010048 %
0201 : 11111111111111111101101010111001;  % 0xffffdab9  -0.1456073671579361 %
0202 : 11111111111111111101101011110111;  % 0xffffdaf7  -0.14467507600784302 %
0203 : 11111111111111111101011011111111;  % 0xffffd6ff  -0.16016720235347748 %
0204 : 11111111111111111101001010001000;  % 0xffffd288  -0.17760582268238068 %
0205 : 11111111111111111111000111000011;  % 0xfffff1c3  -0.05562591180205345 %
0206 : 00000000000000000000000001010111;  % 0x00000057  0.0013344386825338006 %
0207 : 11111111111111111111011111110000;  % 0xfffff7f0  -0.03149569034576416 %
0208 : 11111111111111111111101100100011;  % 0xfffffb23  -0.019000006839632988 %
0209 : 00000000000000000000000111011010;  % 0x000001da  0.0072265262715518475 %
020a : 00000000000000000000011001100100;  % 0x00000664  0.024957338348031044 %
020b : 00000000000000000000001110010000;  % 0x00000390  0.013918008655309677 %
020c : 00000000000000000000001010101011;  % 0x000002ab  0.010427777655422688 %
020d : 00000000000000000001010001011001;  % 0x00001459  0.07948483526706696 %
020e : 00000000000000000000000101110110;  % 0x00000176  0.005713868886232376 %
020f : 11111111111111111111011010000010;  % 0xfffff682  -0.03708553686738014 %
0210 : 11111111111111111111111010010111;  % 0xfffffe97  -0.00550542026758194 %
0211 : 11111111111111111111010010001000;  % 0xfffff488  -0.044803258031606674 %
0212 : 11111111111111111111000000111000;  % 0xfffff038  -0.061650436371564865 %
0213 : 00000000000000000001001110101111;  % 0x000013af  0.07688605040311813 %
0214 : 11111111111111111111100011110101;  % 0xfffff8f5  -0.02750590071082115 %
0215 : 00000000000000000001000001000000;  % 0x00001040  0.063478484749794 %
0216 : 00000000000000000000001100100010;  % 0x00000322  0.012241512537002563 %
0217 : 00000000000000000010000100001100;  % 0x0000210c  0.12909206748008728 %
0218 : 11111111111111111111101001011111;  % 0xfffffa5f  -0.021990424022078514 %
0219 : 00000000000000000000000100000111;  % 0x00000107  0.004015926271677017 %
021a : 00000000000000000000000001110111;  % 0x00000077  0.0018128560623154044 %
021b : 11111111111111111111101110101001;  % 0xfffffba9  -0.016958016902208328 %
021c : 11111111111111111111100010110111;  % 0xfffff8b7  -0.02845384180545807 %
021d : 11111111111111111111101101011100;  % 0xfffffb5c  -0.01812560111284256 %
021e : 11111111111111111111010001010011;  % 0xfffff453  -0.04561574012041092 %
021f : 11111111111111111110110011100101;  % 0xffffece5  -0.07462743669748306 %
0220 : 11111111111111111110110011001101;  % 0xffffeccd  -0.07499899715185165 %
0221 : 11111111111111111111000111001101;  % 0xfffff1cd  -0.05546426773071289 %
0222 : 11111111111111111111100010001001;  % 0xfffff889  -0.029165908694267273 %
0223 : 00000000000000000000010111011111;  % 0x000005df  0.022939413785934448 %
0224 : 00000000000000000001110011000101;  % 0x00001cc5  0.11237484216690063 %
0225 : 00000000000000000000100101110111;  % 0x00000977  0.03697497397661209 %
0226 : 00000000000000000000010010110010;  % 0x000004b2  0.018335938453674316 %
0227 : 11111111111111111111111001111010;  % 0xfffffe7a  -0.005946635734289885 %
0228 : 00000000000000000000011111100101;  % 0x000007e5  0.030834516510367393 %
0229 : 00000000000000000001010011100101;  % 0x000014e5  0.08161474019289017 %
022a : 11111111111111111111100101110001;  % 0xfffff971  -0.0256123598664999 %
022b : 00000000000000000000110001111101;  % 0x00000c7d  0.04878896102309227 %
022c : 11111111111111111111011010010001;  % 0xfffff691  -0.03684541955590248 %
022d : 11111111111111111111110110000010;  % 0xfffffd82  -0.009728229604661465 %
022e : 00000000000000000001011010100000;  % 0x000016a0  0.08838456124067307 %
022f : 11111111111111111110101011000011;  % 0xffffeac3  -0.08295885473489761 %
0230 : 11111111111111111110110101110001;  % 0xffffed71  -0.0724920704960823 %
0231 : 00000000000000000000010111001101;  % 0x000005cd  0.022661950439214706 %
0232 : 00000000000000000000011001110100;  % 0x00000674  0.025209974497556686 %
0233 : 00000000000000000000001110000101;  % 0x00000385  0.013752599246799946 %
0234 : 00000000000000000000000001111100;  % 0x0000007c  0.0018924426985904574 %
0235 : 00000000000000000000000111011111;  % 0x000001df  0.007310847286134958 %
0236 : 11111111111111111111110110011100;  % 0xfffffd9c  -0.009331267327070236 %
0237 : 00000000000000000000100000011001;  % 0x00000819  0.031626809388399124 %
0238 : 00000000000000000000011111101000;  % 0x000007e8  0.030885376036167145 %
0239 : 00000000000000000000100010100011;  % 0x000008a3  0.033735089004039764 %
023a : 11111111111111111111111101011000;  % 0xffffff58  -0.00256249587982893 %
023b : 11111111111111111111100101100010;  % 0xfffff962  -0.02584417536854744 %
023c : 11111111111111111110111110110010;  % 0xffffefb2  -0.06369148194789886 %
023d : 11111111111111111111111100101010;  % 0xffffff2a  -0.003262328915297985 %
023e : 11111111111111111111101100010010;  % 0xfffffb12  -0.019258661195635796 %
023f : 11111111111111111111111111110101;  % 0xfffffff5  -0.0001609321916475892 %
0240 : 00000000000000000000101101010011;  % 0x00000b53  0.044235702604055405 %
0241 : 00000000000000000000110100100111;  % 0x00000d27  0.051378678530454636 %
0242 : 00000000000000000001011001001001;  % 0x00001649  0.08704891055822372 %
0243 : 00000000000000000000010101000101;  % 0x00000545  0.02057974599301815 %
0244 : 00000000000000000000110000111011;  % 0x00000c3b  0.04777314141392708 %
0245 : 11111111111111111111001101000110;  % 0xfffff346  -0.04971687123179436 %
0246 : 11111111111111111111001111010011;  % 0xfffff3d3  -0.04755931347608566 %
0247 : 11111111111111111110011000100010;  % 0xffffe622  -0.10103851556777954 %
0248 : 11111111111111111110110111011110;  % 0xffffedde  -0.07083889096975327 %
0249 : 00000000000000000000010001010101;  % 0x00000455  0.016928697004914284 %
024a : 11111111111111111111100101101111;  % 0xfffff96f  -0.025654800236225128 %
024b : 11111111111111111111110010011011;  % 0xfffffc9b  -0.01326617132872343 %
024c : 11111111111111111111111011111110;  % 0xfffffefe  -0.003930455073714256 %
024d : 00000000000000000000101000111110;  % 0x00000a3e  0.04001523554325104 %
024e : 11111111111111111111110111111101;  % 0xfffffdfd  -0.007856369949877262 %
024f : 00000000000000000001110111000100;  % 0x00001dc4  0.11626464128494263 %
0250 : 11111111111111111111101111111010;  % 0xfffffbfa  -0.015713749453425407 %
0251 : 00000000000000000000011101111111;  % 0x0000077f  0.02928171493113041 %
0252 : 00000000000000000000011011010101;  % 0x000006d5  0.02668670564889908 %
0253 : 00000000000000000000101011001101;  % 0x00000acd  0.04219288006424904 %
0254 : 00000000000000000000000010010111;  % 0x00000097  0.002305658534169197 %
0255 : 11111111111111111111001101011001;  % 0xfffff359  -0.04941953718662262 %
0256 : 00000000000000000000111110111010;  % 0x00000fba  0.061430152505636215 %
0257 : 11111111111111111111111111110000;  % 0xfffffff0  -0.0002483030257280916 %
0258 : 11111111111111111111011100000000;  % 0xfffff700  -0.035150591284036636 %
0259 : 11111111111111111111011011100111;  % 0xfffff6e7  -0.035539574921131134 %
025a : 00000000000000000000000110111010;  % 0x000001ba  0.006748983636498451 %
025b : 00000000000000000000010100110111;  % 0x00000537  0.020364105701446533 %
025c : 00000000000000000000011010101001;  % 0x000006a9  0.026022078469395638 %
025d : 00000000000000000000000001001011;  % 0x0000004b  0.0011415876215323806 %
025e : 00000000000000000000100111011010;  % 0x000009da  0.0384812094271183 %
025f : 11111111111111111111111001000001;  % 0xfffffe41  -0.006821101531386375 %
0260 : 00000000000000000000101101100110;  % 0x00000b66  0.0445227324962616 %
0261 : 00000000000000000000101111101111;  % 0x00000bef  0.04661405086517334 %
0262 : 11111111111111111110110010100000;  % 0xffffeca0  -0.07568869739770889 %
0263 : 11111111111111111111111111100110;  % 0xffffffe6  -0.00039436915540136397 %
0264 : 11111111111111111110101101111001;  % 0xffffeb79  -0.08017779886722565 %
0265 : 00000000000000000001001111110110;  % 0x000013f6  0.07796628773212433 %
0266 : 11111111111111111110101110101101;  % 0xffffebad  -0.07938390970230103 %
0267 : 11111111111111111111110011000100;  % 0xfffffcc4  -0.012640058994293213 %
0268 : 11111111111111111111010000110110;  % 0xfffff436  -0.04605528712272644 %
0269 : 00000000000000000000100100110010;  % 0x00000932  0.03592236340045929 %
026a : 11111111111111111111011010110001;  % 0xfffff6b1  -0.03636106848716736 %
026b : 11111111111111111111100110101001;  % 0xfffff9a9  -0.02477172203361988 %
026c : 00000000000000000001101010010111;  % 0x00001a97  0.10387178510427475 %
026d : 00000000000000000010000100011100;  % 0x0000211c  0.12933234870433807 %
026e : 00000000000000000001000001111110;  % 0x0000107e  0.06441712379455566 %
026f : 11111111111111111111011101010011;  % 0xfffff753  -0.03389101102948189 %
0270 : 00000000000000000000100110111011;  % 0x000009bb  0.038016427308321 %
0271 : 00000000000000000000010101101111;  % 0x0000056f  0.02122071385383606 %
0272 : 11111111111111111110111111110010;  % 0xffffeff2  -0.06270866841077805 %
0273 : 11111111111111111111111110100100;  % 0xffffffa4  -0.0014068195596337318 %
0274 : 11111111111111111111000001101110;  % 0xfffff06e  -0.06082877889275551 %
0275 : 11111111111111111110111100111100;  % 0xffffef3c  -0.06548850983381271 %
0276 : 11111111111111111111011100010011;  % 0xfffff713  -0.03486112505197525 %
0277 : 00000000000000000000010010011011;  % 0x0000049b  0.017985839396715164 %
0278 : 11111111111111111111110101000001;  % 0xfffffd41  -0.010725012980401516 %
0279 : 11111111111111111111111001010010;  % 0xfffffe52  -0.006561219226568937 %
027a : 00000000000000000001011111000110;  % 0x000017c6  0.0928647369146347 %
027b : 11111111111111111111011101000101;  % 0xfffff745  -0.03410577028989792 %
027c : 00000000000000000000010010010011;  % 0x00000493  0.017872828990221024 %
027d : 11111111111111111111001010111010;  % 0xfffff2ba  -0.05184703320264816 %
027e : 11111111111111111111001101011000;  % 0xfffff358  -0.04943452775478363 %
027f : 11111111111111111111001101100001;  % 0xfffff361  -0.04930679127573967 %
0280 : 11111111111111111111100101011011;  % 0xfffff95b  -0.02596118673682213 %
0281 : 11111111111111111110110011111100;  % 0xffffecfc  -0.07427781075239182 %
0282 : 00000000000000000000100001011110;  % 0x0000085e  0.03268340229988098 %
0283 : 11111111111111111110101010111100;  % 0xffffeabc  -0.083070769906044 %
0284 : 11111111111111111111101001001111;  % 0xfffffa4f  -0.022234320640563965 %
0285 : 11111111111111111111110100000001;  % 0xfffffd01  -0.011701464653015137 %
0286 : 00000000000000000000001000011000;  % 0x00000218  0.008182835765182972 %
0287 : 11111111111111111111000100110000;  % 0xfffff130  -0.057863954454660416 %
0288 : 00000000000000000001010110101111;  % 0x000015af  0.08470156043767929 %
0289 : 00000000000000000000101000110111;  % 0x00000a37  0.03990824148058891 %
028a : 00000000000000000001111010010100;  % 0x00001e94  0.11943972855806351 %
028b : 00000000000000000001000001011110;  % 0x0000105e  0.06392797082662582 %
028c : 11111111111111111111111111000011;  % 0xffffffc3  -0.0009277052013203502 %
028d : 00000000000000000000010001000001;  % 0x00000441  0.016619224101305008 %
028e : 00000000000000000000101010110001;  % 0x00000ab1  0.041766148060560226 %
028f : 11111111111111111111100011010111;  % 0xfffff8d7  -0.027974534779787064 %
0290 : 00000000000000000000000011100001;  % 0x000000e1  0.003432807046920061 %
0291 : 00000000000000000000001001000111;  % 0x00000247  0.008889002725481987 %
0292 : 11111111111111111111010010011001;  % 0xfffff499  -0.044544368982315063 %
0293 : 00000000000000000000000100001100;  % 0x0000010c  0.004082199651747942 %
0294 : 11111111111111111111111010011011;  % 0xfffffe9b  -0.005441173445433378 %
0295 : 00000000000000000000100101100100;  % 0x00000964  0.03668661788105965 %
0296 : 00000000000000000000111100100110;  % 0x00000f26  0.05916754528880119 %
0297 : 00000000000000000000101101100100;  % 0x00000b64  0.044494982808828354 %
0298 : 11111111111111111111011000111110;  % 0xfffff63e  -0.03811725601553917 %
0299 : 11111111111111111111011101011001;  % 0xfffff759  -0.03380316495895386 %
029a : 11111111111111111110010100000110;  % 0xffffe506  -0.10537151247262955 %
029b : 11111111111111111111010010000011;  % 0xfffff483  -0.04486873000860214 %
029c : 00000000000000000000010000000101;  % 0x00000405  0.01570858806371689 %
029d : 00000000000000000000001111000111;  % 0x000003c7  0.01475246250629425 %
029e : 00000000000000000001010110100101;  % 0x000015a5  0.08454239368438721 %
029f : 00000000000000000000100100110111;  % 0x00000937  0.03599733114242554 %
02a0 : 11111111111111111110101001011111;  % 0xffffea5f  -0.0844869613647461 %
02a1 : 00000000000000000000101000001010;  % 0x00000a0a  0.039220236241817474 %
02a2 : 00000000000000000001000011101110;  % 0x000010ee  0.06613913923501968 %
02a3 : 00000000000000000000101010010100;  % 0x00000a94  0.041322093456983566 %
02a4 : 00000000000000000000111000111011;  % 0x00000e3b  0.05559449642896652 %
02a5 : 00000000000000000001100000100000;  % 0x00001820  0.09423461556434631 %
02a6 : 00000000000000000001010100100001;  % 0x00001521  0.08253587782382965 %
02a7 : 00000000000000000001011001111000;  % 0x00001678  0.08777004480361938 %
02a8 : 00000000000000000000000011000010;  % 0x000000c2  0.002955201081931591 %
02a9 : 00000000000000000000110100001111;  % 0x00000d0f  0.0510077141225338 %
02aa : 00000000000000000000011001011001;  % 0x00000659  0.02479102835059166 %
02ab : 00000000000000000000010010010110;  % 0x00000496  0.01791086047887802 %
02ac : 11111111111111111111110001110001;  % 0xfffffc71  -0.013899221085011959 %
02ad : 00000000000000000000001101001011;  % 0x0000034b  0.012865733355283737 %
02ae : 00000000000000000000000100110010;  % 0x00000132  0.0046658325009047985 %
02af : 11111111111111111111100110101010;  % 0xfffff9aa  -0.024757029488682747 %
02b0 : 11111111111111111110111110110000;  % 0xffffefb0  -0.06372588127851486 %
02b1 : 11111111111111111111100100111101;  % 0xfffff93d  -0.02640661969780922 %
02b2 : 11111111111111111111010000010101;  % 0xfffff415  -0.046556632965803146 %
02b3 : 11111111111111111111100101111011;  % 0xfffff97b  -0.025472566485404968 %
02b4 : 11111111111111111111100010111000;  % 0xfffff8b8  -0.0284368097782135 %
02b5 : 11111111111111111111101100111110;  % 0xfffffb3e  -0.018586238846182823 %
02b6 : 11111111111111111111001001000011;  % 0xfffff243  -0.05367136746644974 %
02b7 : 00000000000000000000000010011000;  % 0x00000098  0.002323684049770236 %
02b8 : 00000000000000000000100111001000;  % 0x000009c8  0.038212597370147705 %
02b9 : 11111111111111111111101100001111;  % 0xfffffb0f  -0.01930340752005577 %
02ba : 11111111111111111111010000111000;  % 0xfffff438  -0.04602183401584625 %
02bb : 00000000000000000001010101010010;  % 0x00001552  0.0832771584391594 %
02bc : 11111111111111111110110000111001;  % 0xffffec39  -0.0772574245929718 %
02bd : 00000000000000000001000000110001;  % 0x00001031  0.0632435753941536 %
02be : 00000000000000000001001011011011;  % 0x000012db  0.07365933805704117 %
02bf : 00000000000000000000000100110010;  % 0x00000132  0.0046718236990273 %
02c0 : 11111111111111111111100110110100;  % 0xfffff9b4  -0.024603988975286484 %
02c1 : 11111111111111111111010111000001;  % 0xfffff5c1  -0.040027860552072525 %
02c2 : 00000000000000000001110011010001;  % 0x00001cd1  0.11256717890501022 %
02c3 : 00000000000000000000111100000101;  % 0x00000f05  0.058674391359090805 %
02c4 : 00000000000000000001110100101101;  % 0x00001d2d  0.11396372318267822 %
02c5 : 00000000000000000001010101100000;  % 0x00001560  0.08349380642175674 %
02c6 : 00000000000000000000110100010100;  % 0x00000d14  0.05108577758073807 %
02c7 : 11111111111111111111100101100010;  % 0xfffff962  -0.02584463357925415 %
02c8 : 00000000000000000000101110110101;  % 0x00000bb5  0.04572366923093796 %
02c9 : 11111111111111111111110010110001;  % 0xfffffcb1  -0.012929769232869148 %
02ca : 00000000000000000000001011011111;  % 0x000002df  0.01120805274695158 %
02cb : 11111111111111111111110011011111;  % 0xfffffcdf  -0.012226239778101444 %
02cc : 11111111111111111110000011011010;  % 0xffffe0da  -0.12167191505432129 %
02cd : 11111111111111111111111111100110;  % 0xffffffe6  -0.0003944610361941159 %
02ce : 11111111111111111111111010000100;  % 0xfffffe84  -0.005795033182948828 %
02cf : 11111111111111111110101001110000;  % 0xffffea70  -0.08422461152076721 %
02d0 : 00000000000000000000101111110010;  % 0x00000bf2  0.04665578156709671 %
02d1 : 11111111111111111111110110001110;  % 0xfffffd8e  -0.009548095986247063 %
02d2 : 00000000000000000001001101110010;  % 0x00001372  0.07595167309045792 %
02d3 : 11111111111111111111011110111001;  % 0xfffff7b9  -0.03233741596341133 %
02d4 : 11111111111111111111011110010100;  % 0xfffff794  -0.032897695899009705 %
02d5 : 00000000000000000000101000011111;  % 0x00000a1f  0.039536040276288986 %
02d6 : 11111111111111111110110001010011;  % 0xffffec53  -0.07685586810112 %
02d7 : 11111111111111111111100001000100;  % 0xfffff844  -0.030207838863134384 %
02d8 : 11111111111111111111001110111010;  % 0xfffff3ba  -0.04793935269117355 %
02d9 : 11111111111111111110110101010011;  % 0xffffed53  -0.07295449823141098 %
02da : 00000000000000000000001001100101;  % 0x00000265  0.00935375690460205 %
02db : 11111111111111111111000100010000;  % 0xfffff110  -0.05834515765309334 %
02dc : 11111111111111111111000111101000;  % 0xfffff1e8  -0.05505089461803436 %
02dd : 00000000000000000000000001010011;  % 0x00000053  0.0012695605400949717 %
02de : 00000000000000000001001000011000;  % 0x00001218  0.07067839801311493 %
02df : 00000000000000000001001010000000;  % 0x00001280  0.07226260006427765 %
02e0 : 11111111111111111111011111010001;  % 0xfffff7d1  -0.03196515887975693 %
02e1 : 00000000000000000000110111011101;  % 0x00000ddd  0.054159533232450485 %
02e2 : 11111111111111111110101111011100;  % 0xffffebdc  -0.07867240905761719 %
02e3 : 11111111111111111110110011100100;  % 0xffffece4  -0.07464518398046494 %
02e4 : 11111111111111111111101101110100;  % 0xfffffb74  -0.01776234619319439 %
02e5 : 11111111111111111111110100100100;  % 0xfffffd24  -0.011164111085236073 %
02e6 : 00000000000000000000010111111010;  % 0x000005fa  0.023345710709691048 %
02e7 : 00000000000000000000000010001110;  % 0x0000008e  0.002166259102523327 %
02e8 : 00000000000000000000101001110101;  % 0x00000a75  0.04084087535738945 %
02e9 : 00000000000000000000111101101010;  % 0x00000f6a  0.06020932272076607 %
02ea : 00000000000000000000000100011011;  % 0x0000011b  0.004322244320064783 %
02eb : 00000000000000000000000011100100;  % 0x000000e4  0.003483203239738941 %
02ec : 11111111111111111110110001011111;  % 0xffffec5f  -0.07666990906000137 %
02ed : 00000000000000000000110111100011;  % 0x00000de3  0.05423984304070473 %
02ee : 11111111111111111111110010111100;  % 0xfffffcbc  -0.012751475907862186 %
02ef : 11111111111111111110110101110110;  % 0xffffed76  -0.07241304218769073 %
02f0 : 00000000000000000001010111011000;  % 0x000015d8  0.08532620221376419 %
02f1 : 00000000000000000000100001101010;  % 0x0000086a  0.03286891430616379 %
02f2 : 00000000000000000001011000111101;  % 0x0000163d  0.08687338978052139 %
02f3 : 00000000000000000001010011110001;  % 0x000014f1  0.08179660886526108 %
02f4 : 11111111111111111111000100000001;  % 0xfffff101  -0.058574777096509933 %
02f5 : 00000000000000000000111011001110;  % 0x00000ece  0.05782932788133621 %
02f6 : 00000000000000000000101001001001;  % 0x00000a49  0.040171362459659576 %
02f7 : 00000000000000000001010110001111;  % 0x0000158f  0.08421770483255386 %
02f8 : 00000000000000000001010111110100;  % 0x000015f4  0.08574999123811722 %
02f9 : 11111111111111111111111100010111;  % 0xffffff17  -0.0035581588745117188 %
02fa : 00000000000000000000010101111000;  % 0x00000578  0.021360548213124275 %
02fb : 11111111111111111111110010000100;  % 0xfffffc84  -0.013608545064926147 %
02fc : 11111111111111111111101111010001;  % 0xfffffbd1  -0.016336679458618164 %
02fd : 11111111111111111111110011010110;  % 0xfffffcd6  -0.012364140711724758 %
02fe : 11111111111111111111101100101000;  % 0xfffffb28  -0.018918152898550034 %
02ff : 00000000000000000001001000101011;  % 0x0000122b  0.07097260653972626 %
0300 : 11111111111111111110111111101110;  % 0xffffefee  -0.06276850402355194 %
0301 : 11111111111111111110111011100011;  % 0xffffeee3  -0.0668419599533081 %
0302 : 11111111111111111111001100010100;  % 0xfffff314  -0.050468508154153824 %
0303 : 11111111111111111111111110010111;  % 0xffffff97  -0.0016096971230581403 %
0304 : 00000000000000000000110110111110;  % 0x00000dbe  0.05368747562170029 %
0305 : 11111111111111111111000001101011;  % 0xfffff06b  -0.060871582478284836 %
0306 : 11111111111111111111000001100110;  % 0xfffff066  -0.06094537675380707 %
0307 : 11111111111111111111111110111011;  % 0xffffffbb  -0.0010563161922618747 %
0308 : 00000000000000000000000110011110;  % 0x0000019e  0.006314426194876432 %
0309 : 11111111111111111111010011001010;  % 0xfffff4ca  -0.04378945752978325 %
030a : 11111111111111111111010001111011;  % 0xfffff47b  -0.04500523582100868 %
030b : 00000000000000000000011010010000;  % 0x00000690  0.025631830096244812 %
030c : 11111111111111111111011101111011;  % 0xfffff77b  -0.03328588977456093 %
030d : 11111111111111111111001010110101;  % 0xfffff2b5  -0.05192938819527626 %
030e : 00000000000000000000000101000100;  % 0x00000144  0.0049491748213768005 %
030f : 00000000000000000000101101110000;  % 0x00000b70  0.04467760771512985 %
END;
