DEPTH = 784;
WIDTH = 32;
ADDRESS_RADIX = HEX;
DATA_RADIX = BIN;
CONTENT
BEGIN
0000 : 11111111111111111111001000000000;  % 0xfffff200  -0.05469365417957306 %
0001 : 00000000000000000001001100111001;  % 0x00001339  0.07508852332830429 %
0002 : 11111111111111111110101110010000;  % 0xffffeb90  -0.07983825355768204 %
0003 : 00000000000000000000000101110110;  % 0x00000176  0.005710169672966003 %
0004 : 00000000000000000000101000100111;  % 0x00000a27  0.03965138643980026 %
0005 : 11111111111111111110110001110001;  % 0xffffec71  -0.07640425860881805 %
0006 : 11111111111111111111001101011001;  % 0xfffff359  -0.04942452162504196 %
0007 : 00000000000000000000100110011111;  % 0x0000099f  0.037579186260700226 %
0008 : 00000000000000000000101001000110;  % 0x00000a46  0.04012777656316757 %
0009 : 11111111111111111111100011000010;  % 0xfffff8c2  -0.028285257518291473 %
000a : 11111111111111111111010000011100;  % 0xfffff41c  -0.04645225405693054 %
000b : 11111111111111111111111010000100;  % 0xfffffe84  -0.0057950615882873535 %
000c : 11111111111111111111001011010011;  % 0xfffff2d3  -0.05146379396319389 %
000d : 11111111111111111111101001010000;  % 0xfffffa50  -0.02220974490046501 %
000e : 11111111111111111111100101001001;  % 0xfffff949  -0.026235472410917282 %
000f : 00000000000000000000101010010110;  % 0x00000a96  0.041346725076436996 %
0010 : 11111111111111111111110101010000;  % 0xfffffd50  -0.010502241551876068 %
0011 : 11111111111111111111101111111011;  % 0xfffffbfb  -0.015696905553340912 %
0012 : 11111111111111111111110100001111;  % 0xfffffd0f  -0.011491410434246063 %
0013 : 11111111111111111111111010000100;  % 0xfffffe84  -0.005795873701572418 %
0014 : 11111111111111111111111001000110;  % 0xfffffe46  -0.006740167737007141 %
0015 : 11111111111111111111101011101000;  % 0xfffffae8  -0.01990315318107605 %
0016 : 00000000000000000001010110110010;  % 0x000015b2  0.0847461000084877 %
0017 : 11111111111111111111101100111010;  % 0xfffffb3a  -0.018651224672794342 %
0018 : 11111111111111111111111000000001;  % 0xfffffe01  -0.007801331579685211 %
0019 : 00000000000000000000110110101100;  % 0x00000dac  0.05341022461652756 %
001a : 00000000000000000000010110010111;  % 0x00000597  0.021841026842594147 %
001b : 11111111111111111110110011111001;  % 0xffffecf9  -0.07433038204908371 %
001c : 11111111111111111111010111001101;  % 0xfffff5cd  -0.03984508290886879 %
001d : 00000000000000000001010100101010;  % 0x0000152a  0.08267465978860855 %
001e : 11111111111111111111011101100001;  % 0xfffff761  -0.033670783042907715 %
001f : 11111111111111111110101101010010;  % 0xffffeb52  -0.08078310638666153 %
0020 : 11111111111111111111100010000001;  % 0xfffff881  -0.02928580716252327 %
0021 : 00000000000000000000101000111100;  % 0x00000a3c  0.03998303413391113 %
0022 : 00000000000000000000010000000100;  % 0x00000404  0.015691421926021576 %
0023 : 11111111111111111111010000100100;  % 0xfffff424  -0.046327922493219376 %
0024 : 11111111111111111111101101011100;  % 0xfffffb5c  -0.018127208575606346 %
0025 : 00000000000000000000001000011101;  % 0x0000021d  0.008261983282864094 %
0026 : 00000000000000000000000010100001;  % 0x000000a1  0.0024532757233828306 %
0027 : 11111111111111111111100011000101;  % 0xfffff8c5  -0.028236569836735725 %
0028 : 11111111111111111110100110010001;  % 0xffffe991  -0.08762615919113159 %
0029 : 11111111111111111111110110001011;  % 0xfffffd8b  -0.009596521034836769 %
002a : 00000000000000000000000010001010;  % 0x0000008a  0.0021011580247431993 %
002b : 11111111111111111110111001110000;  % 0xffffee70  -0.06860416382551193 %
002c : 11111111111111111111001111100111;  % 0xfffff3e7  -0.04725063592195511 %
002d : 00000000000000000000011011111101;  % 0x000006fd  0.027304258197546005 %
002e : 00000000000000000000101111110110;  % 0x00000bf6  0.04672430455684662 %
002f : 11111111111111111111000110001111;  % 0xfffff18f  -0.05640678107738495 %
0030 : 11111111111111111111111010001111;  % 0xfffffe8f  -0.005627654027193785 %
0031 : 00000000000000000000000101101001;  % 0x00000169  0.005506931804120541 %
0032 : 11111111111111111111000001000101;  % 0xfffff045  -0.061451271176338196 %
0033 : 00000000000000000000010011000000;  % 0x000004c0  0.018559977412223816 %
0034 : 00000000000000000001000011100010;  % 0x000010e2  0.06595110148191452 %
0035 : 11111111111111111110101000110011;  % 0xffffea33  -0.08516131341457367 %
0036 : 11111111111111111110110111100110;  % 0xffffede6  -0.07071344554424286 %
0037 : 00000000000000000000010111101001;  % 0x000005e9  0.023090653121471405 %
0038 : 00000000000000000000011000110010;  % 0x00000632  0.024199865758419037 %
0039 : 11111111111111111110101010110011;  % 0xffffeab3  -0.08320670574903488 %
003a : 00000000000000000001001110101010;  % 0x000013aa  0.07681341469287872 %
003b : 00000000000000000000101110111100;  % 0x00000bbc  0.045830048620700836 %
003c : 11111111111111111110110011101011;  % 0xffffeceb  -0.07454019784927368 %
003d : 00000000000000000000110111010000;  % 0x00000dd0  0.053956177085638046 %
003e : 11111111111111111110101101100000;  % 0xffffeb60  -0.08056686073541641 %
003f : 11111111111111111111010011110000;  % 0xfffff4f0  -0.04321311041712761 %
0040 : 11111111111111111110111111110000;  % 0xffffeff0  -0.06274884939193726 %
0041 : 00000000000000000001000101001010;  % 0x0000114a  0.06753901392221451 %
0042 : 11111111111111111111110110011010;  % 0xfffffd9a  -0.009372727945446968 %
0043 : 11111111111111111111100000001001;  % 0xfffff809  -0.03111165761947632 %
0044 : 11111111111111111110101100010001;  % 0xffffeb11  -0.08176582306623459 %
0045 : 00000000000000000000000100000100;  % 0x00000104  0.0039748745039105415 %
0046 : 11111111111111111111001011101011;  % 0xfffff2eb  -0.051104266196489334 %
0047 : 11111111111111111111010110100001;  % 0xfffff5a1  -0.040506523102521896 %
0048 : 11111111111111111111001000011111;  % 0xfffff21f  -0.05421360582113266 %
0049 : 11111111111111111111011000101101;  % 0xfffff62d  -0.0383756197988987 %
004a : 11111111111111111111011010101011;  % 0xfffff6ab  -0.036458570510149 %
004b : 00000000000000000000110100001000;  % 0x00000d08  0.05089952424168587 %
004c : 11111111111111111111110100011110;  % 0xfffffd1e  -0.011267207562923431 %
004d : 00000000000000000000101010001101;  % 0x00000a8d  0.04120790958404541 %
004e : 11111111111111111111000110111001;  % 0xfffff1b9  -0.05577046051621437 %
004f : 11111111111111111111100100010101;  % 0xfffff915  -0.027023810893297195 %
0050 : 00000000000000000000101000100110;  % 0x00000a26  0.039642538875341415 %
0051 : 00000000000000000000100010101000;  % 0x000008a8  0.03381163626909256 %
0052 : 11111111111111111111011101010001;  % 0xfffff751  -0.033926039934158325 %
0053 : 11111111111111111111001001000011;  % 0xfffff243  -0.05367037281394005 %
0054 : 00000000000000000001000110111101;  % 0x000011bd  0.06929416209459305 %
0055 : 11111111111111111111110000111100;  % 0xfffffc3c  -0.014708220958709717 %
0056 : 11111111111111111111110011000011;  % 0xfffffcc3  -0.012643182650208473 %
0057 : 00000000000000000000100000101011;  % 0x0000082b  0.03191181644797325 %
0058 : 00000000000000000000110111010011;  % 0x00000dd3  0.05399416387081146 %
0059 : 00000000000000000000011111010101;  % 0x000007d5  0.030601056292653084 %
005a : 00000000000000000000000110100101;  % 0x000001a5  0.006423626560717821 %
005b : 11111111111111111110011111111111;  % 0xffffe7ff  -0.09376630187034607 %
005c : 00000000000000000000010011100111;  % 0x000004e7  0.019147135317325592 %
005d : 11111111111111111110110000000000;  % 0xffffec00  -0.07812647521495819 %
005e : 11111111111111111111110010111000;  % 0xfffffcb8  -0.012816586531698704 %
005f : 11111111111111111111100111001101;  % 0xfffff9cd  -0.02420811913907528 %
0060 : 11111111111111111111100100110011;  % 0xfffff933  -0.026569653302431107 %
0061 : 11111111111111111111010001010110;  % 0xfffff456  -0.04556594043970108 %
0062 : 11111111111111111110010100111101;  % 0xffffe53d  -0.10453581809997559 %
0063 : 00000000000000000000010001001001;  % 0x00000449  0.01674024388194084 %
0064 : 00000000000000000000000011100000;  % 0x000000e0  0.0034128606785088778 %
0065 : 11111111111111111111110100100100;  % 0xfffffd24  -0.011166414245963097 %
0066 : 11111111111111111111101010100100;  % 0xfffffaa4  -0.020927896723151207 %
0067 : 11111111111111111111001001101000;  % 0xfffff268  -0.053107716143131256 %
0068 : 11111111111111111111100001111011;  % 0xfffff87b  -0.02937125600874424 %
0069 : 00000000000000000000110101011101;  % 0x00000d5d  0.05220334976911545 %
006a : 11111111111111111110110100000101;  % 0xffffed05  -0.0741468146443367 %
006b : 00000000000000000000110110000111;  % 0x00000d87  0.052840325981378555 %
006c : 00000000000000000000000010000010;  % 0x00000082  0.001979489577934146 %
006d : 11111111111111111111001011010001;  % 0xfffff2d1  -0.051498305052518845 %
006e : 00000000000000000000101100001101;  % 0x00000b0d  0.04316132143139839 %
006f : 00000000000000000001010110000101;  % 0x00001585  0.0840662494301796 %
0070 : 00000000000000000000111101111100;  % 0x00000f7c  0.06048157066106796 %
0071 : 00000000000000000000111010001111;  % 0x00000e8f  0.05687446892261505 %
0072 : 11111111111111111111101100011000;  % 0xfffffb18  -0.019170504063367844 %
0073 : 00000000000000000001011000001010;  % 0x0000160a  0.08609438687562943 %
0074 : 00000000000000000000001001110110;  % 0x00000276  0.009618213400244713 %
0075 : 00000000000000000000100001111010;  % 0x0000087a  0.033114638179540634 %
0076 : 00000000000000000000010101011110;  % 0x0000055e  0.020958634093403816 %
0077 : 00000000000000000000010011110001;  % 0x000004f1  0.01930907927453518 %
0078 : 11111111111111111110001101011000;  % 0xffffe358  -0.11193661391735077 %
0079 : 11111111111111111111101010011110;  % 0xfffffa9e  -0.021026570349931717 %
007a : 11111111111111111111001110110101;  % 0xfffff3b5  -0.04802117869257927 %
007b : 00000000000000000000100011011010;  % 0x000008da  0.034583576023578644 %
007c : 11111111111111111111011011000011;  % 0xfffff6c3  -0.036090362817049026 %
007d : 11111111111111111111000001101111;  % 0xfffff06f  -0.06080387905240059 %
007e : 00000000000000000001100001001010;  % 0x0000184a  0.09487870335578918 %
007f : 00000000000000000000001011010111;  % 0x000002d7  0.011092379689216614 %
0080 : 00000000000000000000100001000100;  % 0x00000844  0.03229125216603279 %
0081 : 00000000000000000001010000011000;  % 0x00001418  0.07849036157131195 %
0082 : 00000000000000000000011111010001;  % 0x000007d1  0.030527425929903984 %
0083 : 11111111111111111111111111001000;  % 0xffffffc8  -0.0008569295750930905 %
0084 : 00000000000000000001011110100011;  % 0x000017a3  0.0923236757516861 %
0085 : 00000000000000000001010001010000;  % 0x00001450  0.07935266196727753 %
0086 : 11111111111111111111101010110010;  % 0xfffffab2  -0.020714113488793373 %
0087 : 00000000000000000000111001111111;  % 0x00000e7f  0.056625913828611374 %
0088 : 11111111111111111111111111011010;  % 0xffffffda  -0.0005868486477993429 %
0089 : 00000000000000000000001100100000;  % 0x00000320  0.012206392362713814 %
008a : 11111111111111111111110101101011;  % 0xfffffd6b  -0.010087726637721062 %
008b : 11111111111111111110111101100000;  % 0xffffef60  -0.06493986397981644 %
008c : 11111111111111111111011001100111;  % 0xfffff667  -0.037493690848350525 %
008d : 00000000000000000000100001101000;  % 0x00000868  0.032834216952323914 %
008e : 00000000000000000000111000111010;  % 0x00000e3a  0.05557664483785629 %
008f : 11111111111111111110111101111010;  % 0xffffef7a  -0.06454922258853912 %
0090 : 11111111111111111110110100110111;  % 0xffffed37  -0.07337765395641327 %
0091 : 00000000000000000000100010011001;  % 0x00000899  0.03359181433916092 %
0092 : 00000000000000000000110111110010;  % 0x00000df2  0.054467301815748215 %
0093 : 11111111111111111111011011001100;  % 0xfffff6cc  -0.03595440089702606 %
0094 : 11111111111111111111110110111010;  % 0xfffffdba  -0.008881381712853909 %
0095 : 11111111111111111111101000111101;  % 0xfffffa3d  -0.022507192566990852 %
0096 : 11111111111111111110101010101010;  % 0xffffeaaa  -0.08334067463874817 %
0097 : 00000000000000000000100100101011;  % 0x0000092b  0.03581482544541359 %
0098 : 00000000000000000000010001011100;  % 0x0000045c  0.017031561583280563 %
0099 : 00000000000000000000010100011101;  % 0x0000051d  0.01997951976954937 %
009a : 00000000000000000000111111111110;  % 0x00000ffe  0.06247372180223465 %
009b : 00000000000000000000001101011011;  % 0x0000035b  0.013113012537360191 %
009c : 00000000000000000000111000110010;  % 0x00000e32  0.05544845759868622 %
009d : 00000000000000000000101111100000;  % 0x00000be0  0.046382736414670944 %
009e : 11111111111111111111110100001100;  % 0xfffffd0c  -0.011535790748894215 %
009f : 11111111111111111111111110110010;  % 0xffffffb2  -0.001185142551548779 %
00a0 : 00000000000000000000111010100000;  % 0x00000ea0  0.05713141709566116 %
00a1 : 00000000000000000000001000101111;  % 0x0000022f  0.008533844724297523 %
00a2 : 00000000000000000000000010000111;  % 0x00000087  0.002052849158644676 %
00a3 : 00000000000000000001000001011001;  % 0x00001059  0.06386461853981018 %
00a4 : 00000000000000000000000111011110;  % 0x000001de  0.007289966102689505 %
00a5 : 00000000000000000000111001000000;  % 0x00000e40  0.055666595697402954 %
00a6 : 00000000000000000001010000000000;  % 0x00001400  0.07813121378421783 %
00a7 : 00000000000000000000010011001111;  % 0x000004cf  0.01878540590405464 %
00a8 : 00000000000000000001010011011010;  % 0x000014da  0.08144580572843552 %
00a9 : 00000000000000000000000000111111;  % 0x0000003f  0.0009646220714785159 %
00aa : 11111111111111111111100001111111;  % 0xfffff87f  -0.02931211329996586 %
00ab : 00000000000000000000110010110111;  % 0x00000cb7  0.04966288059949875 %
00ac : 11111111111111111111111001011001;  % 0xfffffe59  -0.006449919659644365 %
00ad : 00000000000000000000001110010001;  % 0x00000391  0.013937764801084995 %
00ae : 00000000000000000000011111000001;  % 0x000007c1  0.030291827395558357 %
00af : 00000000000000000000010100111010;  % 0x0000053a  0.02041707932949066 %
00b0 : 11111111111111111111110001110000;  % 0xfffffc70  -0.01391676627099514 %
00b1 : 00000000000000000000100011001010;  % 0x000008ca  0.0343315415084362 %
00b2 : 00000000000000000000001011000011;  % 0x000002c3  0.01078893058001995 %
00b3 : 00000000000000000000101010101001;  % 0x00000aa9  0.041645195335149765 %
00b4 : 11111111111111111111100010011111;  % 0xfffff89f  -0.02881983295083046 %
00b5 : 00000000000000000000000001000000;  % 0x00000040  0.0009732730686664581 %
00b6 : 11111111111111111110111100011101;  % 0xffffef1d  -0.06595656275749207 %
00b7 : 00000000000000000000001001111101;  % 0x0000027d  0.00972419697791338 %
00b8 : 00000000000000000001010001110001;  % 0x00001471  0.07985386997461319 %
00b9 : 00000000000000000000110010100111;  % 0x00000ca7  0.04942067712545395 %
00ba : 11111111111111111110110101111010;  % 0xffffed7a  -0.07236196845769882 %
00bb : 00000000000000000001001000001011;  % 0x0000120b  0.07047894597053528 %
00bc : 11111111111111111111110000001000;  % 0xfffffc08  -0.0155101977288723 %
00bd : 00000000000000000001011111101101;  % 0x000017ed  0.09345351904630661 %
00be : 11111111111111111111101000001100;  % 0xfffffa0c  -0.0232494305819273 %
00bf : 00000000000000000010001100101010;  % 0x0000232a  0.1373630166053772 %
00c0 : 00000000000000000000001011100111;  % 0x000002e7  0.011343215592205524 %
00c1 : 00000000000000000000101100001110;  % 0x00000b0e  0.043181367218494415 %
00c2 : 00000000000000000000000000101111;  % 0x0000002f  0.000716838869266212 %
00c3 : 00000000000000000000110000011000;  % 0x00000c18  0.0472385436296463 %
00c4 : 11111111111111111111010101101110;  % 0xfffff56e  -0.04129481688141823 %
00c5 : 00000000000000000000011011001011;  % 0x000006cb  0.026531876996159554 %
00c6 : 00000000000000000000000101011010;  % 0x0000015a  0.005279564764350653 %
00c7 : 11111111111111111111100001101011;  % 0xfffff86b  -0.029613375663757324 %
00c8 : 00000000000000000000010010011000;  % 0x00000498  0.017948975786566734 %
00c9 : 00000000000000000000101011010110;  % 0x00000ad6  0.0423247329890728 %
00ca : 11111111111111111111010101010100;  % 0xfffff554  -0.04168926924467087 %
00cb : 11111111111111111111111101110110;  % 0xffffff76  -0.0021045729517936707 %
00cc : 00000000000000000001011110001101;  % 0x0000178d  0.09199655801057816 %
00cd : 00000000000000000000000101011000;  % 0x00000158  0.005246622487902641 %
00ce : 00000000000000000001100001011111;  % 0x0000185f  0.09519468247890472 %
00cf : 00000000000000000000011001111011;  % 0x0000067b  0.025319362059235573 %
00d0 : 11111111111111111111010000100001;  % 0xfffff421  -0.04637426882982254 %
00d1 : 00000000000000000000101110011010;  % 0x00000b9a  0.045314326882362366 %
00d2 : 11111111111111111110111111111011;  % 0xffffeffb  -0.06257492303848267 %
00d3 : 00000000000000000000101001101111;  % 0x00000a6f  0.04075750336050987 %
00d4 : 00000000000000000000011111110101;  % 0x000007f5  0.03107503615319729 %
00d5 : 00000000000000000000100001001000;  % 0x00000848  0.032352373003959656 %
00d6 : 00000000000000000000110100001100;  % 0x00000d0c  0.050960805267095566 %
00d7 : 00000000000000000001000111001001;  % 0x000011c9  0.06947080790996552 %
00d8 : 00000000000000000000111111010101;  % 0x00000fd5  0.06184632331132889 %
00d9 : 00000000000000000000100001101100;  % 0x0000086c  0.032899580895900726 %
00da : 00000000000000000001100110100101;  % 0x000019a5  0.10017234832048416 %
00db : 00000000000000000001110101001110;  % 0x00001d4e  0.11446850746870041 %
00dc : 00000000000000000000010100000101;  % 0x00000505  0.01960945315659046 %
00dd : 00000000000000000001000111010010;  % 0x000011d2  0.06960675865411758 %
00de : 11111111111111111111110110010001;  % 0xfffffd91  -0.009502365253865719 %
00df : 11111111111111111111001111100110;  % 0xfffff3e6  -0.04727107286453247 %
00e0 : 11111111111111111110110011000000;  % 0xffffecc0  -0.07520008832216263 %
00e1 : 00000000000000000000000001111101;  % 0x0000007d  0.001913730287924409 %
00e2 : 00000000000000000001010101110001;  % 0x00001571  0.08375070244073868 %
00e3 : 00000000000000000000010101100011;  % 0x00000563  0.021034670993685722 %
00e4 : 11111111111111111111001000111100;  % 0xfffff23c  -0.05377528816461563 %
00e5 : 00000000000000000000001011000111;  % 0x000002c7  0.010851779021322727 %
00e6 : 00000000000000000000101110001000;  % 0x00000b88  0.045045942068099976 %
00e7 : 00000000000000000001011001010000;  % 0x00001650  0.08715290576219559 %
00e8 : 00000000000000000000101100000101;  % 0x00000b05  0.04305147007107735 %
00e9 : 00000000000000000000101010001010;  % 0x00000a8a  0.041162338107824326 %
00ea : 00000000000000000000101001101001;  % 0x00000a69  0.040670741349458694 %
00eb : 00000000000000000000000110100001;  % 0x000001a1  0.006367253139615059 %
00ec : 00000000000000000000111010111111;  % 0x00000ebf  0.05760091170668602 %
00ed : 00000000000000000010000111010111;  % 0x000021d7  0.13218063116073608 %
00ee : 11111111111111111111000110011000;  % 0xfffff198  -0.05627534165978432 %
00ef : 00000000000000000000101001110111;  % 0x00000a77  0.040872976183891296 %
00f0 : 00000000000000000000001110111101;  % 0x000003bd  0.014599219895899296 %
00f1 : 00000000000000000000101011101010;  % 0x00000aea  0.04263320565223694 %
00f2 : 00000000000000000010100001001011;  % 0x0000284b  0.1573890596628189 %
00f3 : 00000000000000000001000100101111;  % 0x0000112f  0.0671280100941658 %
00f4 : 00000000000000000000010010010011;  % 0x00000493  0.017867926508188248 %
00f5 : 00000000000000000000111111100001;  % 0x00000fe1  0.06203228607773781 %
00f6 : 00000000000000000000000111110000;  % 0x000001f0  0.007560994941741228 %
00f7 : 00000000000000000001000000001111;  % 0x0000100f  0.06272520869970322 %
00f8 : 00000000000000000000100011001101;  % 0x000008cd  0.03437273949384689 %
00f9 : 00000000000000000000111010100011;  % 0x00000ea3  0.057178791612386703 %
00fa : 00000000000000000000011010001011;  % 0x0000068b  0.025559335947036743 %
00fb : 00000000000000000001011000001000;  % 0x00001608  0.08605889230966568 %
00fc : 00000000000000000000100010010100;  % 0x00000894  0.033507250249385834 %
00fd : 11111111111111111111101111110010;  % 0xfffffbf2  -0.01584225706756115 %
00fe : 00000000000000000000001111111101;  % 0x000003fd  0.015580878593027592 %
00ff : 00000000000000000000010001111101;  % 0x0000047d  0.01753944531083107 %
0100 : 00000000000000000001001001101001;  % 0x00001269  0.07191003859043121 %
0101 : 00000000000000000000000111000000;  % 0x000001c0  0.006833683233708143 %
0102 : 00000000000000000000101001000110;  % 0x00000a46  0.040132321417331696 %
0103 : 00000000000000000000101011001010;  % 0x00000aca  0.04214250668883324 %
0104 : 00000000000000000000101000001110;  % 0x00000a0e  0.03927147388458252 %
0105 : 00000000000000000000010011010110;  % 0x000004d6  0.018885070458054543 %
0106 : 00000000000000000000100010100101;  % 0x000008a5  0.033768873661756516 %
0107 : 00000000000000000000010010101000;  % 0x000004a8  0.018195929005742073 %
0108 : 11111111111111111111001111010111;  % 0xfffff3d7  -0.04750397428870201 %
0109 : 00000000000000000000011011110110;  % 0x000006f6  0.027189649641513824 %
010a : 11111111111111111111010110010100;  % 0xfffff594  -0.04070781543850899 %
010b : 11111111111111111110110101011000;  % 0xffffed58  -0.07287229597568512 %
010c : 00000000000000000000011110111101;  % 0x000007bd  0.03023095801472664 %
010d : 00000000000000000000101100001000;  % 0x00000b08  0.0430852547287941 %
010e : 11111111111111111111001110110101;  % 0xfffff3b5  -0.048023972660303116 %
010f : 00000000000000000000010010111110;  % 0x000004be  0.018527882173657417 %
0110 : 00000000000000000000001001111010;  % 0x0000027a  0.009679203853011131 %
0111 : 11111111111111111110111101010000;  % 0xffffef50  -0.06518331915140152 %
0112 : 00000000000000000000011111011101;  % 0x000007dd  0.03071480058133602 %
0113 : 11111111111111111110010000101101;  % 0xffffe42d  -0.10869155079126358 %
0114 : 11111111111111111111111001111110;  % 0xfffffe7e  -0.005891275126487017 %
0115 : 11111111111111111110101111101011;  % 0xffffebeb  -0.07844661176204681 %
0116 : 00000000000000000000111111010100;  % 0x00000fd4  0.061825502663850784 %
0117 : 11111111111111111110111001101111;  % 0xffffee6f  -0.06862352788448334 %
0118 : 00000000000000000000001110100111;  % 0x000003a7  0.01425978448241949 %
0119 : 11111111111111111111110110010110;  % 0xfffffd96  -0.009422560222446918 %
011a : 00000000000000000000010011001010;  % 0x000004ca  0.018708009272813797 %
011b : 11111111111111111111110010011111;  % 0xfffffc9f  -0.013203846290707588 %
011c : 11111111111111111111011000000010;  % 0xfffff602  -0.0390268974006176 %
011d : 00000000000000000000010101010000;  % 0x00000550  0.020745646208524704 %
011e : 11111111111111111110101010111110;  % 0xffffeabe  -0.08303619176149368 %
011f : 11111111111111111111010100010001;  % 0xfffff511  -0.04271624982357025 %
0120 : 00000000000000000000000100101010;  % 0x0000012a  0.004547503311187029 %
0121 : 11111111111111111111100000010100;  % 0xfffff814  -0.03093848191201687 %
0122 : 00000000000000000000010011000100;  % 0x000004c4  0.01860911212861538 %
0123 : 11111111111111111111110101000001;  % 0xfffffd41  -0.010727522894740105 %
0124 : 11111111111111111111011001010100;  % 0xfffff654  -0.037785518914461136 %
0125 : 11111111111111111110111010100101;  % 0xffffeea5  -0.06779380887746811 %
0126 : 11111111111111111110111000111001;  % 0xffffee39  -0.06943977624177933 %
0127 : 11111111111111111111100011111100;  % 0xfffff8fc  -0.027398154139518738 %
0128 : 11111111111111111111011101101110;  % 0xfffff76e  -0.033477891236543655 %
0129 : 11111111111111111111000111100101;  % 0xfffff1e5  -0.055103883147239685 %
012a : 11111111111111111111011011110111;  % 0xfffff6f7  -0.03529627248644829 %
012b : 11111111111111111111110001011011;  % 0xfffffc5b  -0.01423709001392126 %
012c : 11111111111111111111011000100011;  % 0xfffff623  -0.038533780723810196 %
012d : 11111111111111111111110001000010;  % 0xfffffc42  -0.014618128538131714 %
012e : 11111111111111111110100110000011;  % 0xffffe983  -0.08784542977809906 %
012f : 11111111111111111110011110111110;  % 0xffffe7be  -0.0947646051645279 %
0130 : 11111111111111111110110111010001;  % 0xffffedd1  -0.07102660834789276 %
0131 : 11111111111111111111011000010101;  % 0xfffff615  -0.03873782232403755 %
0132 : 00000000000000000001001001001100;  % 0x0000124c  0.07146511226892471 %
0133 : 00000000000000000001001101001011;  % 0x0000134b  0.07535725831985474 %
0134 : 11111111111111111111110000111000;  % 0xfffffc38  -0.014773727394640446 %
0135 : 11111111111111111111110011101110;  % 0xfffffcee  -0.01198753621429205 %
0136 : 00000000000000000000010011101010;  % 0x000004ea  0.01919502764940262 %
0137 : 11111111111111111111110110001110;  % 0xfffffd8e  -0.009548041969537735 %
0138 : 00000000000000000000001010111011;  % 0x000002bb  0.010664110071957111 %
0139 : 11111111111111111111100001111110;  % 0xfffff87e  -0.029328029602766037 %
013a : 00000000000000000000001010100101;  % 0x000002a5  0.010333689860999584 %
013b : 00000000000000000000010111011110;  % 0x000005de  0.02292557992041111 %
013c : 11111111111111111111011110100111;  % 0xfffff7a7  -0.032612379640340805 %
013d : 00000000000000000000111101101011;  % 0x00000f6b  0.060221679508686066 %
013e : 11111111111111111110011100011011;  % 0xffffe71b  -0.09724142402410507 %
013f : 00000000000000000000001001110010;  % 0x00000272  0.009545916691422462 %
0140 : 00000000000000000000001011011000;  % 0x000002d8  0.011109265498816967 %
0141 : 11111111111111111110011101000011;  % 0xffffe743  -0.0966387614607811 %
0142 : 00000000000000000000000110111110;  % 0x000001be  0.006798981223255396 %
0143 : 00000000000000000000010000111000;  % 0x00000438  0.01648413948714733 %
0144 : 00000000000000000000101010000000;  % 0x00000a80  0.04100846126675606 %
0145 : 11111111111111111111011000110001;  % 0xfffff631  -0.038310930132865906 %
0146 : 11111111111111111110000101000010;  % 0xffffe142  -0.1200886070728302 %
0147 : 11111111111111111111000011101001;  % 0xfffff0e9  -0.05893786624073982 %
0148 : 11111111111111111111000100101000;  % 0xfffff128  -0.05798323452472687 %
0149 : 11111111111111111110100010110000;  % 0xffffe8b0  -0.09106358885765076 %
014a : 00000000000000000001000011110011;  % 0x000010f3  0.0662144273519516 %
014b : 11111111111111111111111000000100;  % 0xfffffe04  -0.007751967757940292 %
014c : 00000000000000000000000000000111;  % 0x00000007  0.00011104278382845223 %
014d : 11111111111111111111100110011010;  % 0xfffff99a  -0.024995841085910797 %
014e : 11111111111111111111000000001110;  % 0xfffff00e  -0.062289781868457794 %
014f : 11111111111111111111001101001000;  % 0xfffff348  -0.049684055149555206 %
0150 : 11111111111111111111001111101100;  % 0xfffff3ec  -0.04718448594212532 %
0151 : 00000000000000000000110001000011;  % 0x00000c43  0.04789118468761444 %
0152 : 11111111111111111111001011100010;  % 0xfffff2e2  -0.05124017596244812 %
0153 : 00000000000000000000010110101011;  % 0x000005ab  0.02213573269546032 %
0154 : 00000000000000000001001011000000;  % 0x000012c0  0.0732434019446373 %
0155 : 11111111111111111111101100100010;  % 0xfffffb22  -0.019012432545423508 %
0156 : 11111111111111111111000001011010;  % 0xfffff05a  -0.06113393232226372 %
0157 : 11111111111111111111111010101111;  % 0xfffffeaf  -0.005145096220076084 %
0158 : 11111111111111111111111100100111;  % 0xffffff27  -0.0033121334854513407 %
0159 : 11111111111111111111100010111101;  % 0xfffff8bd  -0.02835940569639206 %
015a : 00000000000000000000001001101010;  % 0x0000026a  0.009427262470126152 %
015b : 11111111111111111111110101111100;  % 0xfffffd7c  -0.00982747133821249 %
015c : 11111111111111111111010101101101;  % 0xfffff56d  -0.04131133109331131 %
015d : 00000000000000000000011111100001;  % 0x000007e1  0.030777454376220703 %
015e : 00000000000000000000111001010011;  % 0x00000e53  0.0559510737657547 %
015f : 00000000000000000001010100011000;  % 0x00001518  0.08239948749542236 %
0160 : 11111111111111111111101100101101;  % 0xfffffb2d  -0.018846843391656876 %
0161 : 00000000000000000000110001001110;  % 0x00000c4e  0.04806225746870041 %
0162 : 00000000000000000000101010111011;  % 0x00000abb  0.04191480204463005 %
0163 : 00000000000000000000100000101101;  % 0x0000082d  0.03193599358201027 %
0164 : 11111111111111111111001101010001;  % 0xfffff351  -0.04955126717686653 %
0165 : 11111111111111111111100100100100;  % 0xfffff924  -0.0267974603921175 %
0166 : 00000000000000000000101001101010;  % 0x00000a6a  0.040673501789569855 %
0167 : 00000000000000000010000011011010;  % 0x000020da  0.12832611799240112 %
0168 : 00000000000000000000011111011101;  % 0x000007dd  0.030715007334947586 %
0169 : 11111111111111111111101000011010;  % 0xfffffa1a  -0.023039432242512703 %
016a : 11111111111111111111011010001110;  % 0xfffff68e  -0.03689774498343468 %
016b : 11111111111111111111000011010101;  % 0xfffff0d5  -0.05924301594495773 %
016c : 11111111111111111111101111011011;  % 0xfffffbdb  -0.01618923246860504 %
016d : 00000000000000000000010001000010;  % 0x00000442  0.016625825315713882 %
016e : 11111111111111111110111010100000;  % 0xffffeea0  -0.06787291914224625 %
016f : 00000000000000000001000110100100;  % 0x000011a4  0.06890510022640228 %
0170 : 11111111111111111110100100101111;  % 0xffffe92f  -0.08912298083305359 %
0171 : 00000000000000000000000011111111;  % 0x000000ff  0.0038949865847826004 %
0172 : 00000000000000000000100100111111;  % 0x0000093f  0.03611870855093002 %
0173 : 11111111111111111111111101011101;  % 0xffffff5d  -0.0024799297098070383 %
0174 : 00000000000000000000011101000111;  % 0x00000747  0.028420496731996536 %
0175 : 00000000000000000001000001001011;  % 0x0000104b  0.06364699453115463 %
0176 : 00000000000000000000010111001000;  % 0x000005c8  0.02257566899061203 %
0177 : 00000000000000000001101110000000;  % 0x00001b80  0.10742615163326263 %
0178 : 00000000000000000000101110011111;  % 0x00000b9f  0.04540069028735161 %
0179 : 00000000000000000010000000011111;  % 0x0000201f  0.12547297775745392 %
017a : 00000000000000000001000001101001;  % 0x00001069  0.06409486383199692 %
017b : 00000000000000000001111010111110;  % 0x00001ebe  0.12008184939622879 %
017c : 00000000000000000001000000001011;  % 0x0000100b  0.06266520917415619 %
017d : 00000000000000000000011010101111;  % 0x000006af  0.026110714301466942 %
017e : 00000000000000000000100001111100;  % 0x0000087c  0.03314850851893425 %
017f : 11111111111111111111100100001010;  % 0xfffff90a  -0.02718774415552616 %
0180 : 00000000000000000001000111000101;  % 0x000011c5  0.06941593438386917 %
0181 : 11111111111111111111100011110100;  % 0xfffff8f4  -0.02752591110765934 %
0182 : 11111111111111111111100100000011;  % 0xfffff903  -0.02729732170701027 %
0183 : 11111111111111111111000000110111;  % 0xfffff037  -0.0616629421710968 %
0184 : 11111111111111111110110001100110;  % 0xffffec66  -0.07656640559434891 %
0185 : 00000000000000000000010110010111;  % 0x00000597  0.021834395825862885 %
0186 : 11111111111111111111101100100100;  % 0xfffffb24  -0.018988365307450294 %
0187 : 11111111111111111111110010010001;  % 0xfffffc91  -0.013417256064713001 %
0188 : 00000000000000000000110100001010;  % 0x00000d0a  0.05093547701835632 %
0189 : 00000000000000000000110100000100;  % 0x00000d04  0.050840504467487335 %
018a : 11111111111111111111001100100111;  % 0xfffff327  -0.05018135532736778 %
018b : 11111111111111111110111101000001;  % 0xffffef41  -0.06541691720485687 %
018c : 00000000000000000000001011110110;  % 0x000002f6  0.011572126299142838 %
018d : 11111111111111111110110001110101;  % 0xffffec75  -0.07633544504642487 %
018e : 00000000000000000000010001110101;  % 0x00000475  0.01740708015859127 %
018f : 00000000000000000000101001010000;  % 0x00000a50  0.040288712829351425 %
0190 : 11111111111111111111100100101011;  % 0xfffff92b  -0.02668272890150547 %
0191 : 00000000000000000000110001000101;  % 0x00000c45  0.047921694815158844 %
0192 : 00000000000000000001010110000000;  % 0x00001580  0.08399103581905365 %
0193 : 00000000000000000000110110111100;  % 0x00000dbc  0.053642526268959045 %
0194 : 00000000000000000000111011010110;  % 0x00000ed6  0.057949088513851166 %
0195 : 00000000000000000010101110111000;  % 0x00002bb8  0.17077524960041046 %
0196 : 00000000000000000010100101110101;  % 0x00002975  0.1619437336921692 %
0197 : 00000000000000000000110000001011;  % 0x00000c0b  0.04704446718096733 %
0198 : 00000000000000000001010101000011;  % 0x00001543  0.08305319398641586 %
0199 : 00000000000000000001111101011011;  % 0x00001f5b  0.12248443067073822 %
019a : 00000000000000000000010000011110;  % 0x0000041e  0.016084278002381325 %
019b : 00000000000000000000111111000000;  % 0x00000fc0  0.06151996925473213 %
019c : 11111111111111111111000000001100;  % 0xfffff00c  -0.06230990216135979 %
019d : 11111111111111111111101001011101;  % 0xfffffa5d  -0.022011008113622665 %
019e : 11111111111111111110000110000011;  % 0xffffe183  -0.11909841746091843 %
019f : 11111111111111111111000111010010;  % 0xfffff1d2  -0.055396243929862976 %
01a0 : 11111111111111111111110100110100;  % 0xfffffd34  -0.010925903916358948 %
01a1 : 00000000000000000000110010011101;  % 0x00000c9d  0.04927477613091469 %
01a2 : 11111111111111111111010101101111;  % 0xfffff56f  -0.041275955736637115 %
01a3 : 00000000000000000001000001101111;  % 0x0000106f  0.06419071555137634 %
01a4 : 00000000000000000000111010100101;  % 0x00000ea5  0.05719836801290512 %
01a5 : 11111111111111111111001111000111;  % 0xfffff3c7  -0.04774271324276924 %
01a6 : 11111111111111111111010011110000;  % 0xfffff4f0  -0.04321564733982086 %
01a7 : 11111111111111111110111101011101;  % 0xffffef5d  -0.06498411297798157 %
01a8 : 11111111111111111111101101000000;  % 0xfffffb40  -0.01854846253991127 %
01a9 : 00000000000000000000100111001100;  % 0x000009cc  0.038267653435468674 %
01aa : 00000000000000000000010001100110;  % 0x00000466  0.017185451462864876 %
01ab : 00000000000000000001000111100011;  % 0x000011e3  0.06987471133470535 %
01ac : 00000000000000000001010001101000;  % 0x00001468  0.0797157883644104 %
01ad : 00000000000000000000110110001100;  % 0x00000d8c  0.0529126301407814 %
01ae : 00000000000000000000100001100110;  % 0x00000866  0.032802876085042953 %
01af : 00000000000000000000111000110011;  % 0x00000e33  0.05547245964407921 %
01b0 : 00000000000000000001000011101001;  % 0x000010e9  0.0660531148314476 %
01b1 : 00000000000000000010001010010001;  % 0x00002291  0.13502927124500275 %
01b2 : 00000000000000000010100001000101;  % 0x00002845  0.15729735791683197 %
01b3 : 00000000000000000001000000001011;  % 0x0000100b  0.06267309188842773 %
01b4 : 00000000000000000001100000100111;  % 0x00001827  0.09434061497449875 %
01b5 : 00000000000000000000111111111100;  % 0x00000ffc  0.06243974342942238 %
01b6 : 00000000000000000000010100100010;  % 0x00000522  0.0200504083186388 %
01b7 : 11111111111111111111110110101100;  % 0xfffffdac  -0.00909530371427536 %
01b8 : 11111111111111111110000011111010;  % 0xffffe0fa  -0.12117808312177658 %
01b9 : 11111111111111111111011101000010;  % 0xfffff742  -0.03415123373270035 %
01ba : 11111111111111111111000101011010;  % 0xfffff15a  -0.057224053889513016 %
01bb : 11111111111111111110101011100100;  % 0xffffeae4  -0.08245626837015152 %
01bc : 11111111111111111110111010001011;  % 0xffffee8b  -0.06819440424442291 %
01bd : 11111111111111111111110001100100;  % 0xfffffc64  -0.014098504558205605 %
01be : 11111111111111111110110100111101;  % 0xffffed3d  -0.07328173518180847 %
01bf : 00000000000000000001001100000011;  % 0x00001303  0.07426322996616364 %
01c0 : 00000000000000000001001110000110;  % 0x00001386  0.07625819742679596 %
01c1 : 11111111111111111111111011100000;  % 0xfffffee0  -0.004393371753394604 %
01c2 : 11111111111111111111100010100101;  % 0xfffff8a5  -0.02873116172850132 %
01c3 : 11111111111111111110111110000000;  % 0xffffef80  -0.06445440649986267 %
01c4 : 00000000000000000000011000001011;  % 0x0000060b  0.023607714101672173 %
01c5 : 11111111111111111111001100001001;  % 0xfffff309  -0.05064642056822777 %
01c6 : 00000000000000000000110000011010;  % 0x00000c1a  0.047265488654375076 %
01c7 : 00000000000000000000110011000011;  % 0x00000cc3  0.04984615743160248 %
01c8 : 00000000000000000000011010010110;  % 0x00000696  0.025724703446030617 %
01c9 : 00000000000000000000010100011000;  % 0x00000518  0.019890638068318367 %
01ca : 00000000000000000000111010011100;  % 0x00000e9c  0.05706262215971947 %
01cb : 00000000000000000000010011110100;  % 0x000004f4  0.019352858886122704 %
01cc : 00000000000000000001110100101110;  % 0x00001d2e  0.11398990452289581 %
01cd : 00000000000000000011011100110101;  % 0x00003735  0.21565617620944977 %
01ce : 00000000000000000001000100010011;  % 0x00001113  0.06670176982879639 %
01cf : 00000000000000000010011011100011;  % 0x000026e3  0.15189942717552185 %
01d0 : 00000000000000000001110000010110;  % 0x00001c16  0.10971081256866455 %
01d1 : 00000000000000000000110100100011;  % 0x00000d23  0.05132104083895683 %
01d2 : 11111111111111111111111000011110;  % 0xfffffe1e  -0.007359117269515991 %
01d3 : 11111111111111111111000010011111;  % 0xfffff09f  -0.06006871908903122 %
01d4 : 11111111111111111111100110111111;  % 0xfffff9bf  -0.02442275732755661 %
01d5 : 11111111111111111111010111101001;  % 0xfffff5e9  -0.03941454738378525 %
01d6 : 11111111111111111111110000010110;  % 0xfffffc16  -0.015293482691049576 %
01d7 : 11111111111111111110111001101100;  % 0xffffee6c  -0.06866791099309921 %
01d8 : 11111111111111111110111111111001;  % 0xffffeff9  -0.06260666251182556 %
01d9 : 11111111111111111111010000000001;  % 0xfffff401  -0.04686471447348595 %
01da : 00000000000000000000001111100100;  % 0x000003e4  0.015193648636341095 %
01db : 11111111111111111111101000111101;  % 0xfffffa3d  -0.02251117303967476 %
01dc : 11111111111111111110110001000010;  % 0xffffec42  -0.07711311429738998 %
01dd : 00000000000000000000010010001000;  % 0x00000488  0.01769690215587616 %
01de : 00000000000000000000110111001010;  % 0x00000dca  0.05385970324277878 %
01df : 00000000000000000000000011111110;  % 0x000000fe  0.0038694299291819334 %
01e0 : 11111111111111111111011010100101;  % 0xfffff6a5  -0.03653951361775398 %
01e1 : 00000000000000000000101010111000;  % 0x00000ab8  0.04186839610338211 %
01e2 : 11111111111111111110110001101000;  % 0xffffec68  -0.0765312910079956 %
01e3 : 00000000000000000000011100011111;  % 0x0000071f  0.027818836271762848 %
01e4 : 00000000000000000000100010011110;  % 0x0000089e  0.03366541489958763 %
01e5 : 00000000000000000000001000100010;  % 0x00000222  0.008325007744133472 %
01e6 : 11111111111111111111100001000110;  % 0xfffff846  -0.03018639236688614 %
01e7 : 00000000000000000001000000010000;  % 0x00001010  0.06275053322315216 %
01e8 : 00000000000000000000000101001001;  % 0x00000149  0.005022873170673847 %
01e9 : 00000000000000000001001111000110;  % 0x000013c6  0.0772421658039093 %
01ea : 00000000000000000001101100111010;  % 0x00001b3a  0.106350839138031 %
01eb : 00000000000000000000111110110010;  % 0x00000fb2  0.06130710616707802 %
01ec : 00000000000000000000111000110001;  % 0x00000e31  0.05544131621718407 %
01ed : 00000000000000000000000111111111;  % 0x000001ff  0.00779725844040513 %
01ee : 11111111111111111111111100101100;  % 0xffffff2c  -0.0032294495031237602 %
01ef : 11111111111111111110111111110011;  % 0xffffeff3  -0.0626990795135498 %
01f0 : 11111111111111111111110010110100;  % 0xfffffcb4  -0.012878199107944965 %
01f1 : 11111111111111111111011100110110;  % 0xfffff736  -0.034325506538152695 %
01f2 : 11111111111111111111001000010001;  % 0xfffff211  -0.05442629009485245 %
01f3 : 11111111111111111111100000101000;  % 0xfffff828  -0.03063942864537239 %
01f4 : 00000000000000000000000111100001;  % 0x000001e1  0.007335626985877752 %
01f5 : 00000000000000000000000111011110;  % 0x000001de  0.007298646494746208 %
01f6 : 00000000000000000000101110010000;  % 0x00000b90  0.04516447335481644 %
01f7 : 11111111111111111111111110011110;  % 0xffffff9e  -0.0014967635506764054 %
01f8 : 11111111111111111111101110001101;  % 0xfffffb8d  -0.01737571693956852 %
01f9 : 11111111111111111110101010101000;  % 0xffffeaa8  -0.08337435126304626 %
01fa : 11111111111111111110111100111111;  % 0xffffef3f  -0.06544051319360733 %
01fb : 00000000000000000000111110000010;  % 0x00000f82  0.060580529272556305 %
01fc : 11111111111111111110101100100011;  % 0xffffeb23  -0.08150051534175873 %
01fd : 00000000000000000000000000000101;  % 0x00000005  7.335942063946277e-05 %
01fe : 11111111111111111111111000111100;  % 0xfffffe3c  -0.006904423702508211 %
01ff : 11111111111111111110101110111001;  % 0xffffebb9  -0.07921504229307175 %
0200 : 11111111111111111111001010110011;  % 0xfffff2b3  -0.051960885524749756 %
0201 : 11111111111111111111110100101000;  % 0xfffffd28  -0.011110787279903889 %
0202 : 11111111111111111111100110000001;  % 0xfffff981  -0.025378508493304253 %
0203 : 11111111111111111111101000110000;  % 0xfffffa30  -0.022699128836393356 %
0204 : 11111111111111111111001001001111;  % 0xfffff24f  -0.053489018231630325 %
0205 : 00000000000000000000110000101111;  % 0x00000c2f  0.047594282776117325 %
0206 : 11111111111111111111101111100100;  % 0xfffffbe4  -0.016044726595282555 %
0207 : 11111111111111111111000001100110;  % 0xfffff066  -0.060943108052015305 %
0208 : 11111111111111111111000010011010;  % 0xfffff09a  -0.06014931946992874 %
0209 : 11111111111111111110011100111110;  % 0xffffe73e  -0.09670797735452652 %
020a : 11111111111111111111001001011100;  % 0xfffff25c  -0.0532778799533844 %
020b : 11111111111111111111110100110011;  % 0xfffffd33  -0.010933207347989082 %
020c : 11111111111111111111110110011111;  % 0xfffffd9f  -0.009298172779381275 %
020d : 11111111111111111111111000001111;  % 0xfffffe0f  -0.007576718460768461 %
020e : 11111111111111111110101110101111;  % 0xffffebaf  -0.0793609544634819 %
020f : 00000000000000000000001101100110;  % 0x00000366  0.01327761635184288 %
0210 : 11111111111111111110101100110100;  % 0xffffeb34  -0.0812438353896141 %
0211 : 00000000000000000000011001101100;  % 0x0000066c  0.02509268745779991 %
0212 : 00000000000000000001000010001010;  % 0x0000108a  0.06459923833608627 %
0213 : 11111111111111111111010111001001;  % 0xfffff5c9  -0.039903007447719574 %
0214 : 11111111111111111111110011000111;  % 0xfffffcc7  -0.012589124962687492 %
0215 : 00000000000000000000000011000011;  % 0x000000c3  0.0029763493221253157 %
0216 : 00000000000000000001000101111000;  % 0x00001178  0.06823322176933289 %
0217 : 00000000000000000000011000110001;  % 0x00000631  0.024184226989746094 %
0218 : 11111111111111111110010110011111;  % 0xffffe59f  -0.10304418206214905 %
0219 : 11111111111111111111100011000011;  % 0xfffff8c3  -0.02827928401529789 %
021a : 11111111111111111110110010101001;  % 0xffffeca9  -0.07553999871015549 %
021b : 00000000000000000000001010111011;  % 0x000002bb  0.01067102700471878 %
021c : 11111111111111111111011010100100;  % 0xfffff6a4  -0.03656408190727234 %
021d : 11111111111111111111101111111011;  % 0xfffffbfb  -0.01569567434489727 %
021e : 11111111111111111110111100001100;  % 0xffffef0c  -0.0662262961268425 %
021f : 11111111111111111110010000101010;  % 0xffffe42a  -0.10873597115278244 %
0220 : 11111111111111111101110110110001;  % 0xffffddb1  -0.13401590287685394 %
0221 : 11111111111111111110111100001101;  % 0xffffef0d  -0.0662103071808815 %
0222 : 11111111111111111111011110000111;  % 0xfffff787  -0.033099036663770676 %
0223 : 11111111111111111111100100011111;  % 0xfffff91f  -0.026871053501963615 %
0224 : 11111111111111111111111011110110;  % 0xfffffef6  -0.0040580108761787415 %
0225 : 00000000000000000000000110000110;  % 0x00000186  0.005951284896582365 %
0226 : 11111111111111111111110110111101;  % 0xfffffdbd  -0.008837324567139149 %
0227 : 11111111111111111111011010101111;  % 0xfffff6af  -0.03639098256826401 %
0228 : 00000000000000000000100101101111;  % 0x0000096f  0.03685585409402847 %
0229 : 11111111111111111111011111001000;  % 0xfffff7c8  -0.03210682421922684 %
022a : 00000000000000000000001011100000;  % 0x000002e0  0.011234856210649014 %
022b : 11111111111111111111100001010110;  % 0xfffff856  -0.029936958104372025 %
022c : 11111111111111111111010100110100;  % 0xfffff534  -0.04216768965125084 %
022d : 00000000000000000000111111101001;  % 0x00000fe9  0.06214374303817749 %
022e : 00000000000000000000111010110001;  % 0x00000eb1  0.05739029124379158 %
022f : 11111111111111111111010100010000;  % 0xfffff510  -0.04271982982754707 %
0230 : 00000000000000000000101101111111;  % 0x00000b7f  0.04489930719137192 %
0231 : 00000000000000000000110101001100;  % 0x00000d4c  0.05194757878780365 %
0232 : 00000000000000000001001010011101;  % 0x0000129d  0.07271060347557068 %
0233 : 11111111111111111111101001110000;  % 0xfffffa70  -0.021732361987233162 %
0234 : 11111111111111111110000011111101;  % 0xffffe0fd  -0.12114294618368149 %
0235 : 11111111111111111111101010010001;  % 0xfffffa91  -0.02122066728770733 %
0236 : 11111111111111111111010110100110;  % 0xfffff5a6  -0.04043297469615936 %
0237 : 00000000000000000000000101110101;  % 0x00000175  0.005684723611921072 %
0238 : 11111111111111111110011111101101;  % 0xffffe7ed  -0.09404698759317398 %
0239 : 11111111111111111110011000010011;  % 0xffffe613  -0.10127070546150208 %
023a : 11111111111111111111001000111111;  % 0xfffff23f  -0.05372565984725952 %
023b : 11111111111111111110110001100101;  % 0xffffec65  -0.07658516615629196 %
023c : 11111111111111111111010000110110;  % 0xfffff436  -0.046045657247304916 %
023d : 11111111111111111111101100000010;  % 0xfffffb02  -0.019503196701407433 %
023e : 11111111111111111111010011000001;  % 0xfffff4c1  -0.043932221829891205 %
023f : 11111111111111111111101110011110;  % 0xfffffb9e  -0.017126092687249184 %
0240 : 00000000000000000000000111001001;  % 0x000001c9  0.006967481691390276 %
0241 : 00000000000000000000010101100100;  % 0x00000564  0.02105715312063694 %
0242 : 00000000000000000000011010111110;  % 0x000006be  0.026336420327425003 %
0243 : 00000000000000000001000011010111;  % 0x000010d7  0.06578285992145538 %
0244 : 00000000000000000000100101000100;  % 0x00000944  0.036186471581459045 %
0245 : 00000000000000000000111001011000;  % 0x00000e58  0.05603409931063652 %
0246 : 11111111111111111111111011101110;  % 0xfffffeee  -0.0041798860765993595 %
0247 : 00000000000000000000110101110011;  % 0x00000d73  0.05254223570227623 %
0248 : 00000000000000000000001001110101;  % 0x00000275  0.009600645862519741 %
0249 : 00000000000000000000011110010010;  % 0x00000792  0.029578061774373055 %
024a : 11111111111111111110111111000110;  % 0xffffefc6  -0.06338412314653397 %
024b : 11111111111111111111111001101100;  % 0xfffffe6c  -0.006169171538203955 %
024c : 11111111111111111111010100111100;  % 0xfffff53c  -0.04204951599240303 %
024d : 00000000000000000001000111101111;  % 0x000011ef  0.07004846632480621 %
024e : 00000000000000000000010001011101;  % 0x0000045d  0.017046768218278885 %
024f : 11111111111111111110110110001011;  % 0xffffed8b  -0.07209829986095428 %
0250 : 00000000000000000000001101001100;  % 0x0000034c  0.012872296385467052 %
0251 : 00000000000000000000011011101000;  % 0x000006e8  0.026979051530361176 %
0252 : 11111111111111111111011100001110;  % 0xfffff70e  -0.034938666969537735 %
0253 : 00000000000000000000011000111000;  % 0x00000638  0.024298951029777527 %
0254 : 11111111111111111111100101101011;  % 0xfffff96b  -0.025710908696055412 %
0255 : 00000000000000000000100001010111;  % 0x00000857  0.032574012875556946 %
0256 : 11111111111111111111011001111001;  % 0xfffff679  -0.0372181236743927 %
0257 : 11111111111111111111101100000010;  % 0xfffffb02  -0.019500767812132835 %
0258 : 11111111111111111111110101000011;  % 0xfffffd43  -0.010691089555621147 %
0259 : 11111111111111111111010111100001;  % 0xfffff5e1  -0.03953132778406143 %
025a : 11111111111111111111111110100001;  % 0xffffffa1  -0.0014459348749369383 %
025b : 00000000000000000000101110010110;  % 0x00000b96  0.045253921300172806 %
025c : 11111111111111111111001111011000;  % 0xfffff3d8  -0.04748481512069702 %
025d : 00000000000000000000110110111001;  % 0x00000db9  0.05359911546111107 %
025e : 11111111111111111110111101010000;  % 0xffffef50  -0.06519247591495514 %
025f : 11111111111111111111011111110000;  % 0xfffff7f0  -0.0314943827688694 %
0260 : 00000000000000000001100011000011;  % 0x000018c3  0.0967276468873024 %
0261 : 00000000000000000000011101111000;  % 0x00000778  0.029177088290452957 %
0262 : 11111111111111111111110010110000;  % 0xfffffcb0  -0.012942066416144371 %
0263 : 11111111111111111110111110101001;  % 0xffffefa9  -0.06383248418569565 %
0264 : 11111111111111111110111101001111;  % 0xffffef4f  -0.06519660353660583 %
0265 : 00000000000000000000000101010010;  % 0x00000152  0.005160367116332054 %
0266 : 11111111111111111111111110010100;  % 0xffffff94  -0.001646143849939108 %
0267 : 00000000000000000000101101010110;  % 0x00000b56  0.04428022354841232 %
0268 : 00000000000000000000101111100101;  % 0x00000be5  0.046459052711725235 %
0269 : 11111111111111111110101010110011;  % 0xffffeab3  -0.08320531994104385 %
026a : 00000000000000000000111100100111;  % 0x00000f27  0.059191811829805374 %
026b : 00000000000000000001001010010000;  % 0x00001290  0.07250944525003433 %
026c : 00000000000000000000011001100010;  % 0x00000662  0.024932032451033592 %
026d : 00000000000000000000110100011101;  % 0x00000d1d  0.051217637956142426 %
026e : 00000000000000000001001000010110;  % 0x00001216  0.07064703851938248 %
026f : 11111111111111111111111011001000;  % 0xfffffec8  -0.004762309603393078 %
0270 : 00000000000000000000011101110011;  % 0x00000773  0.02909119240939617 %
0271 : 11111111111111111111101101100111;  % 0xfffffb67  -0.017954785376787186 %
0272 : 11111111111111111111010110001101;  % 0xfffff58d  -0.040824729949235916 %
0273 : 00000000000000000001010000001101;  % 0x0000140d  0.07831704616546631 %
0274 : 11111111111111111110111011111101;  % 0xffffeefd  -0.06645102053880692 %
0275 : 11111111111111111111101110101111;  % 0xfffffbaf  -0.01685776561498642 %
0276 : 11111111111111111111101110111001;  % 0xfffffbb9  -0.016713444143533707 %
0277 : 11111111111111111111010011101010;  % 0xfffff4ea  -0.04330214112997055 %
0278 : 11111111111111111111000101100100;  % 0xfffff164  -0.05706629902124405 %
0279 : 00000000000000000000000111101101;  % 0x000001ed  0.007518367376178503 %
027a : 00000000000000000000100001000000;  % 0x00000840  0.032231613993644714 %
027b : 11111111111111111111111111111110;  % 0xfffffffe  -3.061791358049959e-05 %
027c : 11111111111111111111010111011100;  % 0xfffff5dc  -0.039609044790267944 %
027d : 00000000000000000001000100111000;  % 0x00001138  0.06726095825433731 %
027e : 11111111111111111111010111010110;  % 0xfffff5d6  -0.0397026427090168 %
027f : 00000000000000000000001000101101;  % 0x0000022d  0.008498833514750004 %
0280 : 00000000000000000001000100000101;  % 0x00001105  0.0664777010679245 %
0281 : 11111111111111111111010101000000;  % 0xfffff540  -0.04199476167559624 %
0282 : 00000000000000000001001000110010;  % 0x00001232  0.07108074426651001 %
0283 : 00000000000000000000110010000001;  % 0x00000c81  0.04884416610002518 %
0284 : 11111111111111111111011011110001;  % 0xfffff6f1  -0.03538202866911888 %
0285 : 11111111111111111111001111000000;  % 0xfffff3c0  -0.047857362776994705 %
0286 : 00000000000000000000110101100001;  % 0x00000d61  0.05225400626659393 %
0287 : 00000000000000000000111010010010;  % 0x00000e92  0.056916046887636185 %
0288 : 11111111111111111111000111011111;  % 0xfffff1df  -0.055191561579704285 %
0289 : 11111111111111111110101111100101;  % 0xffffebe5  -0.07853216677904129 %
028a : 11111111111111111110111000000000;  % 0xffffee00  -0.0703069344162941 %
028b : 00000000000000000000011011110101;  % 0x000006f5  0.02718057483434677 %
028c : 00000000000000000000101010111111;  % 0x00000abf  0.04198228195309639 %
028d : 00000000000000000000010010011001;  % 0x00000499  0.017955852672457695 %
028e : 11111111111111111111011001111111;  % 0xfffff67f  -0.037121422588825226 %
028f : 11111111111111111110111111110010;  % 0xffffeff2  -0.06270895153284073 %
0290 : 00000000000000000000110101001001;  % 0x00000d49  0.05190182849764824 %
0291 : 00000000000000000000110000101000;  % 0x00000c28  0.047487642616033554 %
0292 : 11111111111111111111100000001110;  % 0xfffff80e  -0.031036898493766785 %
0293 : 00000000000000000000001010111010;  % 0x000002ba  0.0106535404920578 %
0294 : 00000000000000000000000101011100;  % 0x0000015c  0.00531344348564744 %
0295 : 00000000000000000000100101010110;  % 0x00000956  0.03646518662571907 %
0296 : 00000000000000000000100000010110;  % 0x00000816  0.03158332407474518 %
0297 : 00000000000000000000100100000000;  % 0x00000900  0.03515246510505676 %
0298 : 00000000000000000000111110111101;  % 0x00000fbd  0.06148463487625122 %
0299 : 00000000000000000000110101100010;  % 0x00000d62  0.05227886140346527 %
029a : 11111111111111111110110101101101;  % 0xffffed6d  -0.07256270945072174 %
029b : 11111111111111111111100001010111;  % 0xfffff857  -0.029929019510746002 %
029c : 11111111111111111111110101110000;  % 0xfffffd70  -0.010006630793213844 %
029d : 00000000000000000000110101000110;  % 0x00000d46  0.05184891074895859 %
029e : 00000000000000000000111010011100;  % 0x00000e9c  0.05706135183572769 %
029f : 11111111111111111110101000000011;  % 0xffffea03  -0.08588656038045883 %
02a0 : 00000000000000000000001000001011;  % 0x0000020b  0.007983177900314331 %
02a1 : 11111111111111111111010100010111;  % 0xfffff517  -0.04262356832623482 %
02a2 : 00000000000000000001001111101001;  % 0x000013e9  0.07776645570993423 %
02a3 : 11111111111111111111100000101000;  % 0xfffff828  -0.03064175508916378 %
02a4 : 00000000000000000000100110111111;  % 0x000009bf  0.03806745260953903 %
02a5 : 11111111111111111110110011111111;  % 0xffffecff  -0.0742286965250969 %
02a6 : 00000000000000000000010110110100;  % 0x000005b4  0.022281983867287636 %
02a7 : 00000000000000000000011011001011;  % 0x000006cb  0.026538442820310593 %
02a8 : 00000000000000000000000100110011;  % 0x00000133  0.004682691302150488 %
02a9 : 11111111111111111111111110000010;  % 0xffffff82  -0.0019184533739462495 %
02aa : 00000000000000000000101100110011;  % 0x00000b33  0.043754156678915024 %
02ab : 00000000000000000001000000101000;  % 0x00001028  0.06311096251010895 %
02ac : 00000000000000000000001101011001;  % 0x00000359  0.01308245025575161 %
02ad : 00000000000000000000011001001011;  % 0x0000064b  0.024580182507634163 %
02ae : 00000000000000000001000001000101;  % 0x00001045  0.0635581985116005 %
02af : 11111111111111111111101110111011;  % 0xfffffbbb  -0.016671176999807358 %
02b0 : 11111111111111111111010100001101;  % 0xfffff50d  -0.042769964784383774 %
02b1 : 11111111111111111110100111010111;  % 0xffffe9d7  -0.0865652933716774 %
02b2 : 11111111111111111111001101000101;  % 0xfffff345  -0.049726106226444244 %
02b3 : 00000000000000000000101110001010;  % 0x00000b8a  0.04508132487535477 %
02b4 : 11111111111111111111010110011110;  % 0xfffff59e  -0.040553588420152664 %
02b5 : 11111111111111111110101111001110;  % 0xffffebce  -0.0788927972316742 %
02b6 : 11111111111111111111001111000100;  % 0xfffff3c4  -0.047791603952646255 %
02b7 : 00000000000000000000000100001111;  % 0x0000010f  0.0041335588321089745 %
02b8 : 00000000000000000000010001000001;  % 0x00000441  0.016612663865089417 %
02b9 : 11111111111111111111000001101111;  % 0xfffff06f  -0.06080493703484535 %
02ba : 00000000000000000000011000001011;  % 0x0000060b  0.023605404421687126 %
02bb : 00000000000000000000100101111010;  % 0x0000097a  0.03701198846101761 %
02bc : 11111111111111111111000011000110;  % 0xfffff0c6  -0.05948280543088913 %
02bd : 00000000000000000000010111110001;  % 0x000005f1  0.02320476621389389 %
02be : 00000000000000000000111001001001;  % 0x00000e49  0.05580204725265503 %
02bf : 11111111111111111111100001111011;  % 0xfffff87b  -0.029371414333581924 %
02c0 : 11111111111111111110100101111000;  % 0xffffe978  -0.08800648897886276 %
02c1 : 11111111111111111111001101110011;  % 0xfffff373  -0.04901904985308647 %
02c2 : 11111111111111111111110001001111;  % 0xfffffc4f  -0.014417769387364388 %
02c3 : 11111111111111111110111011011100;  % 0xffffeedc  -0.06694988906383514 %
02c4 : 11111111111111111110111110011001;  % 0xffffef99  -0.06406660377979279 %
02c5 : 00000000000000000000010010010010;  % 0x00000492  0.01785174012184143 %
02c6 : 00000000000000000000000100111111;  % 0x0000013f  0.004870619624853134 %
02c7 : 00000000000000000000011100011110;  % 0x0000071e  0.02780572511255741 %
02c8 : 00000000000000000000000011001111;  % 0x000000cf  0.003156093880534172 %
02c9 : 11111111111111111111100100110010;  % 0xfffff932  -0.026577183976769447 %
02ca : 00000000000000000000001101010110;  % 0x00000356  0.013033336028456688 %
02cb : 00000000000000000000101000110100;  % 0x00000a34  0.039862774312496185 %
02cc : 00000000000000000000110011000111;  % 0x00000cc7  0.04991418868303299 %
02cd : 00000000000000000000001000001110;  % 0x0000020e  0.008028482086956501 %
02ce : 11111111111111111111110110101101;  % 0xfffffdad  -0.009071498177945614 %
02cf : 11111111111111111111000000001110;  % 0xfffff00e  -0.062293995171785355 %
02d0 : 11111111111111111110100100110011;  % 0xffffe933  -0.089071124792099 %
02d1 : 11111111111111111110111000001011;  % 0xffffee0b  -0.07014600932598114 %
02d2 : 11111111111111111110001111010011;  % 0xffffe3d3  -0.11006667464971542 %
02d3 : 00000000000000000000110111101011;  % 0x00000deb  0.054363518953323364 %
02d4 : 11111111111111111110101011000011;  % 0xffffeac3  -0.08296888321638107 %
02d5 : 11111111111111111111000010011010;  % 0xfffff09a  -0.06015096232295036 %
02d6 : 00000000000000000000100010010111;  % 0x00000897  0.03354881703853607 %
02d7 : 11111111111111111110110010000001;  % 0xffffec81  -0.0761602371931076 %
02d8 : 11111111111111111110111000111010;  % 0xffffee3a  -0.0694248154759407 %
02d9 : 00000000000000000000111011000110;  % 0x00000ec6  0.057703517377376556 %
02da : 00000000000000000000001001010101;  % 0x00000255  0.009105905890464783 %
02db : 00000000000000000001010100000010;  % 0x00001502  0.08206597715616226 %
02dc : 00000000000000000001000101011001;  % 0x00001159  0.06776813417673111 %
02dd : 11111111111111111110011111001011;  % 0xffffe7cb  -0.0945594385266304 %
02de : 11111111111111111110110011110111;  % 0xffffecf7  -0.07435450702905655 %
02df : 11111111111111111111011111011001;  % 0xfffff7d9  -0.03183787316083908 %
02e0 : 11111111111111111111111001000000;  % 0xfffffe40  -0.006842304486781359 %
02e1 : 11111111111111111111101100110101;  % 0xfffffb35  -0.018723852932453156 %
02e2 : 11111111111111111111111011110100;  % 0xfffffef4  -0.004081957973539829 %
02e3 : 11111111111111111110111100011001;  % 0xffffef19  -0.06601853668689728 %
02e4 : 11111111111111111110110001010011;  % 0xffffec53  -0.07685089856386185 %
02e5 : 11111111111111111111100100110110;  % 0xfffff936  -0.0265198964625597 %
02e6 : 11111111111111111101110000110001;  % 0xffffdc31  -0.13987836241722107 %
02e7 : 11111111111111111111000011001000;  % 0xfffff0c8  -0.05945427343249321 %
02e8 : 11111111111111111101110011001110;  % 0xffffdcce  -0.13747963309288025 %
02e9 : 00000000000000000000000100001001;  % 0x00000109  0.004045236390084028 %
02ea : 11111111111111111110101111011110;  % 0xffffebde  -0.07863914966583252 %
02eb : 11111111111111111110110111000101;  % 0xffffedc5  -0.07120528817176819 %
02ec : 00000000000000000000011011111100;  % 0x000006fc  0.02728857845067978 %
02ed : 00000000000000000000111100100101;  % 0x00000f25  0.05915433540940285 %
02ee : 00000000000000000000000010101000;  % 0x000000a8  0.002561293076723814 %
02ef : 00000000000000000000001010011101;  % 0x0000029d  0.010211067274212837 %
02f0 : 11111111111111111110110011001111;  % 0xffffeccf  -0.07495883107185364 %
02f1 : 11111111111111111110101001110011;  % 0xffffea73  -0.0841820016503334 %
02f2 : 00000000000000000000011011011000;  % 0x000006d8  0.026739612221717834 %
02f3 : 00000000000000000000001001010011;  % 0x00000253  0.009076140820980072 %
02f4 : 00000000000000000000111010100010;  % 0x00000ea2  0.05716530233621597 %
02f5 : 00000000000000000000010010010000;  % 0x00000490  0.017816774547100067 %
02f6 : 11111111111111111111110111010101;  % 0xfffffdd5  -0.008472368121147156 %
02f7 : 00000000000000000000001110100101;  % 0x000003a5  0.014236651360988617 %
02f8 : 00000000000000000001000111000010;  % 0x000011c2  0.06936805695295334 %
02f9 : 00000000000000000000111011100111;  % 0x00000ee7  0.05820611119270325 %
02fa : 11111111111111111111001101001100;  % 0xfffff34c  -0.04962620511651039 %
02fb : 00000000000000000000101110011001;  % 0x00000b99  0.045296065509319305 %
02fc : 00000000000000000001010111001111;  % 0x000015cf  0.08518526703119278 %
02fd : 11111111111111111111111001000101;  % 0xfffffe45  -0.006762445438653231 %
02fe : 11111111111111111110111010100100;  % 0xffffeea4  -0.06781072914600372 %
02ff : 11111111111111111111110001000001;  % 0xfffffc41  -0.014636225998401642 %
0300 : 00000000000000000001000000101000;  % 0x00001028  0.0631084144115448 %
0301 : 00000000000000000000101101100110;  % 0x00000b66  0.044519342482089996 %
0302 : 00000000000000000000111011010001;  % 0x00000ed1  0.057883549481630325 %
0303 : 11111111111111111111101000011111;  % 0xfffffa1f  -0.02296103723347187 %
0304 : 00000000000000000000010111100100;  % 0x000005e4  0.023012133315205574 %
0305 : 00000000000000000000110000000110;  % 0x00000c06  0.04697393253445625 %
0306 : 11111111111111111110110001000110;  % 0xffffec46  -0.07705109566450119 %
0307 : 11111111111111111111100101001111;  % 0xfffff94f  -0.02613297663629055 %
0308 : 00000000000000000000101101110000;  % 0x00000b70  0.04467690363526344 %
0309 : 11111111111111111111110000001011;  % 0xfffffc0b  -0.01545392069965601 %
030a : 00000000000000000000000110001111;  % 0x0000018f  0.006093854084610939 %
030b : 11111111111111111111011010000001;  % 0xfffff681  -0.0371016301214695 %
030c : 00000000000000000000011000101011;  % 0x0000062b  0.024098537862300873 %
030d : 11111111111111111111010100010001;  % 0xfffff511  -0.042710013687610626 %
030e : 11111111111111111111011010110101;  % 0xfffff6b5  -0.036295466125011444 %
030f : 11111111111111111111100111101101;  % 0xfffff9ed  -0.02372574806213379 %
END;
