DEPTH = 10;
WIDTH = 32;
ADDRESS_RADIX = HEX;
DATA_RADIX = BIN;
CONTENT
BEGIN
0000 : 00000000000000000000111111110000;  % 0x00000ff0  0.062253542 %
0001 : 11111111111111111110101100011111;  % 0xffffeb1f  -0.081553265 %
0002 : 00000000000000000000001000110000;  % 0x00000230  0.008541629 %
0003 : 00000000000000000000110100110101;  % 0x00000d35  0.051597364 %
0004 : 11111111111111111111111000111100;  % 0xfffffe3c  -0.0068979263 %
0005 : 11111111111111111111011111101011;  % 0xfffff7eb  -0.031564534 %
0006 : 00000000000000000000011110001111;  % 0x0000078f  0.029531673 %
0007 : 00000000000000000001010110001001;  % 0x00001589  0.0841242 %
0008 : 00000000000000000001001100111001;  % 0x00001339  0.07508852 %
0009 : 11111111111111111111001101111111;  % 0xfffff37f  -0.0488377 %
END;
