11111111111111111110111100100100
11111111111111111111111000111100
11111111111111111110110101010101
11111111111111111111000010100000
00000000000000000000010101010110
11111111111111111110111110011110
11111111111111111111001000110100
11111111111111111111010100010111
11111111111111111110110011000101
00000000000000000000000011000001
00000000000000000001001010010111
11111111111111111111010000000001
00000000000000000001010100001001
00000000000000000001011000101101
00000000000000000000011001000000
00000000000000000001010110111101
11111111111111111111110010000110
00000000000000000000101111010100
11111111111111111111101100100101
11111111111111111111010000010110
11111111111111111111011001001011
00000000000000000001010110011101
11111111111111111111001000101110
11111111111111111111000001110100
00000000000000000000110011100010
00000000000000000000000101100100
00000000000000000000011111011101
00000000000000000001001100110001
00000000000000000000100100001011
11111111111111111111100001111100
11111111111111111111000000101011
11111111111111111111100110011111
00000000000000000001000111011001
00000000000000000000000100101110
11111111111111111111000001110011
11111111111111111111011110001001
11111111111111111111111110101001
00000000000000000001000001001111
00000000000000000000101000010101
00000000000000000000111110010101
00000000000000000001000100101011
00000000000000000000111010010010
00000000000000000000101010000001
00000000000000000000111100111110
00000000000000000000111101000101
00000000000000000000011101100001
11111111111111111110111110101001
11111111111111111111011001011110
00000000000000000000001101001000
00000000000000000000010111111101
00000000000000000000111000100110
00000000000000000001010000110001
00000000000000000000111111101010
00000000000000000001010011100010
11111111111111111111111100011010
00000000000000000000000010001101
11111111111111111110110101111011
00000000000000000000011000011110
00000000000000000000111111100010
00000000000000000000110100010010
11111111111111111111000110011011
00000000000000000000010110110100
00000000000000000000101110001011
11111111111111111111010100010001
11111111111111111111110100110010
11111111111111111110111001110000
11111111111111111110101000001000
11111111111111111110101000110111
00000000000000000000011000101001
11111111111111111111111010101011
11111111111111111111111011010000
11111111111111111111110101010011
11111111111111111111010110010000
11111111111111111111100110011001
00000000000000000000011101110000
00000000000000000000001100010010
11111111111111111111101000110010
00000000000000000000110111010010
11111111111111111110110111010011
00000000000000000000100001100111
11111111111111111111000000000111
11111111111111111111011000110001
11111111111111111110110110111111
11111111111111111110110100001100
11111111111111111111001011100010
11111111111111111111000111101000
00000000000000000000000011101101
00000000000000000001010101011011
11111111111111111111001001100101
00000000000000000000000111111001
11111111111111111111101010111001
11111111111111111110100110101100
00000000000000000000110111010101
11111111111111111111010110011011
11111111111111111111100101111111
11111111111111111111000100000111
00000000000000000000000101011011
00000000000000000000101100011111
00000000000000000000010001001000
00000000000000000000111011100101
00000000000000000000001011111010
11111111111111111111000010100101
00000000000000000000010010111111
11111111111111111111110010111111
00000000000000000000011100100110
00000000000000000000101000111000
00000000000000000000111110110100
11111111111111111111101100111000
00000000000000000001001101111111
11111111111111111111101010010100
11111111111111111110101110110010
00000000000000000000011100101101
00000000000000000000100111000011
11111111111111111111010100101101
00000000000000000000110100000110
11111111111111111111001010011010
11111111111111111111111100000111
11111111111111111111000111001111
11111111111111111111100010010001
00000000000000000000001101110010
11111111111111111111101001001100
00000000000000000000010100110100
00000000000000000000110010100000
00000000000000000000000001111100
11111111111111111111101011011100
11111111111111111111100100011111
11111111111111111111011101100010
00000000000000000000100100100010
11111111111111111111110011110011
00000000000000000000100101100001
11111111111111111111011000111100
11111111111111111111100101001010
00000000000000000000001011001010
11111111111111111111111001100111
11111111111111111111010011001100
00000000000000000000101101000101
11111111111111111110101100110110
11111111111111111111101111100101
00000000000000000000101010001110
11111111111111111111110001010101
11111111111111111111111010101110
00000000000000000001000111101010
00000000000000000000010100010011
00000000000000000001000101010001
11111111111111111111000100110001
00000000000000000000000110100110
11111111111111111110110000010101
00000000000000000000010011111011
11111111111111111111000010101011
11111111111111111111100100010110
11111111111111111111101001010001
11111111111111111111110010111111
11111111111111111111001111100001
11111111111111111111101110100111
00000000000000000000011111001001
00000000000000000000000111100100
00000000000000000000000100000010
00000000000000000001011101110111
00000000000000000000110010000101
00000000000000000001000011011110
11111111111111111111000111111001
00000000000000000000100111000101
11111111111111111111011100111101
00000000000000000001000000100111
00000000000000000000011101001011
11111111111111111111010101100110
00000000000000000000101010101011
11111111111111111110111011110110
00000000000000000000010010001010
00000000000000000000111101000110
00000000000000000000000010010101
11111111111111111111010100010001
00000000000000000000000011010010
00000000000000000000110100000010
00000000000000000000100011100001
11111111111111111111100111000010
00000000000000000000110000011100
00000000000000000000011001101101
11111111111111111111000000000000
00000000000000000000101111000101
11111111111111111110010110000100
00000000000000000000000101100011
11111111111111111111011000111111
11111111111111111111101111111000
00000000000000000000001010110110
00000000000000000000110001101000
11111111111111111111111110011101
11111111111111111111101110011101
00000000000000000000001110100001
00000000000000000000001100101101
00000000000000000001111001000101
00000000000000000000011111111100
11111111111111111111011011000010
00000000000000000000011101111010
00000000000000000000111110011101
00000000000000000000111000110100
00000000000000000000110000001111
11111111111111111111010001000010
00000000000000000000111011100001
00000000000000000000010100010000
11111111111111111110111111010000
00000000000000000001010001000110
00000000000000000001010000000011
11111111111111111111010011111110
11111111111111111110101000011010
00000000000000000000000110111110
00000000000000000000110101010100
11111111111111111111111000011000
11111111111111111111000100101111
11111111111111111111111011100001
11111111111111111111011010111001
11111111111111111110010101111000
00000000000000000000001111100111
00000000000000000000100011111010
00000000000000000000110001000110
11111111111111111111111110001110
11111111111111111111100010100100
00000000000000000000011110001001
00000000000000000001000110101000
00000000000000000000111110110000
00000000000000000001001000001111
11111111111111111111010111101010
11111111111111111111000000111011
11111111111111111111000101001111
11111111111111111111001001110010
00000000000000000000010011101111
00000000000000000000000000100100
00000000000000000001100010010110
11111111111111111111101100101101
11111111111111111111110101000001
00000000000000000000100110001010
00000000000000000000000011011000
00000000000000000000011111101000
00000000000000000000111001111011
00000000000000000000000111000100
11111111111111111111011010011011
00000000000000000000110101000111
11111111111111111111000001001100
00000000000000000000000000110001
00000000000000000000010001011001
00000000000000000001010101100000
00000000000000000000111001100110
00000000000000000000011111110101
00000000000000000000110000001000
00000000000000000000110011000010
11111111111111111111011110010011
11111111111111111111111011100000
00000000000000000000101000100011
11111111111111111111011110011110
00000000000000000000101111011010
11111111111111111111111110011101
00000000000000000001000110000001
00000000000000000000110101000000
11111111111111111111100011111110
11111111111111111111000011111101
00000000000000000001010001000100
00000000000000000000001101100101
00000000000000000000111100110000
11111111111111111111010001101011
11111111111111111111101101101110
11111111111111111111000110011110
11111111111111111110110000100100
00000000000000000001000011101110
11111111111111111110011010010011
00000000000000000000001110011011
00000000000000000000010000011010
11111111111111111110010001011011
11111111111111111111000100100011
00000000000000000001010110010100
00000000000000000000011110110110
00000000000000000000111100100001
00000000000000000000011011100010
00000000000000000000001111110000
00000000000000000000010010011100
11111111111111111111000001010100
00000000000000000000111000100000
11111111111111111111111101110001
11111111111111111110000100010001
11111111111111111110111100010000
11111111111111111111111110111101
11111111111111111111100000000001
11111111111111111111000110010011
11111111111111111111100101110100
11111111111111111110111010010101
11111111111111111111100100101101
00000000000000000000010111010010
11111111111111111111000011100101
11111111111111111111000101000110
11111111111111111111011001000100
11111111111111111111111011110100
11111111111111111111001010100110
11111111111111111111110010011111
11111111111111111111101100110011
00000000000000000000001010010110
11111111111111111101101001001100
11111111111111111111101011110000
00000000000000000000111000100001
00000000000000000000110000000000
11111111111111111111110100101000
00000000000000000000011100010010
00000000000000000000001100101000
00000000000000000000100011111000
00000000000000000000100010001010
11111111111111111110110010011111
11111111111111111110110001010011
11111111111111111110000101111101
00000000000000000000100000001001
11111111111111111110110011000101
00000000000000000001010111110000
00000000000000000000011100100101
00000000000000000000111100110011
11111111111111111111101100011111
11111111111111111111001000000100
11111111111111111101111010001111
11111111111111111110111110010111
00000000000000000000000101001100
00000000000000000000011110111001
11111111111111111111110100100011
00000000000000000000010001010010
00000000000000000000000110100000
11111111111111111111010001100001
11111111111111111111110011001100
11111111111111111101111000000100
11111111111111111110010100000110
00000000000000000000100011101100
11111111111111111110111100110001
11111111111111111111000001111100
00000000000000000000000101110101
00000000000000000000000100010110
11111111111111111111011111010010
00000000000000000000100001110111
11111111111111111111011000101110
11111111111111111111011011101011
00000000000000000000001100100011
11111111111111111111100111101110
11111111111111111111110000011010
00000000000000000000001001101110
11111111111111111111111111101100
00000000000000000000101101111001
00000000000000000001001100111100
11111111111111111111001101001100
11111111111111111111111100110111
00000000000000000000000111101011
11111111111111111110110111000111
11111111111111111111100011100100
11111111111111111111110011010100
00000000000000000001000101100110
00000000000000000001011000110101
00000000000000000001101110010110
11111111111111111111111110010100
11111111111111111101011100010100
11111111111111111101111010000101
11111111111111111111110101001110
11111111111111111111100110111110
11111111111111111111100101100111
11111111111111111111000110001010
11111111111111111111101001111011
11111111111111111110011001101101
00000000000000000000001111111111
00000000000000000000001100100111
11111111111111111111111101000101
00000000000000000000001001100100
11111111111111111111101000101100
11111111111111111111000001001000
00000000000000000000000001000111
11111111111111111111111011110001
11111111111111111111010100101110
00000000000000000000101111001101
11111111111111111110110110001111
11111111111111111111001010111111
00000000000000000001101001111110
00000000000000000000111011101100
00000000000000000000110001110010
00000000000000000001010010011001
00000000000000000001100010100011
00000000000000000001100100000111
00000000000000000001011101000110
11111111111111111111011010101011
11111111111111111110110000110110
11111111111111111110110100101101
11111111111111111111000100000010
11111111111111111111011101001010
00000000000000000000000010000000
11111111111111111111000110111101
11111111111111111110011011111010
11111111111111111111111110111000
11111111111111111111110010100100
00000000000000000010000111001010
00000000000000000001011100110110
00000000000000000000001100100111
00000000000000000000110110111110
11111111111111111110101011000111
11111111111111111110110110001101
00000000000000000001001111100010
00000000000000000000000110111010
00000000000000000000010110111000
11111111111111111110101001000000
00000000000000000001001110111110
00000000000000000001111101100010
00000000000000000010111101000110
00000000000000000001110010000101
00000000000000000001101110001100
00000000000000000000011010101011
00000000000000000010010110111101
00000000000000000001011101000000
00000000000000000000011000100000
11111111111111111101100001001101
11111111111111111111001100100101
11111111111111111111000000001110
00000000000000000001011110000100
11111111111111111111011111000100
11111111111111111111001100001101
11111111111111111111100010111110
00000000000000000000011100111001
11111111111111111111010011000100
00000000000000000000010100101100
00000000000000000000110111000101
00000000000000000001100000101110
11111111111111111111110100001011
00000000000000000001001110101101
11111111111111111111100101011000
11111111111111111110101101110000
00000000000000000001001100000110
11111111111111111111101101110100
00000000000000000000111110100101
00000000000000000001101000111000
00000000000000000000111000111001
00000000000000000001100001000001
00000000000000000001001100011110
00000000000000000001111010101110
00000000000000000001110011011101
00000000000000000001001001100100
00000000000000000010000001110000
11111111111111111111010010011101
11111111111111111110000010110010
11111111111111111111110001110010
11111111111111111111011011001101
00000000000000000000100100000011
00000000000000000000110000010110
00000000000000000000111100111011
00000000000000000000010010010101
00000000000000000001000001000000
00000000000000000000000000111010
00000000000000000010100011000100
00000000000000000000011100010100
11111111111111111111000010100100
11111111111111111111011110110011
00000000000000000000001110101011
11111111111111111110101011101011
00000000000000000000010111111011
11111111111111111111111110001111
11111111111111111111000110100111
00000000000000000000100111011101
00000000000000000000111011011100
00000000000000000000111101001001
00000000000000000001000111010011
00000000000000000001000011100011
00000000000000000000101100111111
00000000000000000000001101111111
00000000000000000001010111001101
00000000000000000000010100100000
11111111111111111100111100100100
11111111111111111111110111000101
00000000000000000001010101111111
00000000000000000000010110110110
00000000000000000001010110110010
00000000000000000000111110001000
00000000000000000000000100111101
00000000000000000001100111011110
00000000000000000010000101011001
11111111111111111111111011011001
00000000000000000000111000100000
00000000000000000000000001100101
11111111111111111111110111001110
11111111111111111110111000000110
00000000000000000000010100010000
00000000000000000001001101110110
00000000000000000000111111100001
11111111111111111111010011101011
11111111111111111111101011010000
00000000000000000000001111011010
00000000000000000000001001001000
00000000000000000000011100010110
00000000000000000000110001010001
00000000000000000000001110110000
00000000000000000000011000010111
00000000000000000001110001100101
00000000000000000000100100011101
11111111111111111111001010010101
11111111111111111101110101000010
11111111111111111111101101110010
00000000000000000000100000010011
00000000000000000000011010110011
00000000000000000000110110110000
11111111111111111111110111110011
00000000000000000001000101001110
00000000000000000001001000100100
00000000000000000000000110100001
00000000000000000001101100011001
00000000000000000000010111111000
00000000000000000001001001110100
11111111111111111110110011101101
11111111111111111110101111000001
00000000000000000000101110000100
00000000000000000001001011010110
00000000000000000001000111111000
00000000000000000000110100100001
11111111111111111111011111010001
00000000000000000000011111010001
00000000000000000000011101110011
00000000000000000000111001011000
11111111111111111111111000100100
00000000000000000001000101000111
11111111111111111111101111110001
11111111111111111111111001011101
11111111111111111110001101011001
11111111111111111110100111110001
11111111111111111110000001010110
11111111111111111110010100100110
11111111111111111111101011010011
00000000000000000000011100001010
00000000000000000000000001100000
11111111111111111111111111011111
00000000000000000000010001101101
11111111111111111111101111000101
00000000000000000000000111100101
00000000000000000000011100001110
11111111111111111110111110111000
11111111111111111111100010000111
11111111111111111111010110100100
00000000000000000001001110111010
11111111111111111110111001110101
00000000000000000000100000011011
11111111111111111111001011100101
00000000000000000000101101110110
11111111111111111111011110010001
00000000000000000000010011011000
00000000000000000000101101100011
11111111111111111111101111010010
11111111111111111111111100111100
00000000000000000000101100100000
11111111111111111111000010111101
11111111111111111111100111011111
11111111111111111111111010111101
11111111111111111110111101001000
11111111111111111110101101101100
00000000000000000000001101001000
11111111111111111111011110101100
11111111111111111111110000110100
00000000000000000000110111010100
11111111111111111111101010000101
11111111111111111111010001001001
00000000000000000001100100110100
00000000000000000000010001110011
00000000000000000001100101101010
11111111111111111111110100101101
00000000000000000000101010010011
00000000000000000000110010111111
11111111111111111110111010011001
11111111111111111111011000001011
00000000000000000000110000000000
11111111111111111110110011100110
00000000000000000001001101001111
11111111111111111111011011000101
11111111111111111111100110000101
00000000000000000000101011110001
00000000000000000000001000011010
00000000000000000000101011000011
11111111111111111111110101000100
00000000000000000000000100101110
00000000000000000000111100111000
11111111111111111111001000010011
00000000000000000000010010110000
11111111111111111111011110101000
11111111111111111111101001110010
00000000000000000000100000111110
00000000000000000000100100011110
00000000000000000000001010000011
00000000000000000000111000010010
00000000000000000000011010001000
00000000000000000000011001100101
00000000000000000001011010110110
00000000000000000000011010011100
11111111111111111110101011011010
11111111111111111110000111110000
11111111111111111110111010000110
00000000000000000000110110000001
11111111111111111111110001100010
00000000000000000001001011010010
11111111111111111111110010101110
00000000000000000000010010100000
00000000000000000001000000101100
11111111111111111111111010011111
00000000000000000000001100001001
11111111111111111111001110111001
11111111111111111110110110011010
00000000000000000000000000101110
11111111111111111111110100100000
00000000000000000000100001101010
00000000000000000000101110100011
00000000000000000001001001100111
11111111111111111111100001100110
11111111111111111111110110000100
11111111111111111111110101101111
00000000000000000000001101011100
11111111111111111110111110111001
11111111111111111111001000110101
11111111111111111111000111101101
11111111111111111111110000011001
11111111111111111111011010001100
11111111111111111111101011101100
00000000000000000000011010000100
11111111111111111110001111100110
11111111111111111111111001010100
00000000000000000001001111000111
00000000000000000000111011100111
00000000000000000000111100011001
11111111111111111111011011111101
11111111111111111111100001011101
11111111111111111111010111100000
11111111111111111110101100000101
11111111111111111111111111100110
00000000000000000000001110010111
00000000000000000000100100010001
00000000000000000001010100101000
11111111111111111111110010101000
11111111111111111111111110010111
00000000000000000000110100101011
11111111111111111111111101000011
00000000000000000001011000001010
00000000000000000000010100111000
11111111111111111111110110101000
00000000000000000000000111010100
00000000000000000000001001011111
11111111111111111111010101001100
00000000000000000000110110000010
11111111111111111111111000110001
00000000000000000000111011100010
11111111111111111110101100111110
11111111111111111110110101111100
00000000000000000000101100100001
11111111111111111111010010011010
11111111111111111110101000000010
11111111111111111110111100000001
00000000000000000000100001011001
00000000000000000000100010001110
00000000000000000000010111101001
11111111111111111111110000010010
00000000000000000000010100111000
11111111111111111110111011110011
00000000000000000001101101011010
00000000000000000000011010000101
00000000000000000001111010110010
00000000000000000000011011101011
00000000000000000001100011011010
00000000000000000000100110011010
00000000000000000000001100101111
00000000000000000001000001110100
00000000000000000000110111101110
00000000000000000000111101000001
00000000000000000000100111101010
00000000000000000000011011010000
00000000000000000000111101101010
11111111111111111111100110110110
11111111111111111110101000011001
00000000000000000000011001001000
11111111111111111110101010111100
00000000000000000000001110110000
11111111111111111110111111011011
11111111111111111111100110110011
11111111111111111111110001100010
11111111111111111111101000011001
11111111111111111111100011011101
00000000000000000000101101010111
11111111111111111110110101010001
11111111111111111111001100101100
00000000000000000000111111110110
11111111111111111111110000011000
00000000000000000000011110000111
00000000000000000000100101100101
11111111111111111110111110001110
00000000000000000000010001000010
11111111111111111111100101001001
00000000000000000000100011000010
11111111111111111111110000110010
00000000000000000000001111100101
00000000000000000000000100101011
11111111111111111111111111111010
11111111111111111110101010011000
00000000000000000000010110011010
11111111111111111111101111010001
11111111111111111110001000011100
11111111111111111110111011101101
11111111111111111110101111101111
00000000000000000000100000100110
11111111111111111111100000010110
00000000000000000000101110000010
11111111111111111111000010110101
11111111111111111110111001001010
11111111111111111111100101101011
00000000000000000001011000000000
00000000000000000000101100001001
00000000000000000000101010001111
11111111111111111110111110000010
11111111111111111111010110010000
11111111111111111111001001110010
11111111111111111111101001000110
11111111111111111110101101000100
11111111111111111111011110101100
11111111111111111101111011011100
11111111111111111110001011111101
11111111111111111110000011001111
11111111111111111101001111010000
11111111111111111110100110100011
11111111111111111101001111101101
11111111111111111110110010010101
11111111111111111110011001010100
11111111111111111110010111010110
11111111111111111110011110111001
11111111111111111110001110010110
11111111111111111101110010000011
11111111111111111111000111110111
11111111111111111111011110111111
11111111111111111110010111110011
00000000000000000000101001011000
00000000000000000000111110110100
00000000000000000000001101110111
11111111111111111111111100010100
00000000000000000000001010110001
11111111111111111111110010110011
11111111111111111111011011011111
11111111111111111110110000111101
00000000000000000000000100000101
11111111111111111110100001001100
11111111111111111111010000000000
00000000000000000000000101011001
00000000000000000000100000111111
11111111111111111101110111010110
11111111111111111111110100001000
11111111111111111101101001001101
11111111111111111110001100010110
11111111111111111111100110011110
11111111111111111101100100000110
11111111111111111111001000010001
00000000000000000000001111101001
11111111111111111110011101000111
11111111111111111111100010100111
11111111111111111110010110001001
00000000000000000000011101101101
11111111111111111110111000101010
11111111111111111110100101111001
00000000000000000000110011111000
11111111111111111111101010010110
11111111111111111110110101110011
00000000000000000000000000001101
11111111111111111110110111010111
00000000000000000000000010110001
00000000000000000000100010101010
00000000000000000001000011100100
00000000000000000000000100011101
00000000000000000000100111010111
00000000000000000000001100100111
00000000000000000000100111000000
11111111111111111111101101001100
11111111111111111111010100010110
11111111111111111110111010011101
11111111111111111111100100010100
00000000000000000000101001001100
11111111111111111110110111001110
11111111111111111111101000100100
11111111111111111111001001101010
00000000000000000000111010100100
00000000000000000000001010011000
11111111111111111111000001010101
11111111111111111111011101111001
11111111111111111111110011000101
11111111111111111111100101100000
00000000000000000001001000100111
00000000000000000001001011011000
11111111111111111111010000010110
11111111111111111111100000011101
11111111111111111111100011011100
11111111111111111111010010011001
00000000000000000001010110101000
