DEPTH = 10;
WIDTH = 32;
ADDRESS_RADIX = HEX;
DATA_RADIX = BIN;
CONTENT
BEGIN
0000 : 11111111111111111111100000000101;  % 0xfffff805  -0.031171557 %
0001 : 11111111111111111111000000101111;  % 0xfffff02f  -0.061779607 %
0002 : 11111111111111111111001011100010;  % 0xfffff2e2  -0.051243 %
0003 : 11111111111111111110111101110010;  % 0xffffef72  -0.06466694 %
0004 : 00000000000000000000000011000001;  % 0x000000c1  0.0029428601 %
0005 : 00000000000000000001000011010100;  % 0x000010d4  0.065740235 %
0006 : 11111111111111111111001010101110;  % 0xfffff2ae  -0.052025866 %
0007 : 00000000000000000000010110010110;  % 0x00000596  0.02182731 %
0008 : 11111111111111111111100011000010;  % 0xfffff8c2  -0.028285258 %
0009 : 11111111111111111110110111110001;  % 0xffffedf1  -0.07054729 %
END;
