00000000000000000000110000100101
11111111111111111110101100011111
00000000000000000000000011000001
00000000000000000000010111111101
00000000000000000000000010101101
11111111111111111111000100100101
11111111111111111111010101001000
00000000000000000000001001010111
00000000000000000000010001000110
11111111111111111111000000101111
11111111111111111110110010111011
00000000000000000000010001011010
11111111111111111110101010011111
00000000000000000000111100100100
00000000000000000000011101111000
00000000000000000001010110010001
00000000000000000000001010011001
00000000000000000001001011010110
00000000000000000000010111101100
11111111111111111111111001000111
11111111111111111111001111101000
11111111111111111111011101101001
11111111111111111111000100011111
11111111111111111111001101011101
11111111111111111111111011001010
00000000000000000000010100101110
00000000000000000000010000110111
11111111111111111110110010010101
00000000000000000000000011101111
00000000000000000000111000111111
00000000000000000000001010101111
00000000000000000000101101001011
11111111111111111111010101110110
00000000000000000001010110101011
11111111111111111110100100111011
11111111111111111110111011100110
11111111111111111111001000010111
11111111111111111111000100110011
00000000000000000000010001000101
11111111111111111110100001001000
11111111111111111111111111011110
11111111111111111111111001101000
00000000000000000000010000011110
00000000000000000000000000000100
11111111111111111111110000101010
00000000000000000000010101111111
11111111111111111110101001100000
11111111111111111111011010010101
00000000000000000000111000110100
11111111111111111111011001011010
11111111111111111110101011111101
11111111111111111111101011010000
11111111111111111110110010100000
00000000000000000000110001111101
11111111111111111111011110011110
11111111111111111111101001111000
00000000000000000001000111100010
00000000000000000000001100100101
00000000000000000001000111101010
00000000000000000000010000000111
11111111111111111110110100011100
00000000000000000000100011001110
00000000000000000001010000111000
11111111111111111110111110110000
11111111111111111111001000000010
11111111111111111111011111100001
11111111111111111111000001011100
00000000000000000000100101111010
11111111111111111110000110111111
11111111111111111111011110100110
00000000000000000000000111101001
11111111111111111111111101111001
11111111111111111110100010000100
00000000000000000000011011110111
11111111111111111111100011111010
00000000000000000001010011001001
11111111111111111110101000101101
11111111111111111110110001011101
00000000000000000000000111001010
00000000000000000000101011110101
00000000000000000000110001001011
00000000000000000000111011000000
00000000000000000000101011111010
00000000000000000000111010101110
11111111111111111110110101001100
11111111111111111111010010111011
11111111111111111111001011001100
00000000000000000000110000111011
00000000000000000000110000110100
11111111111111111111111100110111
00000000000000000000000001000001
00000000000000000000011001111101
11111111111111111110100100100001
11111111111111111111100001011001
11111111111111111110010000011111
11111111111111111111101101010011
11111111111111111101100010010111
11111111111111111101110111001011
11111111111111111110000100001110
11111111111111111110010000011101
00000000000000000000000101101001
11111111111111111111100010101111
11111111111111111111110110011011
11111111111111111111100111011011
00000000000000000000101111010010
11111111111111111111111101110011
11111111111111111111011010101000
00000000000000000000001111110000
00000000000000000001010010011101
00000000000000000001001011101110
11111111111111111111001100101101
11111111111111111110110110100000
11111111111111111111011111111111
00000000000000000000110000101001
00000000000000000000000111001101
11111111111111111111111000010101
00000000000000000000110110000110
11111111111111111111001111100001
11111111111111111111011000011111
11111111111111111110000110000010
11111111111111111110011001100001
11111111111111111110000011011110
11111111111111111110000010001111
11111111111111111111110011101001
11111111111111111101011110001010
11111111111111111110000101010000
11111111111111111101101100011010
00000000000000000000011010100111
11111111111111111110011111111000
00000000000000000000000010101101
00000000000000000001000000101010
11111111111111111111010001000101
11111111111111111110110101000000
00000000000000000000110010111010
00000000000000000000110011001010
11111111111111111111000000010110
11111111111111111111110110000010
00000000000000000000101001010011
00000000000000000000111111100100
11111111111111111111101010010110
11111111111111111110110001000001
11111111111111111111010000101100
00000000000000000001010100111011
11111111111111111111001001001010
11111111111111111110101111111101
00000000000000000001000110101111
00000000000000000000000001000011
11111111111111111111000001110000
00000000000000000001001001010111
00000000000000000000001100010100
11111111111111111111101010000010
11111111111111111111111011011000
00000000000000000001000111001000
00000000000000000000011101111101
00000000000000000000000100111110
11111111111111111111010010001111
11111111111111111111110010010111
11111111111111111111110011011101
11111111111111111111111011111110
11111111111111111111100101111110
11111111111111111111111100111001
11111111111111111101111110001001
11111111111111111111110001110100
00000000000000000001001100101001
11111111111111111111110000011011
11111111111111111111100010011100
11111111111111111111011111011100
00000000000000000001010010011010
11111111111111111111011010101100
11111111111111111111011101110110
00000000000000000001000011100110
00000000000000000001010001110011
00000000000000000000001000000110
11111111111111111111111000010111
00000000000000000010001010011000
00000000000000000000011011011100
00000000000000000000011110000011
00000000000000000000110110100001
00000000000000000000101000100110
00000000000000000001010010101100
11111111111111111111001101101011
00000000000000000000111001100101
00000000000000000000111011001011
00000000000000000000001101001011
00000000000000000001011000010001
00000000000000000001001111000110
00000000000000000000010000000010
00000000000000000000100001010000
00000000000000000000001000100100
00000000000000000001001011010100
00000000000000000000001000000001
00000000000000000000101111011011
11111111111111111111101010010100
11111111111111111111011000010001
00000000000000000000100001010001
11111111111111111110101111011101
11111111111111111111110110111111
00000000000000000001011000011100
00000000000000000000110000101111
00000000000000000001001000010000
00000000000000000000000000101100
11111111111111111111100011101101
00000000000000000000010100100000
11111111111111111111010111110000
00000000000000000000101111111000
00000000000000000000100001010111
00000000000000000000110111111101
00000000000000000000011001001000
00000000000000000000111100111110
00000000000000000001100110110100
11111111111111111111110010010010
00000000000000000001000000000001
00000000000000000001001001110000
00000000000000000001101001111011
00000000000000000001001000011111
00000000000000000000101001001101
00000000000000000000110011011000
00000000000000000000110010011000
00000000000000000000011111101011
11111111111111111111100010111100
11111111111111111110011000111110
00000000000000000001010100101011
00000000000000000001000100110110
11111111111111111111010000011011
11111111111111111111101011011110
11111111111111111110110100000011
00000000000000000000111001011101
11111111111111111111011010100110
00000000000000000000100100000101
11111111111111111111111101001001
11111111111111111111101110000111
00000000000000000000001011010000
00000000000000000001011011001000
11111111111111111111110110001100
11111111111111111111111110111001
11111111111111111111111010001110
00000000000000000000010111010001
00000000000000000000000110110010
00000000000000000001000010011111
11111111111111111111111110000110
00000000000000000001000010001111
11111111111111111111110100000000
00000000000000000001110000000111
00000000000000000000100101101010
00000000000000000000010010110100
00000000000000000000011111101100
11111111111111111111001011111110
11111111111111111111101001110100
00000000000000000000010110000100
00000000000000000000011100010011
11111111111111111111001010011000
00000000000000000000000001011111
11111111111111111111101011010011
00000000000000000000000001001001
11111111111111111111101111010101
00000000000000000001100010100111
00000000000000000001000010100010
11111111111111111111111100111100
00000000000000000001011101010010
11111111111111111111000001010100
11111111111111111111100110001110
00000000000000000000110111001110
00000000000000000000001111011110
00000000000000000000010011111101
00000000000000000000011001000000
00000000000000000000010110001101
00000000000000000000001000111100
00000000000000000000111001011110
00000000000000000000100101001100
00000000000000000001101010100111
00000000000000000000101101111110
00000000000000000001000010011011
11111111111111111111100111011101
11111111111111111111110110010110
00000000000000000000100010010011
11111111111111111110101011100010
11111111111111111111010011100111
11111111111111111110101110000110
00000000000000000000100110000101
00000000000000000000101000010111
11111111111111111111011011000110
00000000000000000000001110111000
11111111111111111111010011101000
00000000000000000001111001000011
00000000000000000000101011011010
11111111111111111111110111111111
00000000000000000000100001100111
11111111111111111111111111111000
11111111111111111111110011111011
11111111111111111111101110001100
00000000000000000000000110101011
11111111111111111111011100100111
00000000000000000000011111100101
11111111111111111111011000111101
11111111111111111111001000111111
11111111111111111111011111101100
00000000000000000000111010000001
00000000000000000000000010010010
00000000000000000000011111001010
00000000000000000000001001100000
00000000000000000000111100111111
00000000000000000000000011001010
11111111111111111111100111100011
11111111111111111111001111110010
11111111111111111110000011101000
11111111111111111111000010000010
00000000000000000000000010000100
00000000000000000000100001110100
00000000000000000000000011110110
00000000000000000000011000111110
00000000000000000000100111011100
00000000000000000001100111101110
00000000000000000000010001000010
11111111111111111111100001000010
11111111111111111111010100011100
00000000000000000000010110110111
00000000000000000000010100000001
00000000000000000000101011100101
11111111111111111111111101000000
00000000000000000001010101111111
11111111111111111111111101000111
11111111111111111111110110011100
11111111111111111111011011110101
00000000000000000000110100010111
00000000000000000000110111010110
00000000000000000001000110010000
00000000000000000000001111001010
00000000000000000000010101111101
00000000000000000001000100111001
11111111111111111111101010011100
00000000000000000000010101011011
11111111111111111111101101110110
11111111111111111101010110111111
11111111111111111111010010011101
11111111111111111111100110000111
00000000000000000000010110111001
00000000000000000001000101110101
11111111111111111111100001100110
00000000000000000000011000001010
00000000000000000000100101011000
00000000000000000000011100111001
00000000000000000000100101011000
00000000000000000000001000010111
00000000000000000000000010010011
00000000000000000001000100000001
00000000000000000000011110100000
00000000000000000001100101001011
00000000000000000000101111001101
11111111111111111111100101100001
11111111111111111111001001000111
00000000000000000001000001110001
00000000000000000000111010111011
00000000000000000000000101110111
00000000000000000001100010010000
00000000000000000001111100010110
00000000000000000000011011000100
11111111111111111111111001010001
00000000000000000000001000110100
11111111111111111111110111011000
00000000000000000000001110111011
11111111111111111101100000000111
00000000000000000001000111001001
11111111111111111110111100111010
00000000000000000001001000011011
11111111111111111111010110111101
00000000000000000000000010100111
00000000000000000000100010001011
00000000000000000000111110110110
00000000000000000000111000111011
00000000000000000000011001011101
00000000000000000001100110010110
00000000000000000001010000101000
00000000000000000001001111001001
00000000000000000000110000011111
00000000000000000001001000111100
00000000000000000001100000010010
00000000000000000000010111011101
00000000000000000000011001000101
00000000000000000000101101010111
00000000000000000000101100110101
00000000000000000001010110011001
00000000000000000000101100010011
00000000000000000001001010100010
00000000000000000000011110110111
00000000000000000000001110110000
00000000000000000000110100110010
00000000000000000000101010101101
11111111111111111111010100101001
11111111111111111111101010101011
11111111111111111111101011101011
11111111111111111111111000100101
00000000000000000000000100000110
11111111111111111111000001101010
00000000000000000000010111111100
11111111111111111111000100111110
00000000000000000000010011011110
00000000000000000001000010111001
00000000000000000001101011100100
00000000000000000001110100001100
00000000000000000010010000011110
00000000000000000001011010001100
00000000000000000001001111001010
00000000000000000001001000100001
00000000000000000000011011001011
00000000000000000000000010011101
00000000000000000001001000011010
00000000000000000001010100000110
00000000000000000000000100110001
00000000000000000001001101001001
00000000000000000010001110000111
00000000000000000001001001110111
00000000000000000000010000010110
00000000000000000001011101000100
11111111111111111110111000010110
00000000000000000000001011010000
11111111111111111110011110000001
11111111111111111110110001000011
00000000000000000001000010001110
11111111111111111111000101010000
00000000000000000001001011110110
11111111111111111111101000101010
00000000000000000001001110001100
11111111111111111111101100101100
11111111111111111111001101110100
11111111111111111111101001010111
00000000000000000000000100011001
00000000000000000010010010011010
00000000000000000000110011000010
00000000000000000000101110000100
00000000000000000000010010011010
00000000000000000001011011001000
00000000000000000000100110110111
00000000000000000000010001011111
00000000000000000000110000101010
11111111111111111111101010010100
00000000000000000010000100001101
00000000000000000000110000110001
00000000000000000010111110110100
00000000000000000000100010101011
00000000000000000000100000010000
00000000000000000000100001011000
00000000000000000000000010011100
00000000000000000001010110010101
00000000000000000000110101100010
11111111111111111110011110001111
11111111111111111110001111100000
11111111111111111110111111011011
11111111111111111111100100000011
11111111111111111110110001001111
11111111111111111111011111010001
11111111111111111111001000010000
11111111111111111111011001100111
00000000000000000001001000110010
00000000000000000000101110010001
11111111111111111111111100101100
00000000000000000000111011001000
00000000000000000001001010000110
11111111111111111111101010110100
11111111111111111111100110010100
11111111111111111111011111011011
00000000000000000000101000101100
00000000000000000000010111001011
00000000000000000000001101000111
00000000000000000001100111001101
00000000000000000000110011101110
00000000000000000001111011010011
00000000000000000000101110011100
11111111111111111111011001110010
00000000000000000000100100111000
00000000000000000000011001111010
00000000000000000000001011000111
11111111111111111110101011101010
00000000000000000000010110000010
11111111111111111111000101100000
11111111111111111111001100011100
00000000000000000000010001000111
00000000000000000000110011100011
00000000000000000000011100101110
00000000000000000000011101110111
11111111111111111111100001110010
11111111111111111111000100111011
11111111111111111111100001100000
00000000000000000001010001001110
00000000000000000001000111011011
00000000000000000000011011101001
11111111111111111111000001000011
11111111111111111111100110110100
11111111111111111111011010010101
11111111111111111111011000110000
00000000000000000001001101010011
11111111111111111111100100010100
00000000000000000010011111001100
00000000000000000000011010000100
00000000000000000001001000101001
00000000000000000000101000011111
00000000000000000000000001000110
00000000000000000000011011110001
11111111111111111111000111101110
00000000000000000000110000101101
11111111111111111110100010100101
11111111111111111110110001110101
00000000000000000000011110010100
11111111111111111110111100011001
11111111111111111111010111110101
11111111111111111111011110100100
11111111111111111111001110000010
11111111111111111111110001011101
00000000000000000000011101101000
11111111111111111111001000100100
11111111111111111111001001011001
11111111111111111111011111010111
11111111111111111101101101001011
11111111111111111111010000110110
11111111111111111111000111000010
11111111111111111111001011010110
11111111111111111110110111000110
11111111111111111101000111000110
11111111111111111111001101001101
11111111111111111111110011000110
11111111111111111111101100011101
00000000000000000000000011110001
00000000000000000000010011010111
11111111111111111111011110010101
11111111111111111111111011101010
00000000000000000000110010100000
00000000000000000000000010010100
00000000000000000000010101110110
11111111111111111101100000000111
11111111111111111110101001011001
00000000000000000000010110000100
00000000000000000001010001100111
00000000000000000001000001110100
11111111111111111111001110000001
00000000000000000000100101001001
11111111111111111111110010110011
00000000000000000000101011110100
00000000000000000000010111010001
11111111111111111111011010000110
11111111111111111110010010011001
11111111111111111111001011011111
11111111111111111110010111111001
11111111111111111101011111101101
11111111111111111101111000010001
11111111111111111110001000011000
11111111111111111101101111111010
11111111111111111101101101011010
11111111111111111111100010011100
11111111111111111110010101000101
11111111111111111111101000100000
11111111111111111111110110100100
00000000000000000000000001011111
00000000000000000000010000101011
11111111111111111111010011101111
00000000000000000000000010111010
11111111111111111101111000111000
11111111111111111111010000101101
11111111111111111111001010100101
00000000000000000000101001000001
00000000000000000001000100010111
00000000000000000001010100111100
11111111111111111111101010101110
00000000000000000001001010111100
00000000000000000000010001111101
00000000000000000000110001000110
00000000000000000001000111011100
11111111111111111110110101100000
11111111111111111110011001011101
11111111111111111101011010100111
11111111111111111101100001101110
11111111111111111101100101110100
11111111111111111101011001100010
11111111111111111101100100011001
11111111111111111101110000011111
11111111111111111111001111111100
11111111111111111111101010001011
11111111111111111111010100010001
11111111111111111111111111011001
11111111111111111111101000110010
11111111111111111111000101101100
11111111111111111111110010101010
00000000000000000000011111011010
11111111111111111111111101000101
11111111111111111111001001001100
11111111111111111110001011101000
11111111111111111111111111110101
00000000000000000000100101001100
11111111111111111110101100111111
11111111111111111111000001110010
00000000000000000000011000000011
11111111111111111110111000110010
00000000000000000000111110000111
00000000000000000001000110000011
11111111111111111110011010110010
11111111111111111111110001111101
11111111111111111111111010011001
11111111111111111110100110000011
11111111111111111111010101000011
11111111111111111110001011100000
11111111111111111111001011110100
11111111111111111110000000011011
00000000000000000000000111000010
11111111111111111110000110100101
11111111111111111110011010011111
11111111111111111111100100010010
11111111111111111110111000100110
11111111111111111110011110100110
11111111111111111110001010100111
11111111111111111111010001000010
11111111111111111111100110011101
11111111111111111110101111110011
11111111111111111111100010011011
11111111111111111101111010110011
00000000000000000000110110110110
00000000000000000000010001100101
00000000000000000000100100010101
11111111111111111110101010111110
00000000000000000001001111011001
00000000000000000000000000111111
00000000000000000000100001011110
00000000000000000000101010100100
00000000000000000000000110000010
11111111111111111110001110011111
11111111111111111110101110101011
11111111111111111111001011010111
00000000000000000000100011010001
11111111111111111111101111100101
11111111111111111111011011100010
00000000000000000000011111000000
11111111111111111111001001001011
11111111111111111111000011010101
11111111111111111111001100101110
11111111111111111110011001000100
11111111111111111111001100110101
11111111111111111110110101011010
11111111111111111111011100001100
11111111111111111101101000010010
11111111111111111111110111100011
11111111111111111111101010101100
11111111111111111111011101000111
11111111111111111110100100010101
00000000000000000000101000111001
11111111111111111111100011011100
00000000000000000001001111111100
00000000000000000001010101000111
11111111111111111110111100000011
00000000000000000000001010100001
11111111111111111111010101110001
11111111111111111110111000000000
11111111111111111111000000010010
00000000000000000000011011111111
00000000000000000001011000010111
00000000000000000000010110101100
00000000000000000000101001000000
11111111111111111111010101110001
00000000000000000000010010011000
11111111111111111111101001010000
11111111111111111111010001010011
11111111111111111111010101011111
11111111111111111111110001101000
11111111111111111110111010111100
11111111111111111110010100110001
11111111111111111111110110000011
11111111111111111111010111010011
11111111111111111111001100111010
11111111111111111110001011110100
11111111111111111110100111100011
11111111111111111110010110001001
00000000000000000000000101111110
11111111111111111110111010001110
00000000000000000000011011010010
11111111111111111111111110100011
11111111111111111111110100000100
00000000000000000000000000110110
00000000000000000000010000010111
11111111111111111110101101000000
00000000000000000000101100001001
11111111111111111111101010011110
00000000000000000001011110101010
00000000000000000000111000100011
00000000000000000000111111001000
11111111111111111111111000110100
11111111111111111111101000100010
11111111111111111111101100001110
00000000000000000000000000111100
11111111111111111111100100101000
11111111111111111111011000001101
11111111111111111111001011000111
11111111111111111111101000000101
11111111111111111110101000010001
11111111111111111111001100000100
11111111111111111111001101001100
11111111111111111111101110110010
11111111111111111111110101010111
00000000000000000000111101100010
00000000000000000000101110111001
11111111111111111110111101111011
00000000000000000001010000010010
11111111111111111111100101110101
11111111111111111111110001000010
11111111111111111110110001101111
11111111111111111111001011001111
00000000000000000000101000011010
00000000000000000000111001110101
00000000000000000000010000101000
11111111111111111111100100101111
00000000000000000010010001111101
00000000000000000000010011001111
00000000000000000001011110011001
00000000000000000010001000010010
00000000000000000000101001101110
00000000000000000001011001010000
00000000000000000000111111001101
00000000000000000001000100111100
00000000000000000001000110001001
00000000000000000000010101001100
00000000000000000000100000010110
00000000000000000001001000111001
00000000000000000000011010001000
00000000000000000001001011111100
00000000000000000001001101110111
11111111111111111111110101011010
00000000000000000010000111001111
11111111111111111111000101110010
00000000000000000000011011110011
11111111111111111111011000110010
00000000000000000001010010011110
00000000000000000000010011101111
00000000000000000001011000010101
00000000000000000000011110111001
11111111111111111111000111001110
00000000000000000000101011000111
11111111111111111111101001000111
11111111111111111111000000101111
11111111111111111110110011110101
00000000000000000000100001010011
00000000000000000001100101011100
00000000000000000000100000111101
00000000000000000010001110010111
00000000000000000000100111100011
00000000000000000001101100110110
00000000000000000000100101110111
00000000000000000010000111101010
00000000000000000011000110011111
00000000000000000011000100011011
00000000000000000010001010011001
00000000000000000010001100111001
00000000000000000001100110010101
00000000000000000000000001010010
00000000000000000000000101010000
00000000000000000001000010011010
00000000000000000001001011000101
00000000000000000001000000000010
00000000000000000000010110100000
00000000000000000000000100000101
00000000000000000000000100010110
00000000000000000000001000100001
11111111111111111110101011011101
00000000000000000001000110010101
00000000000000000000011001010110
11111111111111111111011111110001
00000000000000000000000000010000
00000000000000000000010110110001
00000000000000000000001101000100
11111111111111111111011100010110
00000000000000000001011010110010
00000000000000000000010000000100
11111111111111111111111101100100
11111111111111111111110011101010
11111111111111111110111010011011
00000000000000000001001100011111
00000000000000000000110110100000
11111111111111111111001011011000
11111111111111111111100100001110
11111111111111111111110011010011
00000000000000000001100011110011
00000000000000000001001010011111
11111111111111111111001101111001
11111111111111111111110110000011
11111111111111111111100100011001
00000000000000000000101111011110
00000000000000000000110101010100
11111111111111111111111011001111
00000000000000000001010000010001
11111111111111111110111111110111
