DEPTH = 10;
WIDTH = 32;
ADDRESS_RADIX = HEX;
DATA_RADIX = BIN;
CONTENT
BEGIN
0000 : 11111111111111111110110001110101;  % 0xffffec75  -0.07634591311216354 %
0001 : 11111111111111111111111000001100;  % 0xfffffe0c  -0.007630455773323774 %
0002 : 00000000000000001011000111000011;  % 0x0000b1c3  0.6943843364715576 %
0003 : 00000000000000001000000100110111;  % 0x00008137  0.5047443509101868 %
0004 : 11111111111111111101101101000011;  % 0xffffdb43  -0.14351293444633484 %
0005 : 11111111111111111101010000111110;  % 0xffffd43e  -0.17092730104923248 %
0006 : 11111111111111111001110111101011;  % 0xffff9deb  -0.38312646746635437 %
0007 : 00000000000000000011000011100001;  % 0x000030e1  0.19093146920204163 %
0008 : 11111111111111111110010101001110;  % 0xffffe54e  -0.10427898913621902 %
0009 : 11111111111111111011110100000110;  % 0xffffbd06  -0.26162028312683105 %
END;
