DEPTH = 10;
WIDTH = 32;
ADDRESS_RADIX = HEX;
DATA_RADIX = BIN;
CONTENT
BEGIN
0000 : 00000000000000001001111011011111;  % 0x00009edf  0.6205885410308838 %
0001 : 11111111111111111110000000101001;  % 0xffffe029  -0.12436794489622116 %
0002 : 11111111111111110110110010010001;  % 0xffff6c91  -0.5759124755859375 %
0003 : 00000000000000000011110100010110;  % 0x00003d16  0.23861297965049744 %
0004 : 00000000000000000010010111101101;  % 0x000025ed  0.14814609289169312 %
0005 : 00000000000000000100001011010010;  % 0x000042d2  0.2610214054584503 %
0006 : 00000000000000000100110101000011;  % 0x00004d43  0.30180639028549194 %
0007 : 11111111111111111110001000110111;  % 0xffffe237  -0.1163468211889267 %
0008 : 11111111111111111110010100101000;  % 0xffffe528  -0.10485198348760605 %
0009 : 11111111111111111101000010100101;  % 0xffffd0a5  -0.18498854339122772 %
END;
