DEPTH = 10;
WIDTH = 32;
ADDRESS_RADIX = HEX;
DATA_RADIX = BIN;
CONTENT
BEGIN
0000 : 11111111111111111001010010000111;  % 0xffff9487  -0.4198114573955536 %
0001 : 11111111111111111001110010010001;  % 0xffff9c91  -0.3884107172489166 %
0002 : 11111111111111111001011111010110;  % 0xffff97d6  -0.40688568353652954 %
0003 : 00000000000000000110010010010101;  % 0x00006495  0.39289724826812744 %
0004 : 11111111111111111110011011111011;  % 0xffffe6fb  -0.09773122519254684 %
0005 : 11111111111111111011001001001100;  % 0xffffb24c  -0.3035292625427246 %
0006 : 00000000000000001000000110001000;  % 0x00008188  0.5059822201728821 %
0007 : 11111111111111111111111111110111;  % 0xfffffff7  -0.00013502012006938457 %
0008 : 00000000000000001010010110100100;  % 0x0000a5a4  0.6470320820808411 %
0009 : 11111111111111111010101001010011;  % 0xffffaa53  -0.33467236161231995 %
END;
