DEPTH = 10;
WIDTH = 32;
ADDRESS_RADIX = HEX;
DATA_RADIX = BIN;
CONTENT
BEGIN
0000 : 11111111111111111111010011000010;  % 0xfffff4c2  -0.043912236 %
0001 : 11111111111111110111011000111000;  % 0xffff7638  -0.5382083 %
0002 : 11111111111111111110000000101001;  % 0xffffe029  -0.124367945 %
0003 : 00000000000000000000110010110111;  % 0x00000cb7  0.04966696 %
0004 : 00000000000000000001010010111100;  % 0x000014bc  0.08099775 %
0005 : 11111111111111111111111000001100;  % 0xfffffe0c  -0.007630456 %
0006 : 11111111111111110110111000000101;  % 0xffff6e05  -0.5702312 %
0007 : 00000000000000001010000011111011;  % 0x0000a0fb  0.6288304 %
0008 : 11111111111111111001110010010001;  % 0xffff9c91  -0.38841072 %
0009 : 00000000000000001001001101001011;  % 0x0000934b  0.57536846 %
END;
