DEPTH = 10;
WIDTH = 32;
ADDRESS_RADIX = HEX;
DATA_RADIX = BIN;
CONTENT
BEGIN
0000 : 11111111111111111101110100100111;  % 0xffffdd27  -0.13612282276153564 %
0001 : 11111111111111110110111000000101;  % 0xffff6e05  -0.5702311992645264 %
0002 : 00000000000000000011100011101001;  % 0x000038e9  0.22230133414268494 %
0003 : 00000000000000000000010110110101;  % 0x000005b5  0.022290140390396118 %
0004 : 00000000000000000010100000000111;  % 0x00002807  0.1563575714826584 %
0005 : 00000000000000001010010100110111;  % 0x0000a537  0.6453739404678345 %
0006 : 11111111111111111000101011110111;  % 0xffff8af7  -0.45717018842697144 %
0007 : 11111111111111111100101001010001;  % 0xffffca51  -0.2097003161907196 %
0008 : 11111111111111111101010101110101;  % 0xffffd575  -0.16618648171424866 %
0009 : 11111111111111111001101010111010;  % 0xffff9aba  -0.39559492468833923 %
END;
