DEPTH = 10;
WIDTH = 32;
ADDRESS_RADIX = HEX;
DATA_RADIX = BIN;
CONTENT
BEGIN
0000 : 11111111111111110111110110000111;  % 0xffff7d87  -0.5096529722213745 %
0001 : 00000000000000000001010010111100;  % 0x000014bc  0.08099775016307831 %
0002 : 11111111111111110101111011001111;  % 0xffff5ecf  -0.6296468377113342 %
0003 : 11111111111111111101111000001000;  % 0xffffde08  -0.13269290328025818 %
0004 : 00000000000000000011011111011111;  % 0x000037df  0.21825246512889862 %
0005 : 00000000000000000011000001101011;  % 0x0000306b  0.18913406133651733 %
0006 : 11111111111111111110001001000100;  % 0xffffe244  -0.11615496873855591 %
0007 : 00000000000000001000110001011111;  % 0x00008c5f  0.5483235120773315 %
0008 : 00000000000000000100000000110000;  % 0x00004030  0.2507312297821045 %
0009 : 00000000000000000000000001111100;  % 0x0000007c  0.0018874633824452758 %
END;
