DEPTH = 10;
WIDTH = 32;
ADDRESS_RADIX = HEX;
DATA_RADIX = BIN;
CONTENT
BEGIN
0000 : 11111111111111111100001101011100;  % 0xffffc35c  -0.23688172 %
0001 : 00000000000000001001100010101101;  % 0x000098ad  0.5963972 %
0002 : 11111111111111111101000010100101;  % 0xffffd0a5  -0.18498854 %
0003 : 00000000000000000101110011100000;  % 0x00005ce0  0.36279705 %
0004 : 00000000000000000000000001111100;  % 0x0000007c  0.0018874634 %
0005 : 11111111111111111011110100000110;  % 0xffffbd06  -0.26162028 %
0006 : 11111111111111111001101010111010;  % 0xffff9aba  -0.39559492 %
0007 : 11111111111111111111101110011011;  % 0xfffffb9b  -0.017161878 %
0008 : 11111111111111111010101001010011;  % 0xffffaa53  -0.33467236 %
0009 : 11111111111111111100001101111000;  % 0xffffc378  -0.23645441 %
END;
