DEPTH = 784;
WIDTH = 32;
ADDRESS_RADIX = HEX;
DATA_RADIX = BIN;
CONTENT
BEGIN
0000 : 11111111111111111110111101000110;  % 0xffffef46  -0.06533253937959671 %
0001 : 00000000000000000000011110001111;  % 0x0000078f  0.029531672596931458 %
0002 : 11111111111111111110111111001001;  % 0xffffefc9  -0.06334058940410614 %
0003 : 11111111111111111111101101100000;  % 0xfffffb60  -0.018068961799144745 %
0004 : 11111111111111111111010110101010;  % 0xfffff5aa  -0.04037760570645332 %
0005 : 11111111111111111110111010101011;  % 0xffffeeab  -0.06769736111164093 %
0006 : 11111111111111111111101000001100;  % 0xfffffa0c  -0.023250550031661987 %
0007 : 00000000000000000000111001000011;  % 0x00000e43  0.05570947378873825 %
0008 : 11111111111111111111101111110111;  % 0xfffffbf7  -0.01576036959886551 %
0009 : 11111111111111111111001010101110;  % 0xfffff2ae  -0.05202586576342583 %
000a : 00000000000000000001000101011110;  % 0x0000115e  0.06783726066350937 %
000b : 00000000000000000000001011001110;  % 0x000002ce  0.01095271110534668 %
000c : 00000000000000000001011000111011;  % 0x0000163b  0.08684297651052475 %
000d : 00000000000000000001001100101110;  % 0x0000132e  0.07492002099752426 %
000e : 11111111111111111110101001000010;  % 0xffffea42  -0.08492626249790192 %
000f : 00000000000000000001010000000011;  % 0x00001403  0.07817152887582779 %
0010 : 00000000000000000001001010001110;  % 0x0000128e  0.07248463481664658 %
0011 : 00000000000000000000100010000101;  % 0x00000885  0.033274099230766296 %
0012 : 11111111111111111111011000001001;  % 0xfffff609  -0.0389193557202816 %
0013 : 00000000000000000000100001011000;  % 0x00000858  0.0325884148478508 %
0014 : 00000000000000000000101110011111;  % 0x00000b9f  0.045395441353321075 %
0015 : 00000000000000000000110001000111;  % 0x00000c47  0.04796532541513443 %
0016 : 11111111111111111111010010001100;  % 0xfffff48c  -0.044744182378053665 %
0017 : 11111111111111111110111010100111;  % 0xffffeea7  -0.06775802373886108 %
0018 : 00000000000000000000101001001010;  % 0x00000a4a  0.04019656032323837 %
0019 : 11111111111111111111001010010011;  % 0xfffff293  -0.052447959780693054 %
001a : 00000000000000000000100001010101;  % 0x00000855  0.03254903852939606 %
001b : 00000000000000000000000111111111;  % 0x000001ff  0.007791943848133087 %
001c : 00000000000000000001010111010010;  % 0x000015d2  0.08522974699735641 %
001d : 11111111111111111111110110111101;  % 0xfffffdbd  -0.008835121989250183 %
001e : 11111111111111111111110110101000;  % 0xfffffda8  -0.009160079061985016 %
001f : 00000000000000000001000111011001;  % 0x000011d9  0.06971841305494308 %
0020 : 11111111111111111110101011010110;  % 0xffffead6  -0.08266458660364151 %
0021 : 11111111111111111110101101101100;  % 0xffffeb6c  -0.08038614690303802 %
0022 : 00000000000000000001000010010111;  % 0x00001097  0.06480409950017929 %
0023 : 11111111111111111111100000010110;  % 0xfffff816  -0.030921172350645065 %
0024 : 00000000000000000000001010100010;  % 0x000002a2  0.0102853924036026 %
0025 : 00000000000000000001000001111101;  % 0x0000107d  0.06440793722867966 %
0026 : 11111111111111111110111010000000;  % 0xffffee80  -0.06836283951997757 %
0027 : 00000000000000000001010001101100;  % 0x0000146c  0.07976549863815308 %
0028 : 11111111111111111111011000011101;  % 0xfffff61d  -0.03861602023243904 %
0029 : 00000000000000000000001110101011;  % 0x000003ab  0.01432077493518591 %
002a : 00000000000000000001000011100101;  % 0x000010e5  0.06599663943052292 %
002b : 00000000000000000000111111110111;  % 0x00000ff7  0.0623600035905838 %
002c : 00000000000000000001000011111111;  % 0x000010ff  0.06639555841684341 %
002d : 11111111111111111110111011100101;  % 0xffffeee5  -0.06682534515857697 %
002e : 00000000000000000001001111001010;  % 0x000013ca  0.07730741053819656 %
002f : 11111111111111111111000100110110;  % 0xfffff136  -0.05776629596948624 %
0030 : 11111111111111111111101100000110;  % 0xfffffb06  -0.019434861838817596 %
0031 : 11111111111111111111101111000001;  % 0xfffffbc1  -0.016590654850006104 %
0032 : 11111111111111111111111110001111;  % 0xffffff8f  -0.0017251744866371155 %
0033 : 11111111111111111111011011101000;  % 0xfffff6e8  -0.03552030771970749 %
0034 : 11111111111111111111100111101001;  % 0xfffff9e9  -0.02378322184085846 %
0035 : 11111111111111111111101100101000;  % 0xfffffb28  -0.018925033509731293 %
0036 : 11111111111111111111101000110001;  % 0xfffffa31  -0.022688746452331543 %
0037 : 00000000000000000000110000010000;  % 0x00000c10  0.0471237376332283 %
0038 : 00000000000000000000111010011001;  % 0x00000e99  0.057026706635951996 %
0039 : 00000000000000000000101111000000;  % 0x00000bc0  0.045895256102085114 %
003a : 11111111111111111111100001110101;  % 0xfffff875  -0.029465701431035995 %
003b : 11111111111111111110101111111010;  % 0xffffebfa  -0.07822182774543762 %
003c : 00000000000000000000101101011010;  % 0x00000b5a  0.04434248059988022 %
003d : 00000000000000000001000001010100;  % 0x00001054  0.06378243118524551 %
003e : 11111111111111111110101000111101;  % 0xffffea3d  -0.08501362055540085 %
003f : 11111111111111111111101111010011;  % 0xfffffbd3  -0.016312353312969208 %
0040 : 11111111111111111111001110110111;  % 0xfffff3b7  -0.04798879474401474 %
0041 : 11111111111111111111101000100101;  % 0xfffffa25  -0.022865409031510353 %
0042 : 11111111111111111110101100100000;  % 0xffffeb20  -0.0815456360578537 %
0043 : 00000000000000000000010011001010;  % 0x000004ca  0.01870359480381012 %
0044 : 11111111111111111110101000110111;  % 0xffffea37  -0.08509952574968338 %
0045 : 11111111111111111111111101011111;  % 0xffffff5f  -0.0024583705235272646 %
0046 : 00000000000000000000010100001101;  % 0x0000050d  0.019725479185581207 %
0047 : 00000000000000000000011101001000;  % 0x00000748  0.028446247801184654 %
0048 : 11111111111111111111010100000010;  % 0xfffff502  -0.04294104501605034 %
0049 : 11111111111111111111001100101011;  % 0xfffff32b  -0.05012523755431175 %
004a : 00000000000000000001000000000000;  % 0x00001000  0.062496669590473175 %
004b : 00000000000000000000111010110101;  % 0x00000eb5  0.05744647607207298 %
004c : 00000000000000000000111001110001;  % 0x00000e71  0.056417178362607956 %
004d : 11111111111111111110110100111111;  % 0xffffed3f  -0.07326128333806992 %
004e : 11111111111111111110111000111111;  % 0xffffee3f  -0.06935437768697739 %
004f : 11111111111111111111100001010101;  % 0xfffff855  -0.029950488358736038 %
0050 : 00000000000000000000101100000000;  % 0x00000b00  0.04297535866498947 %
0051 : 11111111111111111110101010000011;  % 0xffffea83  -0.083933986723423 %
0052 : 11111111111111111111111110101101;  % 0xffffffad  -0.0012634918093681335 %
0053 : 11111111111111111110101110111001;  % 0xffffebb9  -0.07920984923839569 %
0054 : 00000000000000000000001110111100;  % 0x000003bc  0.01459447294473648 %
0055 : 11111111111111111111010100011001;  % 0xfffff519  -0.04258035495877266 %
0056 : 11111111111111111111101100111010;  % 0xfffffb3a  -0.01864805817604065 %
0057 : 11111111111111111111010101100111;  % 0xfffff567  -0.04140368476510048 %
0058 : 00000000000000000001001111000000;  % 0x000013c0  0.07714751362800598 %
0059 : 11111111111111111111011100011011;  % 0xfffff71b  -0.03474617004394531 %
005a : 11111111111111111111001110000000;  % 0xfffff380  -0.04882974550127983 %
005b : 00000000000000000000011000101001;  % 0x00000629  0.024062564596533775 %
005c : 00000000000000000000001110001001;  % 0x00000389  0.013806170783936977 %
005d : 11111111111111111110101011010110;  % 0xffffead6  -0.08266919106245041 %
005e : 00000000000000000001000001000001;  % 0x00001041  0.06349415332078934 %
005f : 11111111111111111111110111000011;  % 0xfffffdc3  -0.008742429316043854 %
0060 : 11111111111111111111101010011111;  % 0xfffffa9f  -0.021011514589190483 %
0061 : 00000000000000000000111000100010;  % 0x00000e22  0.05520695447921753 %
0062 : 00000000000000000000110100000111;  % 0x00000d07  0.05088960379362106 %
0063 : 00000000000000000001010011010110;  % 0x000014d6  0.08138412982225418 %
0064 : 00000000000000000000101100010010;  % 0x00000b12  0.04324323311448097 %
0065 : 11111111111111111110100101100000;  % 0xffffe960  -0.08837629109621048 %
0066 : 00000000000000000000100111011010;  % 0x000009da  0.038478460162878036 %
0067 : 00000000000000000000111011110111;  % 0x00000ef7  0.05845491588115692 %
0068 : 11111111111111111111001011011001;  % 0xfffff2d9  -0.05138091370463371 %
0069 : 11111111111111111111010011001100;  % 0xfffff4cc  -0.04376455768942833 %
006a : 11111111111111111111111100110110;  % 0xffffff36  -0.0030870861373841763 %
006b : 11111111111111111111000101100011;  % 0xfffff163  -0.057078808546066284 %
006c : 00000000000000000000001110101101;  % 0x000003ad  0.014357566833496094 %
006d : 00000000000000000000001000000000;  % 0x00000200  0.007818430662155151 %
006e : 11111111111111111111000010111011;  % 0xfffff0bb  -0.05965167656540871 %
006f : 11111111111111111111011101000010;  % 0xfffff742  -0.03415495529770851 %
0070 : 11111111111111111111010011001011;  % 0xfffff4cb  -0.043781232088804245 %
0071 : 00000000000000000000011101001000;  % 0x00000748  0.028448887169361115 %
0072 : 00000000000000000000111001101100;  % 0x00000e6c  0.05632995814085007 %
0073 : 11111111111111111111001000101010;  % 0xfffff22a  -0.05404988303780556 %
0074 : 00000000000000000000010111111111;  % 0x000005ff  0.023421289399266243 %
0075 : 11111111111111111110111100010100;  % 0xffffef14  -0.06610724329948425 %
0076 : 00000000000000000000110001100100;  % 0x00000c64  0.048396702855825424 %
0077 : 00000000000000000001010011010000;  % 0x000014d0  0.0812993049621582 %
0078 : 11111111111111111111101110100100;  % 0xfffffba4  -0.01702752150595188 %
0079 : 00000000000000000001001001110100;  % 0x00001274  0.07208672910928726 %
007a : 00000000000000000000101101110110;  % 0x00000b76  0.04476573318243027 %
007b : 11111111111111111111001011001011;  % 0xfffff2cb  -0.05158298462629318 %
007c : 00000000000000000000111000110100;  % 0x00000e34  0.05548100918531418 %
007d : 11111111111111111111100010110001;  % 0xfffff8b1  -0.0285479836165905 %
007e : 11111111111111111111111011111011;  % 0xfffffefb  -0.00397618068382144 %
007f : 11111111111111111111010111011111;  % 0xfffff5df  -0.03956640884280205 %
0080 : 11111111111111111111011001100001;  % 0xfffff661  -0.03758484497666359 %
0081 : 11111111111111111110110111010100;  % 0xffffedd4  -0.07097870111465454 %
0082 : 11111111111111111111111011111001;  % 0xfffffef9  -0.004017493221908808 %
0083 : 00000000000000000000110000011010;  % 0x00000c1a  0.04726523533463478 %
0084 : 11111111111111111111110000100110;  % 0xfffffc26  -0.01504253875464201 %
0085 : 00000000000000000000011010010100;  % 0x00000694  0.025699490681290627 %
0086 : 11111111111111111110110111001011;  % 0xffffedcb  -0.07112321257591248 %
0087 : 00000000000000000000001001000110;  % 0x00000246  0.008886551484465599 %
0088 : 00000000000000000000110101001101;  % 0x00000d4d  0.05196116119623184 %
0089 : 00000000000000000000110000010011;  % 0x00000c13  0.047161709517240524 %
008a : 11111111111111111110101000101010;  % 0xffffea2a  -0.08529084175825119 %
008b : 11111111111111111111001000110110;  % 0xfffff236  -0.05386185646057129 %
008c : 00000000000000000001000111111101;  % 0x000011fd  0.07026106864213943 %
008d : 11111111111111111111001000111000;  % 0xfffff238  -0.053840260952711105 %
008e : 11111111111111111111100010001001;  % 0xfffff889  -0.029153360053896904 %
008f : 00000000000000000000110001001010;  % 0x00000c4a  0.04800664633512497 %
0090 : 00000000000000000000010100010101;  % 0x00000515  0.019854119047522545 %
0091 : 11111111111111111111000011111011;  % 0xfffff0fb  -0.05866464972496033 %
0092 : 00000000000000000000101000101111;  % 0x00000a2f  0.039785441011190414 %
0093 : 11111111111111111111110100100000;  % 0xfffffd20  -0.01123033557087183 %
0094 : 11111111111111111111100011111001;  % 0xfffff8f9  -0.027456462383270264 %
0095 : 00000000000000000000001001110000;  % 0x00000270  0.009520183317363262 %
0096 : 00000000000000000001000101111001;  % 0x00001179  0.06825720518827438 %
0097 : 00000000000000000000000000011110;  % 0x0000001e  0.00045550192589871585 %
0098 : 11111111111111111111101000101010;  % 0xfffffa2a  -0.02280081808567047 %
0099 : 00000000000000000001001110100110;  % 0x000013a6  0.07675332576036453 %
009a : 11111111111111111111010011010001;  % 0xfffff4d1  -0.043693527579307556 %
009b : 00000000000000000001001001100111;  % 0x00001267  0.07189051061868668 %
009c : 11111111111111111111101011011001;  % 0xfffffad9  -0.02011978067457676 %
009d : 11111111111111111111000010100001;  % 0xfffff0a1  -0.060041699558496475 %
009e : 11111111111111111110101010100111;  % 0xffffeaa7  -0.08338763564825058 %
009f : 00000000000000000000011000000100;  % 0x00000604  0.02349422685801983 %
00a0 : 00000000000000000000010110011101;  % 0x0000059d  0.021922560408711433 %
00a1 : 11111111111111111111011000111001;  % 0xfffff639  -0.03818599879741669 %
00a2 : 00000000000000000000000010111000;  % 0x000000b8  0.0028072793502360582 %
00a3 : 00000000000000000001000010010100;  % 0x00001094  0.06476092338562012 %
00a4 : 00000000000000000000111000001101;  % 0x00000e0d  0.0548911988735199 %
00a5 : 00000000000000000000001011000111;  % 0x000002c7  0.01085073035210371 %
00a6 : 11111111111111111111000000000011;  % 0xfffff003  -0.06245141848921776 %
00a7 : 00000000000000000000101111001001;  % 0x00000bc9  0.04603687673807144 %
00a8 : 11111111111111111111000101000001;  % 0xfffff141  -0.05760706216096878 %
00a9 : 00000000000000000000110101001110;  % 0x00000d4e  0.05197145789861679 %
00aa : 11111111111111111111101000110100;  % 0xfffffa34  -0.022642439231276512 %
00ab : 11111111111111111110101110010001;  % 0xffffeb91  -0.07982168346643448 %
00ac : 11111111111111111111111010001100;  % 0xfffffe8c  -0.005683690309524536 %
00ad : 00000000000000000000110010101101;  % 0x00000cad  0.0495183989405632 %
00ae : 00000000000000000000010110101000;  % 0x000005a8  0.02210177853703499 %
00af : 00000000000000000000000010011111;  % 0x0000009f  0.0024185986258089542 %
00b0 : 00000000000000000001010000110110;  % 0x00001436  0.07894886285066605 %
00b1 : 00000000000000000001010011011011;  % 0x000014db  0.08146333694458008 %
00b2 : 00000000000000000000010001100011;  % 0x00000463  0.017129704356193542 %
00b3 : 11111111111111111111101111001100;  % 0xfffffbcc  -0.016413714736700058 %
00b4 : 00000000000000000000100110011100;  % 0x0000099c  0.03753911703824997 %
00b5 : 00000000000000000001000111001111;  % 0x000011cf  0.06956106424331665 %
00b6 : 11111111111111111111000000000000;  % 0xfffff000  -0.06249323487281799 %
00b7 : 11111111111111111111100100010101;  % 0xfffff915  -0.027025647461414337 %
00b8 : 00000000000000000001000011111101;  % 0x000010fd  0.06636067479848862 %
00b9 : 11111111111111111110101111100011;  % 0xffffebe3  -0.07856900990009308 %
00ba : 11111111111111111110110101110001;  % 0xffffed71  -0.07249002903699875 %
00bb : 11111111111111111111001100000000;  % 0xfffff300  -0.05077743157744408 %
00bc : 11111111111111111111000100110000;  % 0xfffff130  -0.05785873904824257 %
00bd : 00000000000000000000011101100111;  % 0x00000767  0.02891198731958866 %
00be : 11111111111111111111100000110110;  % 0xfffff836  -0.03042062558233738 %
00bf : 11111111111111111110101000110001;  % 0xffffea31  -0.08519011735916138 %
00c0 : 00000000000000000000000101010101;  % 0x00000155  0.005207929294556379 %
00c1 : 00000000000000000000111111110001;  % 0x00000ff1  0.06226539611816406 %
00c2 : 00000000000000000001010101101111;  % 0x0000156f  0.0837278664112091 %
00c3 : 11111111111111111111100111010011;  % 0xfffff9d3  -0.02412264421582222 %
00c4 : 00000000000000000000001100110101;  % 0x00000335  0.01252814382314682 %
00c5 : 11111111111111111111000011011011;  % 0xfffff0db  -0.059163738042116165 %
00c6 : 11111111111111111111111101100110;  % 0xffffff66  -0.0023522735573351383 %
00c7 : 00000000000000000000011110101111;  % 0x000007af  0.03000684641301632 %
00c8 : 00000000000000000000110101110011;  % 0x00000d73  0.05253916233778 %
00c9 : 11111111111111111111011011111100;  % 0xfffff6fc  -0.03522036597132683 %
00ca : 00000000000000000000110101100101;  % 0x00000d65  0.052327293902635574 %
00cb : 11111111111111111111011110111110;  % 0xfffff7be  -0.032253243029117584 %
00cc : 00000000000000000001010000111010;  % 0x0000143a  0.07901102304458618 %
00cd : 11111111111111111111001101011101;  % 0xfffff35d  -0.0493675135076046 %
00ce : 00000000000000000001001100000100;  % 0x00001304  0.07427768409252167 %
00cf : 11111111111111111111111110111101;  % 0xffffffbd  -0.0010160249657928944 %
00d0 : 00000000000000000000111101001000;  % 0x00000f48  0.059689711779356 %
00d1 : 11111111111111111111000000011101;  % 0xfffff01d  -0.06205132231116295 %
00d2 : 11111111111111111111010101111111;  % 0xfffff57f  -0.041037362068891525 %
00d3 : 11111111111111111110111111000111;  % 0xffffefc7  -0.06336553394794464 %
00d4 : 00000000000000000000101001100111;  % 0x00000a67  0.04062677174806595 %
00d5 : 00000000000000000001000011100111;  % 0x000010e7  0.06602025032043457 %
00d6 : 00000000000000000000110010000000;  % 0x00000c80  0.04883351922035217 %
00d7 : 11111111111111111111011111000101;  % 0xfffff7c5  -0.03215543180704117 %
00d8 : 11111111111111111110100110111000;  % 0xffffe9b8  -0.08704017102718353 %
00d9 : 00000000000000000001000010010100;  % 0x00001094  0.0647655799984932 %
00da : 00000000000000000000110001101011;  % 0x00000c6b  0.048510998487472534 %
00db : 00000000000000000000010001010010;  % 0x00000452  0.016880270093679428 %
00dc : 11111111111111111111001111000010;  % 0xfffff3c2  -0.04782789573073387 %
00dd : 00000000000000000001010001100110;  % 0x00001466  0.07967683672904968 %
00de : 00000000000000000000110011101110;  % 0x00000cee  0.050503507256507874 %
00df : 00000000000000000001001100101111;  % 0x0000132f  0.07494114339351654 %
00e0 : 00000000000000000000000011111000;  % 0x000000f8  0.0037896872963756323 %
00e1 : 00000000000000000000100110100011;  % 0x000009a3  0.03763595223426819 %
00e2 : 00000000000000000001010011011111;  % 0x000014df  0.08152994513511658 %
00e3 : 00000000000000000001010101111000;  % 0x00001578  0.08385644853115082 %
00e4 : 11111111111111111111110110100100;  % 0xfffffda4  -0.009218797087669373 %
00e5 : 11111111111111111111011111000101;  % 0xfffff7c5  -0.03215273097157478 %
00e6 : 00000000000000000001000010001000;  % 0x00001088  0.06457722932100296 %
00e7 : 00000000000000000000000110000001;  % 0x00000181  0.005878671072423458 %
00e8 : 00000000000000000000100011010000;  % 0x000008d0  0.03442463278770447 %
00e9 : 00000000000000000000011100101000;  % 0x00000728  0.027957754209637642 %
00ea : 11111111111111111111111011001011;  % 0xfffffecb  -0.0047200522385537624 %
00eb : 11111111111111111111011111010011;  % 0xfffff7d3  -0.03193188086152077 %
00ec : 11111111111111111111110011110110;  % 0xfffffcf6  -0.011869917623698711 %
00ed : 11111111111111111110110010101111;  % 0xffffecaf  -0.07545224577188492 %
00ee : 11111111111111111111101010001110;  % 0xfffffa8e  -0.021273383870720863 %
00ef : 00000000000000000000000111101001;  % 0x000001e9  0.007455687504261732 %
00f0 : 00000000000000000000011010001100;  % 0x0000068c  0.02557796612381935 %
00f1 : 00000000000000000001010001110111;  % 0x00001477  0.07994767278432846 %
00f2 : 00000000000000000000110100011110;  % 0x00000d1e  0.05123397335410118 %
00f3 : 11111111111111111111111000111101;  % 0xfffffe3d  -0.006875240709632635 %
00f4 : 00000000000000000000001011011100;  % 0x000002dc  0.011172797530889511 %
00f5 : 00000000000000000000000011101100;  % 0x000000ec  0.00359562155790627 %
00f6 : 00000000000000000000111000011000;  % 0x00000e18  0.05504736304283142 %
00f7 : 11111111111111111111100011010101;  % 0xfffff8d5  -0.02800690196454525 %
00f8 : 11111111111111111111101101111101;  % 0xfffffb7d  -0.017618650570511818 %
00f9 : 00000000000000000000111000101100;  % 0x00000e2c  0.05535469576716423 %
00fa : 00000000000000000000010111100101;  % 0x000005e5  0.023024622350931168 %
00fb : 00000000000000000000011010010001;  % 0x00000691  0.025657162070274353 %
00fc : 00000000000000000001010111111001;  % 0x000015f9  0.08582568913698196 %
00fd : 00000000000000000000011111111101;  % 0x000007fd  0.03120257519185543 %
00fe : 00000000000000000000001001010011;  % 0x00000253  0.00908175390213728 %
00ff : 00000000000000000000111111001011;  % 0x00000fcb  0.06168580427765846 %
0100 : 11111111111111111111011111110000;  % 0xfffff7f0  -0.03150071203708649 %
0101 : 11111111111111111110111011101001;  % 0xffffeee9  -0.06675177812576294 %
0102 : 00000000000000000000111010011000;  % 0x00000e98  0.0570097453892231 %
0103 : 11111111111111111111101010101011;  % 0xfffffaab  -0.020834065973758698 %
0104 : 11111111111111111111010000101001;  % 0xfffff429  -0.04625697061419487 %
0105 : 11111111111111111110111011110000;  % 0xffffeef0  -0.06664835661649704 %
0106 : 11111111111111111111001011010110;  % 0xfffff2d6  -0.051428113132715225 %
0107 : 11111111111111111111110011111101;  % 0xfffffcfd  -0.011764447204768658 %
0108 : 11111111111111111111000011011110;  % 0xfffff0de  -0.05911128968000412 %
0109 : 11111111111111111110110101110100;  % 0xffffed74  -0.07244203984737396 %
010a : 11111111111111111110101010010011;  % 0xffffea93  -0.08369120955467224 %
010b : 00000000000000000001001111011101;  % 0x000013dd  0.07759171724319458 %
010c : 00000000000000000000111100011001;  % 0x00000f19  0.05896759778261185 %
010d : 11111111111111111111111101110000;  % 0xffffff70  -0.00219115917570889 %
010e : 11111111111111111111011000011111;  % 0xfffff61f  -0.038594458252191544 %
010f : 11111111111111111111110001000000;  % 0xfffffc40  -0.014645596966147423 %
0110 : 00000000000000000000001011111110;  % 0x000002fe  0.011683113873004913 %
0111 : 11111111111111111110111010000011;  % 0xffffee83  -0.06831513345241547 %
0112 : 11111111111111111111101001111010;  % 0xfffffa7a  -0.02157018892467022 %
0113 : 00000000000000000000011100011000;  % 0x00000718  0.027707096189260483 %
0114 : 11111111111111111110111111100100;  % 0xffffefe4  -0.06292170286178589 %
0115 : 00000000000000000000100000011010;  % 0x0000081a  0.03165244311094284 %
0116 : 11111111111111111111110001110110;  % 0xfffffc76  -0.013825245201587677 %
0117 : 11111111111111111111001011101010;  % 0xfffff2ea  -0.05112123861908913 %
0118 : 11111111111111111110111110111001;  % 0xffffefb9  -0.06358179450035095 %
0119 : 00000000000000000000000011110010;  % 0x000000f2  0.003692293306812644 %
011a : 11111111111111111110101010100000;  % 0xffffeaa0  -0.08349736779928207 %
011b : 11111111111111111111000110011100;  % 0xfffff19c  -0.05620596557855606 %
011c : 11111111111111111110111011100001;  % 0xffffeee1  -0.06687235087156296 %
011d : 00000000000000000000000111000001;  % 0x000001c1  0.006847106385976076 %
011e : 11111111111111111111000111000011;  % 0xfffff1c3  -0.05561321601271629 %
011f : 11111111111111111111110000100100;  % 0xfffffc24  -0.015073014423251152 %
0120 : 11111111111111111111111010100111;  % 0xfffffea7  -0.005271465051919222 %
0121 : 00000000000000000001001010001001;  % 0x00001289  0.07239889353513718 %
0122 : 00000000000000000000011110110000;  % 0x000007b0  0.03003065288066864 %
0123 : 11111111111111111111101001100011;  % 0xfffffa63  -0.02192387916147709 %
0124 : 00000000000000000000000000100110;  % 0x00000026  0.0005727331736125052 %
0125 : 00000000000000000000110011111111;  % 0x00000cff  0.05075850337743759 %
0126 : 00000000000000000001001010010100;  % 0x00001294  0.072566919028759 %
0127 : 11111111111111111111010010000010;  % 0xfffff482  -0.044888656586408615 %
0128 : 11111111111111111111111010001110;  % 0xfffffe8e  -0.00565165001899004 %
0129 : 00000000000000000001000011000101;  % 0x000010c5  0.06549892574548721 %
012a : 00000000000000000001000010101000;  % 0x000010a8  0.06506524980068207 %
012b : 11111111111111111111110001101000;  % 0xfffffc68  -0.01404452882707119 %
012c : 11111111111111111110111110101101;  % 0xffffefad  -0.06377314031124115 %
012d : 00000000000000000000011010010011;  % 0x00000693  0.02568754553794861 %
012e : 00000000000000000000010101110100;  % 0x00000574  0.021303126588463783 %
012f : 00000000000000000000010001000011;  % 0x00000443  0.016652364283800125 %
0130 : 11111111111111111111111000101010;  % 0xfffffe2a  -0.0071787177585065365 %
0131 : 00000000000000000000000011011011;  % 0x000000db  0.0033461691346019506 %
0132 : 11111111111111111110101101010010;  % 0xffffeb52  -0.08078449219465256 %
0133 : 11111111111111111111100010001101;  % 0xfffff88d  -0.0290946327149868 %
0134 : 00000000000000000000101100001111;  % 0x00000b0f  0.043196775019168854 %
0135 : 11111111111111111111001111100110;  % 0xfffff3e6  -0.047274935990571976 %
0136 : 11111111111111111111100001100101;  % 0xfffff865  -0.0297160055488348 %
0137 : 00000000000000000000010000010111;  % 0x00000417  0.015969086438417435 %
0138 : 00000000000000000001000111110110;  % 0x000011f6  0.07016368955373764 %
0139 : 11111111111111111111110100000010;  % 0xfffffd02  -0.01169467531144619 %
013a : 11111111111111111111100110110011;  % 0xfffff9b3  -0.024610256776213646 %
013b : 11111111111111111111011111100001;  % 0xfffff7e1  -0.0317300520837307 %
013c : 11111111111111111111010010111001;  % 0xfffff4b9  -0.04405840486288071 %
013d : 11111111111111111110101011111011;  % 0xffffeafb  -0.08211220055818558 %
013e : 00000000000000000000111010010110;  % 0x00000e96  0.05697858706116676 %
013f : 11111111111111111111110100001001;  % 0xfffffd09  -0.011573964729905128 %
0140 : 00000000000000000000111101011011;  % 0x00000f5b  0.05998944491147995 %
0141 : 11111111111111111110101011100101;  % 0xffffeae5  -0.08244924247264862 %
0142 : 00000000000000000001001110110001;  % 0x000013b1  0.07692495733499527 %
0143 : 11111111111111111111101100000101;  % 0xfffffb05  -0.019459854811429977 %
0144 : 00000000000000000000010100011010;  % 0x0000051a  0.019920941442251205 %
0145 : 11111111111111111110101001000100;  % 0xffffea44  -0.0849035382270813 %
0146 : 11111111111111111111001010111011;  % 0xfffff2bb  -0.0518287792801857 %
0147 : 11111111111111111111000010100110;  % 0xfffff0a6  -0.0599621906876564 %
0148 : 11111111111111111110111111100111;  % 0xffffefe7  -0.06288442760705948 %
0149 : 00000000000000000000010111100001;  % 0x000005e1  0.022957447916269302 %
014a : 00000000000000000000110001101100;  % 0x00000c6c  0.04852132499217987 %
014b : 11111111111111111110111100010000;  % 0xffffef10  -0.06616341322660446 %
014c : 11111111111111111110101101110110;  % 0xffffeb76  -0.08023681491613388 %
014d : 11111111111111111111000101100000;  % 0xfffff160  -0.05712490901350975 %
014e : 11111111111111111111011111011110;  % 0xfffff7de  -0.03176455572247505 %
014f : 11111111111111111110101001110001;  % 0xffffea71  -0.08422047644853592 %
0150 : 00000000000000000000101100100100;  % 0x00000b24  0.04351360350847244 %
0151 : 00000000000000000000111110111111;  % 0x00000fbf  0.06150224059820175 %
0152 : 11111111111111111110110010111010;  % 0xffffecba  -0.07529304921627045 %
0153 : 00000000000000000001001100100100;  % 0x00001324  0.07477220892906189 %
0154 : 00000000000000000000000100111011;  % 0x0000013b  0.004802925977855921 %
0155 : 11111111111111111110101110110001;  % 0xffffebb1  -0.07933688163757324 %
0156 : 00000000000000000000000011111101;  % 0x000000fd  0.0038656913675367832 %
0157 : 11111111111111111111000010001100;  % 0xfffff08c  -0.06036234274506569 %
0158 : 11111111111111111111000010001001;  % 0xfffff089  -0.060411643236875534 %
0159 : 11111111111111111110100110110100;  % 0xffffe9b4  -0.08709876239299774 %
015a : 11111111111111111110011101001001;  % 0xffffe749  -0.09653827548027039 %
015b : 11111111111111111111101011111011;  % 0xfffffafb  -0.019604314118623734 %
015c : 11111111111111111110101110010001;  % 0xffffeb91  -0.07981676608324051 %
015d : 00000000000000000000100011101001;  % 0x000008e9  0.03479958698153496 %
015e : 11111111111111111111011010000101;  % 0xfffff685  -0.037031274288892746 %
015f : 11111111111111111111000010110100;  % 0xfffff0b4  -0.059754107147455215 %
0160 : 00000000000000000000100100101011;  % 0x0000092b  0.03581443428993225 %
0161 : 11111111111111111111010000000101;  % 0xfffff405  -0.04679355025291443 %
0162 : 00000000000000000000111111111101;  % 0x00000ffd  0.062455132603645325 %
0163 : 00000000000000000001000110000101;  % 0x00001185  0.06842880696058273 %
0164 : 11111111111111111110101101101111;  % 0xffffeb6f  -0.08034441620111465 %
0165 : 00000000000000000001000001111111;  % 0x0000107f  0.0644453763961792 %
0166 : 00000000000000000000100000010100;  % 0x00000814  0.03155219182372093 %
0167 : 00000000000000000000110111110110;  % 0x00000df6  0.054534561932086945 %
0168 : 11111111111111111110111110010001;  % 0xffffef91  -0.06419596076011658 %
0169 : 11111111111111111110101111101001;  % 0xffffebe9  -0.07848343998193741 %
016a : 00000000000000000000000110101001;  % 0x000001a9  0.0064924731850624084 %
016b : 11111111111111111111111100111011;  % 0xffffff3b  -0.0030087828636169434 %
016c : 00000000000000000000100010010000;  % 0x00000890  0.03344397991895676 %
016d : 00000000000000000000000100100100;  % 0x00000124  0.004452921450138092 %
016e : 00000000000000000000001101000010;  % 0x00000342  0.012733221054077148 %
016f : 00000000000000000000001111110011;  % 0x000003f3  0.015427235513925552 %
0170 : 11111111111111111110110000100101;  % 0xffffec25  -0.0775587186217308 %
0171 : 00000000000000000000100010100101;  % 0x000008a5  0.03377160429954529 %
0172 : 00000000000000000000100111101011;  % 0x000009eb  0.038744229823350906 %
0173 : 00000000000000000000010000100111;  % 0x00000427  0.016225671395659447 %
0174 : 00000000000000000000100100000101;  % 0x00000905  0.035234905779361725 %
0175 : 11111111111111111111001000100101;  % 0xfffff225  -0.05411867797374725 %
0176 : 00000000000000000000111010100000;  % 0x00000ea0  0.05712293088436127 %
0177 : 11111111111111111111010100110101;  % 0xfffff535  -0.04215400665998459 %
0178 : 00000000000000000000010000000111;  % 0x00000407  0.01572650484740734 %
0179 : 11111111111111111110100011101110;  % 0xffffe8ee  -0.09012146294116974 %
017a : 00000000000000000001000100001000;  % 0x00001108  0.06652344018220901 %
017b : 11111111111111111110100101100100;  % 0xffffe964  -0.08831405639648438 %
017c : 00000000000000000000111011101110;  % 0x00000eee  0.05831252783536911 %
017d : 11111111111111111111110011111100;  % 0xfffffcfc  -0.011780559085309505 %
017e : 11111111111111111110100010000010;  % 0xffffe882  -0.09176583588123322 %
017f : 11111111111111111110110100101011;  % 0xffffed2b  -0.0735565572977066 %
0180 : 11111111111111111111010111110101;  % 0xfffff5f5  -0.039231814444065094 %
0181 : 00000000000000000000010011101110;  % 0x000004ee  0.01925511471927166 %
0182 : 11111111111111111111100000011101;  % 0xfffff81d  -0.030801856890320778 %
0183 : 11111111111111111111101010100001;  % 0xfffffaa1  -0.020982326939702034 %
0184 : 11111111111111111111111100111100;  % 0xffffff3c  -0.0029946225695312023 %
0185 : 11111111111111111110101101111000;  % 0xffffeb78  -0.08020608127117157 %
0186 : 00000000000000000000101011101101;  % 0x00000aed  0.04268205910921097 %
0187 : 00000000000000000000010011111111;  % 0x000004ff  0.019508786499500275 %
0188 : 11111111111111111111011110000000;  % 0xfffff780  -0.03319921717047691 %
0189 : 00000000000000000001000001110111;  % 0x00001077  0.06431276351213455 %
018a : 00000000000000000000000100100110;  % 0x00000126  0.004492402076721191 %
018b : 11111111111111111111101001101100;  % 0xfffffa6c  -0.02179325371980667 %
018c : 11111111111111111111011000101111;  % 0xfffff62f  -0.03834749013185501 %
018d : 00000000000000000001000001110100;  % 0x00001074  0.0642748475074768 %
018e : 00000000000000000001000101000000;  % 0x00001140  0.06737887114286423 %
018f : 00000000000000000000101010001101;  % 0x00000a8d  0.041212961077690125 %
0190 : 11111111111111111111101110010001;  % 0xfffffb91  -0.017311427742242813 %
0191 : 11111111111111111110100110011100;  % 0xffffe99c  -0.08746873587369919 %
0192 : 11111111111111111111010000000101;  % 0xfffff405  -0.04680073633790016 %
0193 : 11111111111111111111101010111100;  % 0xfffffabc  -0.020568115636706352 %
0194 : 11111111111111111111110011101100;  % 0xfffffcec  -0.012030704878270626 %
0195 : 00000000000000000000110110010010;  % 0x00000d92  0.05300620570778847 %
0196 : 00000000000000000000111110000000;  % 0x00000f80  0.06055409088730812 %
0197 : 00000000000000000000111001010100;  % 0x00000e54  0.05597449466586113 %
0198 : 00000000000000000000011110111001;  % 0x000007b9  0.030168375000357628 %
0199 : 00000000000000000000110100000100;  % 0x00000d04  0.050849173218011856 %
019a : 11111111111111111111111010110110;  % 0xfffffeb6  -0.005031366366893053 %
019b : 00000000000000000000110100101010;  % 0x00000d2a  0.051422931253910065 %
019c : 11111111111111111110100000011111;  % 0xffffe81f  -0.0932837724685669 %
019d : 00000000000000000000111011000110;  % 0x00000ec6  0.05770290642976761 %
019e : 11111111111111111111110011110100;  % 0xfffffcf4  -0.011905926279723644 %
019f : 00000000000000000000100010110011;  % 0x000008b3  0.0339781753718853 %
01a0 : 00000000000000000000100010001010;  % 0x0000088a  0.033360399305820465 %
01a1 : 11111111111111111111011100011001;  % 0xfffff719  -0.03476756066083908 %
01a2 : 11111111111111111111110001000000;  % 0xfffffc40  -0.014648489654064178 %
01a3 : 11111111111111111111010001001010;  % 0xfffff44a  -0.04575341194868088 %
01a4 : 11111111111111111111001010000101;  % 0xfffff285  -0.052662137895822525 %
01a5 : 11111111111111111111100110001011;  % 0xfffff98b  -0.02522793412208557 %
01a6 : 11111111111111111111001110000100;  % 0xfffff384  -0.04877452924847603 %
01a7 : 11111111111111111110110101101100;  % 0xffffed6c  -0.07256918400526047 %
01a8 : 11111111111111111111110000010110;  % 0xfffffc16  -0.015291541814804077 %
01a9 : 00000000000000000001000110010100;  % 0x00001194  0.06866481155157089 %
01aa : 11111111111111111111000100000000;  % 0xfffff100  -0.05859432741999626 %
01ab : 11111111111111111111100101000111;  % 0xfffff947  -0.02626379020512104 %
01ac : 11111111111111111111110101011000;  % 0xfffffd58  -0.01037366408854723 %
01ad : 00000000000000000000011011100000;  % 0x000006e0  0.02686140686273575 %
01ae : 11111111111111111110110110110101;  % 0xffffedb5  -0.07145459204912186 %
01af : 11111111111111111110011010010011;  % 0xffffe693  -0.09931596368551254 %
01b0 : 11111111111111111111001101110001;  % 0xfffff371  -0.04906110092997551 %
01b1 : 11111111111111111111101100101001;  % 0xfffffb29  -0.018912658095359802 %
01b2 : 11111111111111111111000100101001;  % 0xfffff129  -0.05796550214290619 %
01b3 : 00000000000000000000100111001101;  % 0x000009cd  0.038277748972177505 %
01b4 : 11111111111111111110110100111001;  % 0xffffed39  -0.07335381954908371 %
01b5 : 00000000000000000000110101111011;  % 0x00000d7b  0.052664391696453094 %
01b6 : 11111111111111111111111011011011;  % 0xfffffedb  -0.004475438501685858 %
01b7 : 00000000000000000000001011101100;  % 0x000002ec  0.01140688918530941 %
01b8 : 11111111111111111111001100101010;  % 0xfffff32a  -0.05013485625386238 %
01b9 : 11111111111111111111001110001010;  % 0xfffff38a  -0.04867548495531082 %
01ba : 00000000000000000000011101111010;  % 0x0000077a  0.029208729043602943 %
01bb : 11111111111111111111111111001000;  % 0xffffffc8  -0.0008513429202139378 %
01bc : 00000000000000000000101110100110;  % 0x00000ba6  0.04549695551395416 %
01bd : 11111111111111111111011001100100;  % 0xfffff664  -0.037534479051828384 %
01be : 00000000000000000000101110100111;  % 0x00000ba7  0.04551633447408676 %
01bf : 11111111111111111111011001111011;  % 0xfffff67b  -0.037191469222307205 %
01c0 : 11111111111111111110111001101000;  % 0xffffee68  -0.0687253475189209 %
01c1 : 00000000000000000001001110111010;  % 0x000013ba  0.07704948633909225 %
01c2 : 00000000000000000001010100010100;  % 0x00001514  0.08234260231256485 %
01c3 : 00000000000000000000100111101011;  % 0x000009eb  0.0387432686984539 %
01c4 : 11111111111111111110111000111110;  % 0xffffee3e  -0.06936271488666534 %
01c5 : 11111111111111111110100001101110;  % 0xffffe86e  -0.09207214415073395 %
01c6 : 11111111111111111110101110100010;  % 0xffffeba2  -0.07956141233444214 %
01c7 : 11111111111111111111010111101010;  % 0xfffff5ea  -0.03940269723534584 %
01c8 : 11111111111111111110110110111000;  % 0xffffedb8  -0.07140707224607468 %
01c9 : 11111111111111111111001101101010;  % 0xfffff36a  -0.04915953800082207 %
01ca : 00000000000000000000010011111011;  % 0x000004fb  0.019460247829556465 %
01cb : 11111111111111111111100001101110;  % 0xfffff86e  -0.029566071927547455 %
01cc : 11111111111111111111101100111101;  % 0xfffffb3d  -0.018605954945087433 %
01cd : 00000000000000000000110101100100;  % 0x00000d64  0.05230235308408737 %
01ce : 00000000000000000000001001000001;  % 0x00000241  0.008798778988420963 %
01cf : 00000000000000000000001111000000;  % 0x000003c0  0.01464387308806181 %
01d0 : 00000000000000000000010101010111;  % 0x00000557  0.020855329930782318 %
01d1 : 00000000000000000000000011100100;  % 0x000000e4  0.0034819559659808874 %
01d2 : 11111111111111111111110110010001;  % 0xfffffd91  -0.009512851014733315 %
01d3 : 00000000000000000000111100001010;  % 0x00000f0a  0.058743394911289215 %
01d4 : 00000000000000000000100010101011;  % 0x000008ab  0.03386614844202995 %
01d5 : 00000000000000000000011001001010;  % 0x0000064a  0.02457098290324211 %
01d6 : 11111111111111111111011100100001;  % 0xfffff721  -0.03465525433421135 %
01d7 : 11111111111111111111010100011110;  % 0xfffff51e  -0.04251009598374367 %
01d8 : 11111111111111111110010111100010;  % 0xffffe5e2  -0.10201328247785568 %
01d9 : 00000000000000000000101010011101;  % 0x00000a9d  0.041464775800704956 %
01da : 11111111111111111111101011010111;  % 0xfffffad7  -0.02015155553817749 %
01db : 00000000000000000000100111011110;  % 0x000009de  0.03853671997785568 %
01dc : 00000000000000000000110101111100;  % 0x00000d7c  0.05267088860273361 %
01dd : 00000000000000000000110101001100;  % 0x00000d4c  0.05193943530321121 %
01de : 11111111111111111110111000001100;  % 0xffffee0c  -0.07012216746807098 %
01df : 00000000000000000001000010011010;  % 0x0000109a  0.0648571252822876 %
01e0 : 00000000000000000001001101000010;  % 0x00001342  0.07523278146982193 %
01e1 : 11111111111111111111111101000011;  % 0xffffff43  -0.002888001734390855 %
01e2 : 00000000000000000000101000100001;  % 0x00000a21  0.03955952078104019 %
01e3 : 11111111111111111111110100001101;  % 0xfffffd0d  -0.011523653753101826 %
01e4 : 11111111111111111110100100000110;  % 0xffffe906  -0.0897490531206131 %
01e5 : 00000000000000000000010110000110;  % 0x00000586  0.021573755890130997 %
01e6 : 11111111111111111110011111111110;  % 0xffffe7fe  -0.09378501027822495 %
01e7 : 11111111111111111111000000010011;  % 0xfffff013  -0.062208402901887894 %
01e8 : 00000000000000000001010000100000;  % 0x00001420  0.07861417531967163 %
01e9 : 00000000000000000001010010101010;  % 0x000014aa  0.08072631061077118 %
01ea : 00000000000000000000010011111000;  % 0x000004f8  0.01941576786339283 %
01eb : 11111111111111111110110000111000;  % 0xffffec38  -0.07727397233247757 %
01ec : 11111111111111111110111000011000;  % 0xffffee18  -0.06995129585266113 %
01ed : 11111111111111111111011000111101;  % 0xfffff63d  -0.038137614727020264 %
01ee : 11111111111111111110110111001100;  % 0xffffedcc  -0.07111245393753052 %
01ef : 11111111111111111110101001010011;  % 0xffffea53  -0.08466987311840057 %
01f0 : 00000000000000000001000010000010;  % 0x00001082  0.06448259949684143 %
01f1 : 11111111111111111110101010001111;  % 0xffffea8f  -0.0837557315826416 %
01f2 : 00000000000000000000000000111011;  % 0x0000003b  0.0009041115990839899 %
01f3 : 00000000000000000000001111001111;  % 0x000003cf  0.014883086085319519 %
01f4 : 00000000000000000001000011000001;  % 0x000010c1  0.06544774770736694 %
01f5 : 11111111111111111111010111101100;  % 0xfffff5ec  -0.03936966136097908 %
01f6 : 11111111111111111111111101111111;  % 0xffffff7f  -0.0019690280314534903 %
01f7 : 11111111111111111111000010001110;  % 0xfffff08e  -0.06033876910805702 %
01f8 : 00000000000000000001001001111000;  % 0x00001278  0.07214100658893585 %
01f9 : 00000000000000000001010000010001;  % 0x00001411  0.07838178426027298 %
01fa : 11111111111111111111100111010110;  % 0xfffff9d6  -0.02407604455947876 %
01fb : 11111111111111111111100110010010;  % 0xfffff992  -0.025112764909863472 %
01fc : 00000000000000000001000001111100;  % 0x0000107c  0.06439772248268127 %
01fd : 11111111111111111110111011111011;  % 0xffffeefb  -0.06647990643978119 %
01fe : 00000000000000000000001110000010;  % 0x00000382  0.013704152777791023 %
01ff : 11111111111111111110110100000001;  % 0xffffed01  -0.07420668005943298 %
0200 : 00000000000000000000110000011001;  % 0x00000c19  0.047264035791158676 %
0201 : 11111111111111111110010001011000;  % 0xffffe458  -0.1080259382724762 %
0202 : 11111111111111111111100000011001;  % 0xfffff819  -0.03086664155125618 %
0203 : 11111111111111111111010101110110;  % 0xfffff576  -0.04116607457399368 %
0204 : 11111111111111111111110111100000;  % 0xfffffde0  -0.008304518647491932 %
0205 : 11111111111111111111111000000100;  % 0xfffffe04  -0.007744842674583197 %
0206 : 11111111111111111111111011100011;  % 0xfffffee3  -0.004350511822849512 %
0207 : 00000000000000000000011111010010;  % 0x000007d2  0.0305529423058033 %
0208 : 00000000000000000000011101001000;  % 0x00000748  0.028438402339816093 %
0209 : 00000000000000000000100100100010;  % 0x00000922  0.035673968493938446 %
020a : 11111111111111111110111101100100;  % 0xffffef64  -0.06487825512886047 %
020b : 00000000000000000000110001101011;  % 0x00000c6b  0.04850059375166893 %
020c : 00000000000000000000010100001001;  % 0x00000509  0.019673779606819153 %
020d : 11111111111111111110100001010111;  % 0xffffe857  -0.09242835640907288 %
020e : 00000000000000000000000001001110;  % 0x0000004e  0.0011840973747894168 %
020f : 11111111111111111111101011101001;  % 0xfffffae9  -0.019877025857567787 %
0210 : 11111111111111111111001101000011;  % 0xfffff343  -0.04976540803909302 %
0211 : 11111111111111111111101010110011;  % 0xfffffab3  -0.020703591406345367 %
0212 : 11111111111111111111010011111001;  % 0xfffff4f9  -0.04307085648179054 %
0213 : 11111111111111111111110111001100;  % 0xfffffdcc  -0.008598648011684418 %
0214 : 00000000000000000000001101001001;  % 0x00000349  0.01283780112862587 %
0215 : 11111111111111111111111010100000;  % 0xfffffea0  -0.00536932609975338 %
0216 : 11111111111111111111010001001111;  % 0xfffff44f  -0.04566609114408493 %
0217 : 11111111111111111111100101011010;  % 0xfffff95a  -0.025976676493883133 %
0218 : 11111111111111111111001001011111;  % 0xfffff25f  -0.053243860602378845 %
0219 : 11111111111111111111110111000011;  % 0xfffffdc3  -0.008745841681957245 %
021a : 11111111111111111111000111101010;  % 0xfffff1ea  -0.0550224669277668 %
021b : 00000000000000000000110001111000;  % 0x00000c78  0.04870057478547096 %
021c : 11111111111111111111010001000111;  % 0xfffff447  -0.0457979179918766 %
021d : 11111111111111111110011011001101;  % 0xffffe6cd  -0.09842744469642639 %
021e : 00000000000000000000001011100000;  % 0x000002e0  0.011228862218558788 %
021f : 00000000000000000001000111000111;  % 0x000011c7  0.06944431364536285 %
0220 : 00000000000000000000001110111000;  % 0x000003b8  0.014519290067255497 %
0221 : 00000000000000000000101100100011;  % 0x00000b23  0.04349744692444801 %
0222 : 00000000000000000000010111010001;  % 0x000005d1  0.022713426500558853 %
0223 : 00000000000000000000100101110001;  % 0x00000971  0.03687911853194237 %
0224 : 00000000000000000000100100100110;  % 0x00000926  0.035730812698602676 %
0225 : 11111111111111111111000011011001;  % 0xfffff0d9  -0.05918427184224129 %
0226 : 11111111111111111111110111111111;  % 0xfffffdff  -0.007834894582629204 %
0227 : 00000000000000000001000100101111;  % 0x0000112f  0.0671163946390152 %
0228 : 11111111111111111111011001011101;  % 0xfffff65d  -0.03764490410685539 %
0229 : 00000000000000000001001110001100;  % 0x0000138c  0.07635825127363205 %
022a : 11111111111111111110111110101001;  % 0xffffefa9  -0.06382184475660324 %
022b : 00000000000000000000000001110001;  % 0x00000071  0.0017289185198023915 %
022c : 00000000000000000001001011101010;  % 0x000012ea  0.07388676702976227 %
022d : 11111111111111111111000010101001;  % 0xfffff0a9  -0.05992754548788071 %
022e : 00000000000000000000000110001101;  % 0x0000018d  0.0060595315881073475 %
022f : 00000000000000000000000111111010;  % 0x000001fa  0.007722638547420502 %
0230 : 00000000000000000000011011000110;  % 0x000006c6  0.026454448699951172 %
0231 : 00000000000000000001010010100101;  % 0x000014a5  0.08064021915197372 %
0232 : 00000000000000000001010100101010;  % 0x0000152a  0.0826716348528862 %
0233 : 00000000000000000001011000101100;  % 0x0000162c  0.08660145103931427 %
0234 : 00000000000000000000010110010111;  % 0x00000597  0.02183757908642292 %
0235 : 11111111111111111111001100101100;  % 0xfffff32c  -0.050106652081012726 %
0236 : 11111111111111111111110100100011;  % 0xfffffd23  -0.011179198510944843 %
0237 : 11111111111111111111100011111110;  % 0xfffff8fe  -0.02737814001739025 %
0238 : 11111111111111111111001011100110;  % 0xfffff2e6  -0.051170457154512405 %
0239 : 11111111111111111111011100110100;  % 0xfffff734  -0.03436863049864769 %
023a : 11111111111111111110101010101010;  % 0xffffeaaa  -0.08334247767925262 %
023b : 00000000000000000000000101000011;  % 0x00000143  0.004925010725855827 %
023c : 11111111111111111110111101000010;  % 0xffffef42  -0.06539393961429596 %
023d : 11111111111111111110111010010001;  % 0xffffee91  -0.06809380650520325 %
023e : 11111111111111111111111001111100;  % 0xfffffe7c  -0.005926461424678564 %
023f : 00000000000000000000001101010100;  % 0x00000354  0.013007520698010921 %
0240 : 11111111111111111111010111001000;  % 0xfffff5c8  -0.039919186383485794 %
0241 : 00000000000000000000101001110011;  % 0x00000a73  0.040818262845277786 %
0242 : 00000000000000000000000000101101;  % 0x0000002d  0.0006793354405090213 %
0243 : 11111111111111111110110011000111;  % 0xffffecc7  -0.07508660852909088 %
0244 : 00000000000000000000111111111110;  % 0x00000ffe  0.06246941536664963 %
0245 : 00000000000000000000100011010101;  % 0x000008d5  0.03450644016265869 %
0246 : 11111111111111111111111000000110;  % 0xfffffe06  -0.007723212242126465 %
0247 : 11111111111111111111100001001101;  % 0xfffff84d  -0.030068932101130486 %
0248 : 11111111111111111111010000110000;  % 0xfffff430  -0.046141330152750015 %
0249 : 11111111111111111111001101101111;  % 0xfffff36f  -0.04909050837159157 %
024a : 00000000000000000001000111000110;  % 0x000011c6  0.06943058967590332 %
024b : 00000000000000000000011101101100;  % 0x0000076c  0.02898777276277542 %
024c : 00000000000000000000111100111010;  % 0x00000f3a  0.059481605887413025 %
024d : 00000000000000000000101011001001;  % 0x00000ac9  0.04213254526257515 %
024e : 11111111111111111111110000000011;  % 0xfffffc03  -0.01557510532438755 %
024f : 11111111111111111111101101101101;  % 0xfffffb6d  -0.01786826364696026 %
0250 : 11111111111111111110111010000011;  % 0xffffee83  -0.06831837445497513 %
0251 : 11111111111111111111010110111100;  % 0xfffff5bc  -0.040100179612636566 %
0252 : 11111111111111111110111011101100;  % 0xffffeeec  -0.06670412421226501 %
0253 : 00000000000000000001010000101100;  % 0x0000142c  0.078803651034832 %
0254 : 11111111111111111110111101100000;  % 0xffffef60  -0.06493857502937317 %
0255 : 11111111111111111111001111010100;  % 0xfffff3d4  -0.047539323568344116 %
0256 : 11111111111111111110111011101001;  % 0xffffeee9  -0.06675948947668076 %
0257 : 00000000000000000000001000010101;  % 0x00000215  0.008135401643812656 %
0258 : 00000000000000000000011100101001;  % 0x00000729  0.02796766348183155 %
0259 : 00000000000000000000010001000011;  % 0x00000443  0.016648102551698685 %
025a : 00000000000000000000110101111010;  % 0x00000d7a  0.05263795331120491 %
025b : 00000000000000000000011010001101;  % 0x0000068d  0.025590477511286736 %
025c : 00000000000000000001000010000000;  % 0x00001080  0.06444947421550751 %
025d : 00000000000000000001001101011011;  % 0x0000135b  0.07561172544956207 %
025e : 00000000000000000001011101000101;  % 0x00001745  0.09089081734418869 %
025f : 00000000000000000001000011101100;  % 0x000010ec  0.06610420346260071 %
0260 : 00000000000000000000000010110001;  % 0x000000b1  0.002707209438085556 %
0261 : 00000000000000000001100010100010;  % 0x000018a2  0.09621982276439667 %
0262 : 00000000000000000000101110011111;  % 0x00000b9f  0.045393478125333786 %
0263 : 11111111111111111111101000001001;  % 0xfffffa09  -0.02330261655151844 %
0264 : 11111111111111111110111011100111;  % 0xffffeee7  -0.06678299605846405 %
0265 : 00000000000000000000010000110001;  % 0x00000431  0.016372090205550194 %
0266 : 11111111111111111111000100011101;  % 0xfffff11d  -0.0581514947116375 %
0267 : 00000000000000000000011011101011;  % 0x000006eb  0.027017764747142792 %
0268 : 11111111111111111110101000101110;  % 0xffffea2e  -0.08523647487163544 %
0269 : 00000000000000000000100011110111;  % 0x000008f7  0.035015884786844254 %
026a : 00000000000000000000000010000010;  % 0x00000082  0.0019883897621184587 %
026b : 11111111111111111111000111000000;  % 0xfffff1c0  -0.05565956234931946 %
026c : 00000000000000000000001001100111;  % 0x00000267  0.00938560999929905 %
026d : 00000000000000000000010011010011;  % 0x000004d3  0.01884203590452671 %
026e : 00000000000000000000101110101001;  % 0x00000ba9  0.04555104672908783 %
026f : 11111111111111111111011101000011;  % 0xfffff743  -0.03412840887904167 %
0270 : 11111111111111111111000011101100;  % 0xfffff0ec  -0.05889268219470978 %
0271 : 11111111111111111111110010000100;  % 0xfffffc84  -0.013613719493150711 %
0272 : 11111111111111111110111100010011;  % 0xffffef13  -0.06612017005681992 %
0273 : 00000000000000000000011011110011;  % 0x000006f3  0.027143891900777817 %
0274 : 11111111111111111110111011010111;  % 0xffffeed7  -0.06703666597604752 %
0275 : 00000000000000000000100100011011;  % 0x0000091b  0.03556441143155098 %
0276 : 11111111111111111111011100000101;  % 0xfffff705  -0.03508612513542175 %
0277 : 11111111111111111111010110010010;  % 0xfffff592  -0.04074782505631447 %
0278 : 00000000000000000001001100011000;  % 0x00001318  0.07458730787038803 %
0279 : 00000000000000000000001101110000;  % 0x00000370  0.013431533239781857 %
027a : 11111111111111111111010101101101;  % 0xfffff56d  -0.04130936041474342 %
027b : 11111111111111111111110000011011;  % 0xfffffc1b  -0.01521950215101242 %
027c : 11111111111111111111110110101111;  % 0xfffffdaf  -0.009055523201823235 %
027d : 11111111111111111111000011100000;  % 0xfffff0e0  -0.05907817557454109 %
027e : 11111111111111111110110111011000;  % 0xffffedd8  -0.07091531902551651 %
027f : 11111111111111111111111000101000;  % 0xfffffe28  -0.007202574983239174 %
0280 : 11111111111111111111010111100001;  % 0xfffff5e1  -0.03953702375292778 %
0281 : 00000000000000000000100110001010;  % 0x0000098a  0.03726910054683685 %
0282 : 00000000000000000000011011010001;  % 0x000006d1  0.026622479781508446 %
0283 : 11111111111111111111001101110110;  % 0xfffff376  -0.04897349327802658 %
0284 : 00000000000000000000010001110100;  % 0x00000474  0.017395615577697754 %
0285 : 00000000000000000000000101011100;  % 0x0000015c  0.005309358239173889 %
0286 : 11111111111111111111101000100100;  % 0xfffffa24  -0.02288416400551796 %
0287 : 11111111111111111111111000001111;  % 0xfffffe0f  -0.007588175591081381 %
0288 : 11111111111111111111110011000010;  % 0xfffffcc2  -0.012669019401073456 %
0289 : 11111111111111111110110010101001;  % 0xffffeca9  -0.07555360347032547 %
028a : 00000000000000000000110001000111;  % 0x00000c47  0.047961343079805374 %
028b : 11111111111111111110110110111001;  % 0xffffedb9  -0.07138949632644653 %
028c : 00000000000000000000000010101101;  % 0x000000ad  0.0026377474423497915 %
028d : 00000000000000000000111110111110;  % 0x00000fbe  0.06148968264460564 %
028e : 11111111111111111111101101100000;  % 0xfffffb60  -0.01806960068643093 %
028f : 11111111111111111111111011100010;  % 0xfffffee2  -0.00436939112842083 %
0290 : 11111111111111111111101101010010;  % 0xfffffb52  -0.018276620656251907 %
0291 : 11111111111111111111001001110110;  % 0xfffff276  -0.052881043404340744 %
0292 : 11111111111111111110110110001101;  % 0xffffed8d  -0.07206171751022339 %
0293 : 00000000000000000000100101110111;  % 0x00000977  0.03697824478149414 %
0294 : 11111111111111111110110110001111;  % 0xffffed8f  -0.07203885167837143 %
0295 : 11111111111111111111010111010001;  % 0xfffff5d1  -0.03977537900209427 %
0296 : 00000000000000000000101111111100;  % 0x00000bfc  0.04681374505162239 %
0297 : 00000000000000000000101110000010;  % 0x00000b82  0.044951144605875015 %
0298 : 00000000000000000001100100000100;  % 0x00001904  0.09771141409873962 %
0299 : 11111111111111111111111000110001;  % 0xfffffe31  -0.007062553893774748 %
029a : 11111111111111111110111110000001;  % 0xffffef81  -0.06443695724010468 %
029b : 11111111111111111110110000100111;  % 0xffffec27  -0.07752557098865509 %
029c : 00000000000000000000000110011100;  % 0x0000019c  0.006284375675022602 %
029d : 11111111111111111111000111110000;  % 0xfffff1f0  -0.054930202662944794 %
029e : 11111111111111111110111101100010;  % 0xffffef62  -0.06490706652402878 %
029f : 00000000000000000000111111110000;  % 0x00000ff0  0.06225598603487015 %
02a0 : 00000000000000000000100110110001;  % 0x000009b1  0.037855930626392365 %
02a1 : 00000000000000000000111010000111;  % 0x00000e87  0.056749798357486725 %
02a2 : 11111111111111111111100111101010;  % 0xfffff9ea  -0.023775607347488403 %
02a3 : 00000000000000000000000101010101;  % 0x00000155  0.005197943653911352 %
02a4 : 11111111111111111111011011100101;  % 0xfffff6e5  -0.03556535020470619 %
02a5 : 00000000000000000000101011111101;  % 0x00000afd  0.04292244091629982 %
02a6 : 11111111111111111111100000110111;  % 0xfffff837  -0.03040536493062973 %
02a7 : 00000000000000000000110010001110;  % 0x00000c8e  0.049035388976335526 %
02a8 : 11111111111111111111011110101111;  % 0xfffff7af  -0.03247877582907677 %
02a9 : 00000000000000000000100110111011;  % 0x000009bb  0.0380035899579525 %
02aa : 11111111111111111110101000001100;  % 0xffffea0c  -0.08575546741485596 %
02ab : 11111111111111111111111001001100;  % 0xfffffe4c  -0.006653721444308758 %
02ac : 11111111111111111111001101010100;  % 0xfffff354  -0.04949748143553734 %
02ad : 11111111111111111111110011001100;  % 0xfffffccc  -0.012515888549387455 %
02ae : 00000000000000000000010011000001;  % 0x000004c1  0.018576784059405327 %
02af : 11111111111111111111111101100110;  % 0xffffff66  -0.0023489634040743113 %
02b0 : 11111111111111111111010011001001;  % 0xfffff4c9  -0.043810296803712845 %
02b1 : 00000000000000000000010000101110;  % 0x0000042e  0.01631956733763218 %
02b2 : 11111111111111111111110001010101;  % 0xfffffc55  -0.014327581971883774 %
02b3 : 00000000000000000000110111101010;  % 0x00000dea  0.05434799566864967 %
02b4 : 11111111111111111111001110101100;  % 0xfffff3ac  -0.04816048964858055 %
02b5 : 00000000000000000000111101111010;  % 0x00000f7a  0.06046058237552643 %
02b6 : 11111111111111111110111110110000;  % 0xffffefb0  -0.06372075527906418 %
02b7 : 11111111111111111111101110100100;  % 0xfffffba4  -0.017034851014614105 %
02b8 : 11111111111111111111010010001000;  % 0xfffff488  -0.044802721589803696 %
02b9 : 11111111111111111111011000100011;  % 0xfffff623  -0.03853057324886322 %
02ba : 11111111111111111111111101101011;  % 0xffffff6b  -0.0022690072655677795 %
02bb : 00000000000000000000011111010010;  % 0x000007d2  0.030546121299266815 %
02bc : 00000000000000000001000010000000;  % 0x00001080  0.06445401161909103 %
02bd : 00000000000000000000111100000010;  % 0x00000f02  0.05862777680158615 %
02be : 11111111111111111111001000000001;  % 0xfffff201  -0.05466762185096741 %
02bf : 00000000000000000000010000010111;  % 0x00000417  0.015979759395122528 %
02c0 : 00000000000000000001000011100111;  % 0x000010e7  0.06602305173873901 %
02c1 : 00000000000000000000111010001111;  % 0x00000e8f  0.056867800652980804 %
02c2 : 11111111111111111111110011011011;  % 0xfffffcdb  -0.012279494665563107 %
02c3 : 00000000000000000001010011100100;  % 0x000014e4  0.081597700715065 %
02c4 : 11111111111111111111111011110010;  % 0xfffffef2  -0.004118199460208416 %
02c5 : 00000000000000000000100110000110;  % 0x00000986  0.03720353543758392 %
02c6 : 11111111111111111110101000111000;  % 0xffffea38  -0.08507974445819855 %
02c7 : 11111111111111111110110011011100;  % 0xffffecdc  -0.0747709572315216 %
02c8 : 11111111111111111111101111101010;  % 0xfffffbea  -0.01595385931432247 %
02c9 : 00000000000000000000011011000101;  % 0x000006c5  0.026442665606737137 %
02ca : 11111111111111111111010101101010;  % 0xfffff56a  -0.0413442924618721 %
02cb : 11111111111111111110110110011001;  % 0xffffed99  -0.07188047468662262 %
02cc : 00000000000000000000001010111100;  % 0x000002bc  0.010684633627533913 %
02cd : 00000000000000000001000010100100;  % 0x000010a4  0.06500177085399628 %
02ce : 11111111111111111110100111111110;  % 0xffffe9fe  -0.08596619218587875 %
02cf : 00000000000000000000110101010110;  % 0x00000d56  0.05209491401910782 %
02d0 : 00000000000000000000101010111010;  % 0x00000aba  0.04190092533826828 %
02d1 : 00000000000000000000000001111100;  % 0x0000007c  0.0018966972129419446 %
02d2 : 00000000000000000000110110100010;  % 0x00000da2  0.053256403654813766 %
02d3 : 11111111111111111111001101011110;  % 0xfffff35e  -0.04934028908610344 %
02d4 : 00000000000000000001001011000000;  % 0x000012c0  0.07323464006185532 %
02d5 : 11111111111111111110111010001011;  % 0xffffee8b  -0.06818746030330658 %
02d6 : 11111111111111111110110110011110;  % 0xffffed9e  -0.07180694490671158 %
02d7 : 11111111111111111111001010011000;  % 0xfffff298  -0.052361514419317245 %
02d8 : 00000000000000000000101101110011;  % 0x00000b73  0.044720448553562164 %
02d9 : 00000000000000000001000000000011;  % 0x00001003  0.06254079192876816 %
02da : 00000000000000000001001101111101;  % 0x0000137d  0.07612519711256027 %
02db : 00000000000000000000001111010000;  % 0x000003d0  0.014894269406795502 %
02dc : 00000000000000000000111100110000;  % 0x00000f30  0.0593225471675396 %
02dd : 00000000000000000000100100010000;  % 0x00000910  0.03540476784110069 %
02de : 11111111111111111111110111100010;  % 0xfffffde2  -0.008271241560578346 %
02df : 11111111111111111111111001011010;  % 0xfffffe5a  -0.006443174090236425 %
02e0 : 00000000000000000001010110010010;  % 0x00001592  0.08426659554243088 %
02e1 : 00000000000000000001001111001100;  % 0x000013cc  0.07733196020126343 %
02e2 : 00000000000000000000010011011011;  % 0x000004db  0.018959082663059235 %
02e3 : 00000000000000000000101000110110;  % 0x00000a36  0.039883654564619064 %
02e4 : 11111111111111111111110001010000;  % 0xfffffc50  -0.01440911740064621 %
02e5 : 11111111111111111111111010110111;  % 0xfffffeb7  -0.005027654580771923 %
02e6 : 00000000000000000000100101001101;  % 0x0000094d  0.036334745585918427 %
02e7 : 11111111111111111110111010001000;  % 0xffffee88  -0.06824461370706558 %
02e8 : 00000000000000000000010011001000;  % 0x000004c8  0.018674012273550034 %
02e9 : 11111111111111111111111001110111;  % 0xfffffe77  -0.006004003807902336 %
02ea : 00000000000000000000100111011111;  % 0x000009df  0.038560960441827774 %
02eb : 11111111111111111111001011100010;  % 0xfffff2e2  -0.051234591752290726 %
02ec : 11111111111111111111100001110001;  % 0xfffff871  -0.029524127021431923 %
02ed : 00000000000000000000010010110000;  % 0x000004b0  0.018308846279978752 %
02ee : 00000000000000000001010011000011;  % 0x000014c3  0.08109534531831741 %
02ef : 00000000000000000001000001001010;  % 0x0000104a  0.06363517791032791 %
02f0 : 11111111111111111110101101111110;  % 0xffffeb7e  -0.08010600507259369 %
02f1 : 00000000000000000000110101011101;  % 0x00000d5d  0.0522032156586647 %
02f2 : 00000000000000000000001001100110;  % 0x00000266  0.009365610778331757 %
02f3 : 11111111111111111111001111101101;  % 0xfffff3ed  -0.04716175049543381 %
02f4 : 00000000000000000000110011000101;  % 0x00000cc5  0.049883343279361725 %
02f5 : 00000000000000000000011000010010;  % 0x00000612  0.023709729313850403 %
02f6 : 00000000000000000001011000101010;  % 0x0000162a  0.08657213300466537 %
02f7 : 11111111111111111111100101011011;  % 0xfffff95b  -0.02596188709139824 %
02f8 : 00000000000000000001000001111111;  % 0x0000107f  0.06443764269351959 %
02f9 : 00000000000000000000001100100101;  % 0x00000325  0.012277432717382908 %
02fa : 11111111111111111111000111001101;  % 0xfffff1cd  -0.05547107011079788 %
02fb : 00000000000000000001001111100111;  % 0x000013e7  0.07773862779140472 %
02fc : 00000000000000000001000001101001;  % 0x00001069  0.06409904360771179 %
02fd : 00000000000000000001011000110110;  % 0x00001636  0.08676370978355408 %
02fe : 00000000000000000000100000001010;  % 0x0000080a  0.031397853046655655 %
02ff : 11111111111111111111100101110110;  % 0xfffff976  -0.025538483634591103 %
0300 : 11111111111111111111010111100000;  % 0xfffff5e0  -0.03954935818910599 %
0301 : 00000000000000000000000010110000;  % 0x000000b0  0.002691387664526701 %
0302 : 11111111111111111111011010110000;  % 0xfffff6b0  -0.03638182953000069 %
0303 : 11111111111111111111010100000000;  % 0xfffff500  -0.04297366365790367 %
0304 : 00000000000000000000101101110100;  % 0x00000b74  0.044732797890901566 %
0305 : 11111111111111111111000111110110;  % 0xfffff1f6  -0.0548429861664772 %
0306 : 11111111111111111110111010000101;  % 0xffffee85  -0.06828899681568146 %
0307 : 11111111111111111110101001111000;  % 0xffffea78  -0.08410146832466125 %
0308 : 00000000000000000000101100010101;  % 0x00000b15  0.04329226166009903 %
0309 : 11111111111111111111110011000011;  % 0xfffffcc3  -0.012656226754188538 %
030a : 00000000000000000000110001000000;  % 0x00000c40  0.0478590652346611 %
030b : 00000000000000000000001100100011;  % 0x00000323  0.012245342135429382 %
030c : 11111111111111111110101110011011;  % 0xffffeb9b  -0.07966067641973495 %
030d : 11111111111111111111110010011101;  % 0xfffffc9d  -0.013233393430709839 %
030e : 00000000000000000001001000100011;  % 0x00001223  0.07084573060274124 %
030f : 11111111111111111110111101110110;  % 0xffffef76  -0.06460309028625488 %
END;
