00000000000000000000110110001101
00000000000000000000001000110000
00000000000000000000010101011110
11111111111111111111100100000001
00000000000000000000111000011100
11111111111111111110111010111111
11111111111111111111001011000011
00000000000000000000010010111111
00000000000000000000101100100011
11111111111111111111001011100010
11111111111111111111000111111100
00000000000000000000010011111001
00000000000000000000101010001010
11111111111111111111011000001100
11111111111111111111011100001001
11111111111111111111111000011111
11111111111111111110101111001001
11111111111111111111110001100011
00000000000000000001001101010001
11111111111111111111010110001000
11111111111111111111111100011110
00000000000000000000001010110000
00000000000000000000110001011011
00000000000000000000100100111100
11111111111111111111010000001100
11111111111111111111010001010000
11111111111111111110101110100101
00000000000000000001000001001001
11111111111111111110101111000100
11111111111111111111001000001111
00000000000000000000100001111111
00000000000000000000110001011011
00000000000000000000000011110001
11111111111111111111101110011001
00000000000000000001000110110111
00000000000000000000100110010100
00000000000000000000111101100000
11111111111111111111101000101001
00000000000000000000000100100100
11111111111111111110111101101100
11111111111111111111000111110111
00000000000000000000111100001100
11111111111111111111100010111111
11111111111111111111000011010101
11111111111111111110110011111110
00000000000000000000000010011110
11111111111111111110111010101100
00000000000000000000010001100101
11111111111111111111001010010111
11111111111111111111010111110011
00000000000000000001001000010100
11111111111111111111110110111110
11111111111111111111111000001110
00000000000000000000001001101101
00000000000000000000000101010110
11111111111111111111011111110111
11111111111111111110110111001011
00000000000000000000001101011110
00000000000000000000001010001000
11111111111111111111001110110010
00000000000000000000101010011110
00000000000000000000101101100010
00000000000000000000111000000110
11111111111111111110110000001110
00000000000000000000001101110001
00000000000000000001000000111111
00000000000000000000000000100010
11111111111111111111101001010111
11111111111111111111000001011111
11111111111111111110111100111101
00000000000000000000010101100110
11111111111111111111001011110110
00000000000000000000100100111001
00000000000000000000100111010111
00000000000000000000111000100010
11111111111111111111010100011000
00000000000000000000100010000111
11111111111111111110101101100110
00000000000000000000011100110001
00000000000000000001010101011101
00000000000000000000010101111110
11111111111111111111001011011100
11111111111111111110111101101001
11111111111111111111001111111010
11111111111111111111000010101101
00000000000000000001001111110100
11111111111111111111011011011010
00000000000000000000111101110110
11111111111111111111111010001010
00000000000000000001000000110000
00000000000000000000001011010101
11111111111111111110110001011001
00000000000000000000011011101000
11111111111111111111001100110010
00000000000000000000010101110001
11111111111111111111001101001111
00000000000000000000001110010100
11111111111111111111010111100111
11111111111111111111010001111111
00000000000000000001010111011000
11111111111111111111010000011011
00000000000000000000011000010001
00000000000000000000000010111110
00000000000000000001100100111101
00000000000000000001000110000111
00000000000000000001010100000100
00000000000000000000011110001010
00000000000000000001011001001110
11111111111111111111001101101000
11111111111111111111100001000111
11111111111111111111010000111011
11111111111111111111110010011100
11111111111111111111111111111010
11111111111111111111110011110101
00000000000000000000101001010110
11111111111111111110111111110011
11111111111111111111010011010100
00000000000000000000011000111011
11111111111111111110100111101011
00000000000000000000000001100011
11111111111111111110100010010110
11111111111111111110001111110101
11111111111111111110011111001011
00000000000000000000101101011010
11111111111111111110101010011100
00000000000000000000001010001001
11111111111111111110101000111100
00000000000000000000101110100010
11111111111111111111101110101111
00000000000000000000010011000000
00000000000000000000011010010001
11111111111111111111101100010100
11111111111111111111010001011001
00000000000000000001001100000011
00000000000000000001000001111010
00000000000000000000010111011100
00000000000000000010000010001110
00000000000000000000101011111001
00000000000000000000110000010100
11111111111111111111011001101100
00000000000000000001001001100100
11111111111111111111111110111010
00000000000000000000111001001000
11111111111111111110101100001011
11111111111111111111110001001111
11111111111111111110100010101001
00000000000000000000000111011000
11111111111111111110011011111100
00000000000000000000000011010000
11111111111111111111010100111001
00000000000000000000000011000010
00000000000000000000100011001011
11111111111111111110110001110110
11111111111111111111111000011100
00000000000000000000100001100100
11111111111111111111011010110010
00000000000000000000000000111110
00000000000000000000101010000110
00000000000000000000011011000010
00000000000000000000000100001011
00000000000000000000101011011011
00000000000000000000100100100110
00000000000000000000001111010101
00000000000000000000100010111000
00000000000000000001000011110100
00000000000000000000001011111010
00000000000000000001100000011001
00000000000000000000111110000011
11111111111111111111001110001101
00000000000000000000001010110010
00000000000000000000011001100011
11111111111111111111111101000010
11111111111111111111110101001001
11111111111111111111001011101101
11111111111111111111100011001100
11111111111111111111000101011101
11111111111111111111100001010010
00000000000000000000001111100100
11111111111111111111011000110011
00000000000000000000100111101001
11111111111111111111100001111010
11111111111111111111111010000110
11111111111111111111001011001100
11111111111111111111111011100111
00000000000000000000000110111111
00000000000000000000000101100111
11111111111111111111010001000010
00000000000000000001010001101101
00000000000000000000000010011011
00000000000000000000101111001001
00000000000000000001001001000101
00000000000000000001011001000100
00000000000000000011000110010100
00000000000000000001001010101001
00000000000000000001001111101100
11111111111111111111001001111010
11111111111111111111110001010100
00000000000000000000101001111111
11111111111111111111111010000100
00000000000000000000000111011011
11111111111111111111011101101000
11111111111111111110110011001111
11111111111111111111000111100100
11111111111111111111011001111101
00000000000000000000111100000111
11111111111111111111110111000011
00000000000000000001010001101100
11111111111111111111100111011101
00000000000000000000010010001101
11111111111111111111010000100000
00000000000000000000010110000001
11111111111111111111111010001101
11111111111111111111111010111111
00000000000000000000100011010001
00000000000000000000100110110111
11111111111111111111110101000010
00000000000000000001000100111000
11111111111111111111111001001110
00000000000000000001011011000111
00000000000000000010001100100110
00000000000000000001111101010000
00000000000000000010001110000111
11111111111111111111101110011010
11111111111111111111111011011011
00000000000000000001010010010111
00000000000000000001010011110010
11111111111111111111001011001110
00000000000000000000110000101110
11111111111111111110101001001011
11111111111111111111101110111010
00000000000000000000101011010011
11111111111111111111100000111001
00000000000000000000100001100111
11111111111111111111100110000101
00000000000000000000001011101100
00000000000000000000001001011101
11111111111111111111110010110011
00000000000000000001000011011001
11111111111111111111001111110100
11111111111111111111110111100000
00000000000000000000100101110111
00000000000000000000100011000111
00000000000000000001011111111010
00000000000000000001010110001010
00000000000000000001000101110101
00000000000000000001010101000010
00000000000000000000100101001111
00000000000000000010011001110010
00000000000000000011100111010101
00000000000000000010101101100000
00000000000000000000001111110001
11111111111111111111101101000000
00000000000000000000011010000100
11111111111111111110101111010100
11111111111111111111100111101101
11111111111111111110101011001111
11111111111111111111111010111010
11111111111111111110010001100001
11111111111111111111110011100000
11111111111111111111101001111111
00000000000000000000010110110111
11111111111111111111100100111011
00000000000000000000000000010101
00000000000000000000100001010101
00000000000000000000001111000101
11111111111111111111111101101101
11111111111111111111011011101111
11111111111111111111010011110011
11111111111111111110111001001011
11111111111111111111101100000110
11111111111111111111011011000001
00000000000000000000010000001011
00000000000000000001011010000100
00000000000000000001011110010011
00000000000000000001111011000100
00000000000000000000111011010010
00000000000000000100100101011000
00000000000000000010011000101001
00000000000000000001010101000100
00000000000000000000001011101110
11111111111111111110110011111111
11111111111111111111010111011110
00000000000000000000010111010111
11111111111111111111111001010011
11111111111111111111000001000000
11111111111111111111111111001000
11111111111111111110100001000011
00000000000000000000011011101011
00000000000000000000000011110011
00000000000000000000100111110110
00000000000000000000001001100000
11111111111111111111111100101000
11111111111111111111101010110101
00000000000000000000000000001101
11111111111111111111010100011111
11111111111111111111110101100100
11111111111111111110011101011010
11111111111111111101010111101010
11111111111111111100111011111000
11111111111111111100000111110010
11111111111111111101001100010100
11111111111111111110001101100001
11111111111111111110001100000011
11111111111111111101111100100011
00000000000000000000011011110001
00000000000000000000111101100010
11111111111111111111110111100110
00000000000000000000100001000110
11111111111111111111001101000000
00000000000000000001001001001110
11111111111111111110111100011001
11111111111111111111101111010000
11111111111111111111010011010100
11111111111111111111110010001111
11111111111111111111011101110110
00000000000000000000000001000011
11111111111111111111101001100101
11111111111111111111101011001001
11111111111111111111010101000111
00000000000000000000000000010110
11111111111111111111101100011100
00000000000000000000101011001100
11111111111111111111111101011110
11111111111111111110111101101110
11111111111111111111000100101101
11111111111111111110001110001111
11111111111111111101000010011110
11111111111111111010110010010000
11111111111111111000100011100100
11111111111111111000011111110000
11111111111111111011010001101011
11111111111111111011010101011111
11111111111111111100110101110011
11111111111111111110111100110010
00000000000000000000010010100000
11111111111111111111000100111000
00000000000000000001010011001110
11111111111111111111000110000010
11111111111111111110110110111000
00000000000000000000000001000000
11111111111111111111011001101011
00000000000000000001000101001101
00000000000000000001001110011010
00000000000000000000001100010110
11111111111111111111111110000001
11111111111111111111111010100101
00000000000000000000011001111101
00000000000000000000011101011011
11111111111111111111101010110011
00000000000000000000011010011000
11111111111111111111110001110110
11111111111111111111100001100110
11111111111111111111001010100011
11111111111111111111110110011011
00000000000000000000100001101001
11111111111111111110111001101010
11111111111111111110000010011001
11111111111111111011010000101100
11111111111111111011101111010100
11111111111111111011100110011110
11111111111111111101010100010101
11111111111111111110001111110101
00000000000000000001001101000000
11111111111111111111001000000001
11111111111111111111110001001100
11111111111111111111101111101010
00000000000000000000001101111001
00000000000000000000101110001101
11111111111111111111111111010110
11111111111111111111101110101001
00000000000000000000010101110010
11111111111111111111110000001001
00000000000000000000010110100100
11111111111111111111110010111000
00000000000000000000011111111101
00000000000000000000110100011101
00000000000000000000110001010010
00000000000000000000010101001111
00000000000000000000101110010101
11111111111111111111001101000110
11111111111111111111011010110100
00000000000000000000011100111100
11111111111111111111011101000001
00000000000000000000111101010010
00000000000000000000101111000101
11111111111111111110110011010010
11111111111111111100111111010110
11111111111111111101011111100100
11111111111111111110000000110011
11111111111111111110110000001101
00000000000000000000001111101110
11111111111111111111000100111101
11111111111111111111011001010011
00000000000000000001001110111100
00000000000000000000101000101011
11111111111111111110101010011000
11111111111111111111001010010110
11111111111111111111111100111101
00000000000000000000001001000000
00000000000000000000110110101100
00000000000000000000010100100010
00000000000000000000111000100001
00000000000000000000110010000100
11111111111111111111101001011111
00000000000000000000010000001010
00000000000000000000010110110001
00000000000000000000011010011110
00000000000000000000000011001101
00000000000000000000000010101010
11111111111111111111001110101110
11111111111111111111101010010101
11111111111111111111100001100011
00000000000000000000110101111011
00000000000000000000100101000010
11111111111111111111100000110100
11111111111111111110011110011101
11111111111111111110111001100011
11111111111111111110000010010001
00000000000000000000000011000001
11111111111111111111111001011011
11111111111111111110101000100010
00000000000000000000101111111100
11111111111111111111101110110101
00000000000000000000001101100101
11111111111111111110100000010101
11111111111111111111010110111111
00000000000000000000001100000101
11111111111111111111100010001111
00000000000000000000001001100111
00000000000000000000111001011010
00000000000000000000010101010100
11111111111111111111111000111011
00000000000000000000111111111101
11111111111111111111111010011001
11111111111111111111110010111100
11111111111111111111110101111100
11111111111111111111101011000001
00000000000000000000001110010011
00000000000000000001000001011111
00000000000000000000100011100100
00000000000000000000010000101101
00000000000000000000110101001100
00000000000000000000101000000111
11111111111111111111000000010011
11111111111111111110110110010111
11111111111111111111011000110111
00000000000000000001000100000110
00000000000000000001001110111101
00000000000000000000001110001111
11111111111111111111011001011110
00000000000000000000001010001011
11111111111111111111011110100110
00000000000000000000011011001110
11111111111111111111110000000011
11111111111111111101110010010011
11111111111111111111110010001010
00000000000000000000000100101100
11111111111111111111110111001100
00000000000000000000010011010100
00000000000000000000011001100001
11111111111111111111110011101001
00000000000000000001001101101001
11111111111111111111110100001011
11111111111111111111100101110101
00000000000000000000000100101000
11111111111111111111111100101111
11111111111111111111101100000011
00000000000000000000001010110001
00000000000000000001000111100101
11111111111111111111110100101001
00000000000000000000001011000101
00000000000000000000000010001111
11111111111111111111101111000001
11111111111111111111101011000101
00000000000000000000110101111101
11111111111111111110111110111001
11111111111111111111100011000001
11111111111111111111010110101001
11111111111111111110100111001011
00000000000000000001100001100001
11111111111111111111100001011100
00000000000000000000000100110101
00000000000000000001001011101010
11111111111111111110111011010011
11111111111111111111100000110010
11111111111111111110111100010101
11111111111111111111100101101100
11111111111111111111101111000101
11111111111111111111010000100001
11111111111111111110101101010101
00000000000000000000100100011110
00000000000000000001010110101011
00000000000000000000000001111111
00000000000000000000011100011000
00000000000000000001000110010111
00000000000000000000110100110110
11111111111111111111110010110100
00000000000000000000000001111110
00000000000000000000111011001010
00000000000000000000000111000100
11111111111111111111101111010000
11111111111111111110111101011111
11111111111111111110100111010110
00000000000000000001010110101000
00000000000000000000101111100000
00000000000000000001010010110001
00000000000000000000101100011101
11111111111111111110111111110011
00000000000000000000101100111101
11111111111111111111000100111101
00000000000000000000000001010011
00000000000000000000101100010100
11111111111111111110111111110000
11111111111111111110110001001110
11111111111111111110111001000110
11111111111111111110111010001101
11111111111111111110111011011011
00000000000000000000101010101000
11111111111111111111101010001100
11111111111111111111011011001010
00000000000000000000010000011101
00000000000000000000001100001111
11111111111111111111110011101101
11111111111111111111111101010111
00000000000000000000011001111011
11111111111111111111101110111000
11111111111111111111110010100101
00000000000000000000000000011101
00000000000000000001000000011001
11111111111111111111000010101011
11111111111111111111011111011011
11111111111111111111101101100000
00000000000000000000010110000000
11111111111111111111000001100000
11111111111111111111111111101011
11111111111111111111000100110111
00000000000000000000110011101011
00000000000000000000000100100100
00000000000000000001000110111011
11111111111111111111100110011111
00000000000000000000111111000010
11111111111111111111011000011011
11111111111111111111100001011100
00000000000000000000000111000001
00000000000000000000011010011100
11111111111111111111110111100110
00000000000000000000100110000111
00000000000000000000101101110010
11111111111111111111100101010101
00000000000000000000001000101111
00000000000000000000000011110011
11111111111111111111000010011111
00000000000000000000110011010101
11111111111111111111100110011001
11111111111111111111001010100100
00000000000000000000010100011011
11111111111111111111110011011001
11111111111111111110101100011110
00000000000000000000111111111010
11111111111111111111110100110100
00000000000000000000001100010110
11111111111111111111000111110001
11111111111111111110111010001010
00000000000000000000101101101010
00000000000000000000111011111000
11111111111111111111111010010101
00000000000000000000010111011010
11111111111111111111011001000000
00000000000000000000010010100011
00000000000000000000100111010011
00000000000000000000110111110111
00000000000000000000101111100001
11111111111111111111111101110000
00000000000000000000011100110001
00000000000000000000000100010101
11111111111111111111110011000011
00000000000000000000100000110111
00000000000000000000010011100000
00000000000000000000101010100111
00000000000000000000000010000101
11111111111111111111011001100101
00000000000000000000010000000010
00000000000000000000100100000000
11111111111111111111110111110010
11111111111111111111100110000101
00000000000000000000111110000000
11111111111111111110101001011011
00000000000000000000010101000010
11111111111111111111010111100111
00000000000000000001001111110011
00000000000000000001010100011100
00000000000000000000110100011000
11111111111111111111100100001001
00000000000000000001000111110110
11111111111111111111111001000111
00000000000000000000101110111010
00000000000000000000011100111000
00000000000000000000101100110100
11111111111111111111111101011101
00000000000000000000101101011110
00000000000000000000111010101110
11111111111111111111110111101010
00000000000000000000101010100101
00000000000000000001000111001100
00000000000000000000001110101011
00000000000000000000010100100100
00000000000000000000001000100010
00000000000000000000101111111011
00000000000000000000011110001101
00000000000000000000000101110001
00000000000000000000110110000011
00000000000000000001100111011010
00000000000000000000111010011010
11111111111111111111011110100101
11111111111111111110101100001001
00000000000000000000001011111010
11111111111111111111000110110010
00000000000000000001010101100101
11111111111111111110101100100011
11111111111111111111110001100011
00000000000000000001101110110111
00000000000000000001100011001010
11111111111111111111110001010100
11111111111111111111101100000111
00000000000000000000011011110010
11111111111111111111100001111101
11111111111111111111111110000101
00000000000000000000011101100101
00000000000000000000000010101011
11111111111111111111111001010011
00000000000000000000101011011110
11111111111111111111110110000011
00000000000000000000101100011100
00000000000000000000100010111100
11111111111111111111110010010001
00000000000000000000101001111110
00000000000000000000010110000100
00000000000000000000010011111110
00000000000000000000110110111011
00000000000000000000101101100111
00000000000000000000110001100000
00000000000000000000001010101100
00000000000000000000101010011110
11111111111111111111100010100000
00000000000000000000010000110111
11111111111111111111010110110101
11111111111111111111010011110011
00000000000000000001000011100010
00000000000000000000001111110110
11111111111111111111111100011100
00000000000000000010000110110000
11111111111111111111011110111110
00000000000000000000110111111110
00000000000000000000000110000101
00000000000000000001010000110100
11111111111111111111011100110000
00000000000000000001000111011100
11111111111111111111011001010100
00000000000000000000110101000010
11111111111111111111110110100001
00000000000000000000011110101001
00000000000000000000010001001110
11111111111111111111110111100000
11111111111111111111111100100100
00000000000000000000011001111100
11111111111111111111000111111001
11111111111111111111111000101111
11111111111111111111111100111001
00000000000000000000001100001111
00000000000000000000011100001101
11111111111111111111101111110101
11111111111111111110111000001000
11111111111111111111000011110010
11111111111111111111101001000100
00000000000000000001001011101110
11111111111111111111011110011011
00000000000000000000010101001001
11111111111111111110111001110011
00000000000000000001011001101001
00000000000000000000111100011110
11111111111111111111000010000111
00000000000000000000011011100111
00000000000000000000101101000101
11111111111111111111011101000111
00000000000000000000011101110100
00000000000000000000110000111100
00000000000000000000010011111110
11111111111111111111111110100101
11111111111111111111101010100010
11111111111111111111001001000101
00000000000000000001000101010000
11111111111111111111000010101001
00000000000000000000010001011000
11111111111111111110111001101110
11111111111111111111101010001101
11111111111111111111110101000010
00000000000000000000010011000101
00000000000000000000000010101011
00000000000000000000011011101110
00000000000000000000110000110001
11111111111111111110111111010100
00000000000000000001001111101000
11111111111111111111100101010101
00000000000000000001010000100110
11111111111111111111001110000010
11111111111111111111000010110001
00000000000000000000001100101101
00000000000000000000010110101111
11111111111111111111011010110000
00000000000000000000100110101100
11111111111111111111111000001010
11111111111111111111110001000001
00000000000000000000101001000100
11111111111111111111100111011010
00000000000000000000110110111110
11111111111111111111010101000110
00000000000000000000111110000101
00000000000000000001111100100111
11111111111111111111100111001110
00000000000000000000000110100100
00000000000000000000010100100111
00000000000000000000100111100011
00000000000000000000000110111011
00000000000000000000100111111001
00000000000000000001001111111111
00000000000000000000110010010110
11111111111111111111100001100101
11111111111111111111101110001001
00000000000000000000010101100101
00000000000000000000000010100000
11111111111111111110101101000110
00000000000000000000001000100011
00000000000000000000110101100100
11111111111111111111010000001010
00000000000000000000001101111011
11111111111111111111000000110111
11111111111111111110011111011100
11111111111111111110111100101100
11111111111111111110110100011110
11111111111111111111101001001001
00000000000000000001100011000101
00000000000000000000110011100001
00000000000000000000101111100000
00000000000000000001001110011000
11111111111111111111000111110011
00000000000000000000011111000110
11111111111111111111101101001011
00000000000000000000101100100101
00000000000000000001000111110101
00000000000000000000010101110101
11111111111111111111100010110110
00000000000000000001000101011111
11111111111111111111110111111101
11111111111111111110110101010110
00000000000000000000100110100100
11111111111111111110111111101111
11111111111111111111011110100100
11111111111111111111010100101011
00000000000000000000100011111110
11111111111111111111110110111100
00000000000000000001000100100101
11111111111111111110101111110001
11111111111111111111100011000010
11111111111111111111001101010001
11111111111111111110110000001101
00000000000000000001001010011000
11111111111111111111001100100100
11111111111111111111110011101101
11111111111111111111101101000110
11111111111111111111010010001100
11111111111111111111000100010111
00000000000000000000001110001011
00000000000000000000100101110000
11111111111111111111011010001101
00000000000000000001010110011010
11111111111111111111110111111100
00000000000000000001001001100101
00000000000000000000011110101011
11111111111111111111011111101111
00000000000000000000001101000010
11111111111111111111010011111010
11111111111111111111010100111110
00000000000000000000000010010111
00000000000000000000101100000001
