11111111111111111110111111100110
11111111111111111111011111101011
00000000000000000000011010011011
00000000000000000000011101111101
11111111111111111111000001100101
00000000000000000000000100011000
00000000000000000001000001111001
00000000000000000000011010101100
00000000000000000000000001101011
00000000000000000001000011010100
11111111111111111111000000010110
11111111111111111111101011101100
11111111111111111110101001011111
00000000000000000000010101010111
00000000000000000000000101101100
00000000000000000001000011010110
11111111111111111111111110100001
11111111111111111111111110111100
11111111111111111110111110001010
11111111111111111111100000001000
11111111111111111111100100100001
11111111111111111111111101011100
00000000000000000000110100000110
11111111111111111111010101111110
00000000000000000001000000111000
00000000000000000001001011001101
00000000000000000000100100101101
11111111111111111111000010000101
11111111111111111110111010001111
11111111111111111111000001011001
00000000000000000000100110100101
11111111111111111110110101000001
00000000000000000001001101100000
11111111111111111110110011011010
11111111111111111111011100010000
11111111111111111110111111000101
00000000000000000000011100001010
00000000000000000000100100000011
11111111111111111110111011000101
11111111111111111110111110000101
11111111111111111111011001011100
00000000000000000000111011000010
11111111111111111111110111101111
11111111111111111111000100001110
00000000000000000001000100011111
11111111111111111110110101010011
00000000000000000001010100011111
11111111111111111111100101010001
11111111111111111110111010101011
11111111111111111110101101001111
11111111111111111111000001111110
00000000000000000000110101110110
11111111111111111110101000110101
11111111111111111111111111110110
00000000000000000000100100010001
00000000000000000001001101111011
11111111111111111111000110001101
00000000000000000001010011000001
00000000000000000000011111000100
11111111111111111110101101110100
11111111111111111111111110011000
11111111111111111110110110001001
00000000000000000000100111101101
11111111111111111111110000111110
11111111111111111111110000001011
11111111111111111111111010011011
00000000000000000000110000011000
00000000000000000001101111011110
00000000000000000001010000101100
00000000000000000001001110100101
00000000000000000000010000010001
00000000000000000000100011000100
00000000000000000000110001011001
00000000000000000000000100100101
11111111111111111111101001100001
00000000000000000001011010111110
11111111111111111111110000001001
00000000000000000000001100101001
00000000000000000000000110111100
00000000000000000001010011000001
00000000000000000001000001010000
11111111111111111111011011000011
00000000000000000000111000101011
11111111111111111110111101100001
00000000000000000001010000000101
00000000000000000000001100001001
11111111111111111111101010010100
00000000000000000000000001100110
11111111111111111111001101101110
00000000000000000000110110000000
00000000000000000001010111000010
00000000000000000000010100000111
00000000000000000010000000100011
00000000000000000010000100010111
00000000000000000001001110000000
11111111111111111111110011111001
00000000000000000000100010011111
00000000000000000000101111101101
00000000000000000001101111110101
11111111111111111111100011110011
00000000000000000000011111100100
00000000000000000000010101111010
11111111111111111111101110110011
00000000000000000000111000101110
11111111111111111110111101100111
00000000000000000000110000001011
11111111111111111111100010111000
00000000000000000001100100101111
11111111111111111111111101111000
11111111111111111111010101010000
11111111111111111111011110100010
00000000000000000001000110010011
00000000000000000000001001010101
00000000000000000000001111010110
00000000000000000000101000000000
11111111111111111111011101100011
11111111111111111111111110101011
00000000000000000000101101100111
00000000000000000001101110001000
00000000000000000001000000010000
11111111111111111111111111111010
00000000000000000000010011000010
00000000000000000001110100001110
00000000000000000000011100000001
11111111111111111111101001110111
11111111111111111111010010110001
00000000000000000000000110110000
00000000000000000000001111101101
00000000000000000000011011010011
00000000000000000001010010001100
11111111111111111111011001010010
00000000000000000000101010001010
00000000000000000001001010001000
00000000000000000000110110100001
11111111111111111111110010100001
00000000000000000000111000111110
11111111111111111110111010100111
00000000000000000000100111011000
11111111111111111110111100011100
11111111111111111110110010011000
00000000000000000000111111111000
00000000000000000001010101100011
11111111111111111111100001001001
11111111111111111111111010101101
00000000000000000000001110111101
11111111111111111111000100101000
11111111111111111111110110111001
00000000000000000000100111001110
00000000000000000001000111010110
00000000000000000000001000100011
00000000000000000000011010100001
11111111111111111110101110111101
11111111111111111111101100100010
00000000000000000000011000110100
11111111111111111111111001100110
00000000000000000000100011101000
11111111111111111111101010101010
00000000000000000000100001011010
00000000000000000000111110110011
00000000000000000000110010101101
00000000000000000000010000110110
11111111111111111111111111111001
00000000000000000000001111110010
00000000000000000000100111110000
11111111111111111111101010010101
00000000000000000000100000000010
00000000000000000000010111011011
11111111111111111111010100100011
00000000000000000000101110110110
11111111111111111110101101101110
00000000000000000001001111100101
11111111111111111111000100100111
11111111111111111111011001011000
11111111111111111111011001111100
00000000000000000000010110011101
11111111111111111110111110111010
00000000000000000000001110110100
11111111111111111110110000100000
11111111111111111111001000001011
11111111111111111111001010000111
11111111111111111111000011110101
11111111111111111110011110001110
11111111111111111111001001010100
11111111111111111111100100111100
11111111111111111111111110010011
11111111111111111111100111101001
11111111111111111110100011010100
11111111111111111111010100001110
11111111111111111111111000010011
11111111111111111111010001000101
11111111111111111111110110010110
11111111111111111111110110010000
11111111111111111110111010001101
11111111111111111111010100010101
11111111111111111111100101001000
00000000000000000001001101100010
00000000000000000000100000110001
11111111111111111111001101101011
11111111111111111110100111001011
00000000000000000000110001100000
11111111111111111111110001001001
11111111111111111110110110011000
11111111111111111110010100000010
11111111111111111111101111011010
11111111111111111111100110101110
11111111111111111111111110111110
11111111111111111111101011001111
00000000000000000000011011000010
11111111111111111110110001110001
11111111111111111110110111001011
11111111111111111111010000010001
11111111111111111111100101010100
11111111111111111111010101010010
11111111111111111111100111010011
11111111111111111111100111011111
11111111111111111111111000000001
11111111111111111110010100000001
11111111111111111111001110010110
11111111111111111111110101100000
11111111111111111110110110110111
11111111111111111111000110010101
11111111111111111111000001011010
00000000000000000000000011001110
11111111111111111111111001110001
00000000000000000000001001010001
11111111111111111110101101101101
11111111111111111110111110010001
11111111111111111110110110011100
11111111111111111111000000111111
11111111111111111110110011111010
11111111111111111110000111000100
11111111111111111110101110001000
11111111111111111110010101000110
11111111111111111111001011101110
11111111111111111110110100001110
11111111111111111111011010111111
11111111111111111111001000001000
11111111111111111111101110111100
11111111111111111110100000010100
11111111111111111110111111110001
11111111111111111110111101111100
11111111111111111111000111111101
11111111111111111110110101010110
11111111111111111110111101001110
11111111111111111111111111111000
11111111111111111111101000111011
11111111111111111111010110001010
11111111111111111110100011001010
11111111111111111111001101110000
11111111111111111110000111000010
11111111111111111110101010111101
11111111111111111111000000010100
00000000000000000000000101100110
11111111111111111111101110101101
00000000000000000001000000011110
00000000000000000000001010001011
11111111111111111110001100101111
11111111111111111111100100111000
11111111111111111111010001010111
11111111111111111110110111110100
11111111111111111111101101000101
11111111111111111111010100110011
11111111111111111111000101011000
11111111111111111110111111010001
11111111111111111111011111111000
11111111111111111111000000000100
11111111111111111111001101001011
11111111111111111111000000100110
11111111111111111111010101010101
11111111111111111110111100000001
11111111111111111111001010100101
11111111111111111111011100110000
11111111111111111111010010001011
11111111111111111111001011101011
00000000000000000000000000010011
11111111111111111110100000011100
11111111111111111101010010011110
11111111111111111101010100100100
11111111111111111111101110100101
11111111111111111110111111001000
00000000000000000001000100110100
00000000000000000000000100010010
11111111111111111110101001000110
11111111111111111111011001110011
11111111111111111110010000100101
11111111111111111110110001000111
11111111111111111111100000001110
11111111111111111111100000111000
11111111111111111110111010100111
11111111111111111111111000011111
00000000000000000000011000001000
11111111111111111111010111101110
11111111111111111111101110110110
11111111111111111110001010000101
11111111111111111101101100101001
11111111111111111111001101001000
11111111111111111110100011110010
11111111111111111111100101100001
11111111111111111110111001111100
11111111111111111110111111000111
11111111111111111111100000110100
11111111111111111111100110111001
11111111111111111110101010100000
11111111111111111111001000101000
11111111111111111100110010101011
11111111111111111101111011001100
11111111111111111111100001001001
11111111111111111111001010101101
00000000000000000000000010111010
00000000000000000000111110111110
11111111111111111110001111010000
11111111111111111110001011000111
00000000000000000000000000110101
11111111111111111111111110111111
11111111111111111111000000001010
11111111111111111111101010001111
00000000000000000000001101001011
11111111111111111111100110110010
11111111111111111111001000011110
11111111111111111111100101100111
11111111111111111111110010100011
11111111111111111110110111011101
11111111111111111110110110010100
11111111111111111110111111001101
00000000000000000001000111000011
11111111111111111110110111011110
00000000000000000000001110110100
11111111111111111111011001000110
11111111111111111111000101111100
11111111111111111110111001110111
11111111111111111110111001111111
11111111111111111111101110001110
11111111111111111111000011011001
11111111111111111110010010011000
11111111111111111111111100011000
00000000000000000000111111010101
00000000000000000000110111010001
11111111111111111111101010010011
00000000000000000000011111110000
11111111111111111111000000010111
11111111111111111110111100011100
11111111111111111111110010101000
00000000000000000000100000001001
00000000000000000000011000101011
00000000000000000000111010101101
00000000000000000001011010001000
00000000000000000001000000001100
00000000000000000001010111001000
00000000000000000001100110100001
00000000000000000001001010111101
00000000000000000000011001010011
00000000000000000000110000111101
11111111111111111111101110101110
00000000000000000000010001011111
00000000000000000000010000010010
11111111111111111111110011001001
11111111111111111111011100000111
00000000000000000000011110111010
11111111111111111111111010010000
00000000000000000001010111000111
11111111111111111111101101010110
11111111111111111111100100010110
11111111111111111101111001000010
00000000000000000000110000111101
00000000000000000000000110001000
11111111111111111111011111011001
00000000000000000000110111110100
11111111111111111111111001100010
11111111111111111111101101001101
11111111111111111111111001110110
00000000000000000000111111001001
00000000000000000000110011111001
00000000000000000001010110101100
00000000000000000000111100011110
00000000000000000010010110001001
00000000000000000000111111011111
00000000000000000001011001111111
00000000000000000001110000001100
00000000000000000001010101100111
00000000000000000000110000000000
00000000000000000001001000010110
00000000000000000000100101111110
00000000000000000000010101000110
00000000000000000000111011010011
11111111111111111111101110100001
00000000000000000000101000001111
00000000000000000000111111011111
00000000000000000000011001100001
00000000000000000001011100111001
11111111111111111111101001110000
11111111111111111110011001000010
00000000000000000000110111011111
11111111111111111111101011001010
11111111111111111111010100011100
00000000000000000000101011011001
00000000000000000000000011001101
00000000000000000000000000001110
00000000000000000001010100000001
00000000000000000001111010010000
00000000000000000001011011001000
00000000000000000001011101111110
00000000000000000001010011000101
00000000000000000001010001000111
00000000000000000001001111011111
00000000000000000000101111010110
00000000000000000001101010110101
00000000000000000001001000111101
00000000000000000001100000111100
00000000000000000001001000011100
00000000000000000001000111100011
00000000000000000000011101001100
11111111111111111111110100011000
11111111111111111111101011000100
00000000000000000000000010100010
00000000000000000000001010110011
00000000000000000001000111001011
00000000000000000000110110100101
11111111111111111111000010110111
00000000000000000000111001011011
11111111111111111110111000110111
00000000000000000000111100000110
00000000000000000000110000000000
00000000000000000000000000001100
00000000000000000000111101001101
11111111111111111110110110100101
00000000000000000000111111010100
00000000000000000000111101100010
00000000000000000010000110010000
00000000000000000000110111101110
00000000000000000000100010100000
00000000000000000001000011001110
00000000000000000001101010011010
00000000000000000000110100001010
00000000000000000010001110010100
00000000000000000010010110001111
00000000000000000000011101001101
00000000000000000010011100100010
00000000000000000000110001010011
00000000000000000000000000110000
00000000000000000000010111110000
00000000000000000000011011001110
11111111111111111110111111100111
00000000000000000000011110000001
00000000000000000001000101110011
11111111111111111111010011101010
00000000000000000010000011000111
00000000000000000001000000001011
00000000000000000000001001111100
00000000000000000001001001110011
11111111111111111111101000001010
00000000000000000000010100000010
11111111111111111111101001101001
11111111111111111111000101100000
00000000000000000001010000011111
00000000000000000001011110111111
00000000000000000001010111101001
00000000000000000000101011001000
00000000000000000001010010001101
11111111111111111111110000101111
00000000000000000001111011011101
00000000000000000000110001111111
00000000000000000010010011110101
00000000000000000001101110110100
00000000000000000001011010011011
00000000000000000001111111101110
00000000000000000000011011101000
11111111111111111111111111101100
11111111111111111111110010111100
11111111111111111111100010111111
00000000000000000001011111011010
11111111111111111111111011011111
11111111111111111111010010100010
00000000000000000000011000010110
11111111111111111111110110110110
11111111111111111111000001111010
11111111111111111111000110101000
00000000000000000000001000011100
00000000000000000000000001001010
11111111111111111111110110000101
11111111111111111111110110010100
11111111111111111111010110111101
11111111111111111111000100111011
00000000000000000000100011011111
00000000000000000001000111101111
00000000000000000000111001001101
11111111111111111111111111111001
00000000000000000010000100100010
00000000000000000000110011100101
00000000000000000000101110001111
00000000000000000001000001100111
00000000000000000001101011100000
00000000000000000001011000010100
00000000000000000000100000101011
00000000000000000000100101110100
00000000000000000000100000101101
00000000000000000000010110110000
00000000000000000000010010001110
00000000000000000000110101000110
11111111111111111111100111110011
00000000000000000000000011000011
11111111111111111111100010010000
00000000000000000000110101011110
00000000000000000000001101101001
00000000000000000000000000000100
11111111111111111111000000010001
11111111111111111111111100101100
11111111111111111111110011001000
00000000000000000000110010110110
00000000000000000000000101101000
11111111111111111110111011001000
00000000000000000000001100011011
11111111111111111111001100010010
00000000000000000000010111010100
00000000000000000000101110011011
11111111111111111111110101111100
11111111111111111111000011011100
11111111111111111111111110101000
00000000000000000001001010101010
00000000000000000001000111010110
11111111111111111111100101111101
00000000000000000000010110101010
11111111111111111111111101001011
00000000000000000000100001010110
00000000000000000000111010011100
00000000000000000000010010000010
00000000000000000000000000011110
11111111111111111111010011010010
11111111111111111111110001101000
11111111111111111111111010111110
00000000000000000000001010110111
00000000000000000000110110101110
00000000000000000000010001010011
00000000000000000000011101001000
11111111111111111111100111011101
00000000000000000000100000010001
11111111111111111110101100010101
11111111111111111111011110010011
11111111111111111111100101001011
11111111111111111111101101100011
00000000000000000000001000101100
11111111111111111111010110101000
11111111111111111110101000000011
11111111111111111111110001001110
00000000000000000000000111010110
11111111111111111111100001011101
11111111111111111110111110001111
00000000000000000000000110011001
00000000000000000000101100000000
00000000000000000001001011111011
00000000000000000000100100111110
00000000000000000000000100011010
00000000000000000000001110101111
00000000000000000000011001101111
00000000000000000010000011111010
00000000000000000001001000101111
11111111111111111111101000110010
00000000000000000001001100000100
00000000000000000001001001111001
00000000000000000000000011000110
11111111111111111111010011101111
00000000000000000000110001000000
11111111111111111110100101111001
11111111111111111111010101000000
11111111111111111111100101000000
11111111111111111111001010001101
00000000000000000000100100101111
11111111111111111110011111001010
11111111111111111111000100010011
11111111111111111110101100111101
11111111111111111111111000010111
11111111111111111110111100001100
11111111111111111111001010110000
11111111111111111111101011010001
11111111111111111111010011011111
00000000000000000001001000101001
00000000000000000000100011100001
00000000000000000001010111110001
00000000000000000001001111001110
00000000000000000001011001000010
00000000000000000000101111000101
00000000000000000010001110001001
00000000000000000000011010011100
11111111111111111111011110011001
00000000000000000000101010100001
11111111111111111111110000110000
00000000000000000001010000001010
00000000000000000000101100110011
00000000000000000001011000010010
11111111111111111110111000010101
11111111111111111111000000011011
00000000000000000000111011010110
00000000000000000000101011100010
11111111111111111110110010101101
11111111111111111110110110100000
11111111111111111111011000100111
00000000000000000000001101000001
00000000000000000000010010101001
11111111111111111111101110010010
00000000000000000000111011011111
00000000000000000000001100110100
00000000000000000001010010011011
00000000000000000000010001001001
11111111111111111111111111000110
00000000000000000000100010011111
11111111111111111111110010111011
00000000000000000000100001001110
00000000000000000000011100010101
00000000000000000000001110110101
11111111111111111111011000011001
00000000000000000000011100000000
00000000000000000000010111111100
11111111111111111111100001010010
00000000000000000000011000101101
11111111111111111110101010001010
00000000000000000000011110000011
11111111111111111111111000011010
00000000000000000001001000110100
00000000000000000001000001000111
11111111111111111111001100011010
11111111111111111111011100011101
11111111111111111111000011010110
11111111111111111111111011011011
11111111111111111110100111010000
11111111111111111111110001000010
11111111111111111111101000111010
00000000000000000000000111000101
11111111111111111111101001011111
11111111111111111111110011011101
11111111111111111111100000110110
00000000000000000000011101000101
11111111111111111110110001010011
11111111111111111111010011000100
11111111111111111111011111000100
11111111111111111111110111100000
11111111111111111111011010010100
11111111111111111111111111100001
11111111111111111111110100000011
00000000000000000001010101011110
00000000000000000000000000101110
11111111111111111111110110001001
00000000000000000000110101010010
11111111111111111111010100111011
11111111111111111111111100000111
11111111111111111111001101100001
00000000000000000001010111010111
00000000000000000000011100110111
00000000000000000000001011001010
00000000000000000000100011110001
00000000000000000000100110100001
00000000000000000000001010110010
11111111111111111111100010000111
11111111111111111111101011010001
00000000000000000000000001010100
11111111111111111111010110000111
11111111111111111110101101011000
11111111111111111110001111011101
11111111111111111111100111110101
11111111111111111110000001011101
11111111111111111111101001011100
11111111111111111110100111110110
11111111111111111111010111111001
11111111111111111111000110100011
00000000000000000000110000110101
00000000000000000000111010101011
00000000000000000001001011010101
00000000000000000000011100111000
11111111111111111111111000111010
11111111111111111111101001110001
00000000000000000000110001101110
11111111111111111111100000001010
00000000000000000000000110110100
00000000000000000000101011100010
00000000000000000000000010011100
11111111111111111111011000110111
11111111111111111110110101100001
11111111111111111111100100011011
00000000000000000000001100001010
11111111111111111111111010101110
11111111111111111110010111111101
11111111111111111111000000100111
00000000000000000000010011011010
11111111111111111110111011001101
00000000000000000000110011010011
11111111111111111111000001010001
11111111111111111110101101001110
11111111111111111110010111111100
11111111111111111110100111101011
11111111111111111111010001001011
11111111111111111110101101110101
11111111111111111110110100110100
11111111111111111111100110000010
11111111111111111111111100000101
00000000000000000001111101111111
00000000000000000001101010101010
11111111111111111111110111000110
00000000000000000001010011100011
00000000000000000000100111100011
11111111111111111111010100010110
11111111111111111111101111101000
11111111111111111111111101010100
11111111111111111111001110100100
11111111111111111110101111001001
00000000000000000001001111111111
00000000000000000001010111010100
11111111111111111110110011101000
00000000000000000000110001001110
11111111111111111111011101110110
00000000000000000000111100101110
00000000000000000000110110111101
11111111111111111111011110111000
00000000000000000000100001010010
00000000000000000000010010001110
11111111111111111110111100000010
00000000000000000000101000011111
11111111111111111111100101101010
00000000000000000000010001010100
11111111111111111111010101111101
00000000000000000000100110110001
11111111111111111111110010100001
11111111111111111111101011101100
11111111111111111111010100100100
11111111111111111111110000011011
00000000000000000000010101100011
11111111111111111111011010001011
00000000000000000000101111000011
11111111111111111111100110001011
00000000000000000000010010110111
11111111111111111111101011110101
00000000000000000001010111000010
11111111111111111111010100101111
11111111111111111110101010111001
00000000000000000000010000110110
11111111111111111111110010001101
11111111111111111111110010110000
11111111111111111111000010000100
11111111111111111111000111010010
00000000000000000000011001010000
11111111111111111111110101101011
11111111111111111111100101011001
00000000000000000000111110011010
00000000000000000000101000110101
11111111111111111111100010001001
11111111111111111111111011000110
00000000000000000000100100010011
00000000000000000000001001111100
11111111111111111111110000111010
11111111111111111111110101010110
11111111111111111111100000111100
11111111111111111111001001000111
00000000000000000001000101011101
00000000000000000001010011100101
11111111111111111111011101011100
00000000000000000000001011101010
00000000000000000001010000000110
11111111111111111111101111101001
11111111111111111111100111111100
11111111111111111111110001100000
00000000000000000000001110011000
00000000000000000000100111110001
00000000000000000000100110100000
00000000000000000000111100010011
11111111111111111111101011110011
00000000000000000000111111001001
00000000000000000000000000101000
11111111111111111111011010010010
00000000000000000000001011110110
11111111111111111110110101000100
11111111111111111110110010100001
00000000000000000000100100000000
00000000000000000000100001000000
11111111111111111111011100101101
11111111111111111111101110110010
11111111111111111111101100011110
00000000000000000000110011101001
00000000000000000000110111000100
00000000000000000000000000101111
00000000000000000000111010101001
11111111111111111111110110101100
00000000000000000001000000101000
11111111111111111111100111101001
11111111111111111111111000110010
11111111111111111111110001000010
00000000000000000000111010000000
11111111111111111111010101010101
