DEPTH = 784;
WIDTH = 32;
ADDRESS_RADIX = HEX;
DATA_RADIX = BIN;
CONTENT
BEGIN
0000 : 00000000000000000000110000100101;  % 0x00000c25  0.0474400594830513 %
0001 : 11111111111111111110101100011111;  % 0xffffeb1f  -0.08155326545238495 %
0002 : 00000000000000000000000011000001;  % 0x000000c1  0.0029464662075042725 %
0003 : 00000000000000000000010111111101;  % 0x000005fd  0.02339079976081848 %
0004 : 00000000000000000000000010101101;  % 0x000000ad  0.0026412010192871094 %
0005 : 11111111111111111111000100100101;  % 0xfffff125  -0.058031871914863586 %
0006 : 11111111111111111111010101001000;  % 0xfffff548  -0.041864972561597824 %
0007 : 00000000000000000000001001010111;  % 0x00000257  0.009140387177467346 %
0008 : 00000000000000000000010001000110;  % 0x00000446  0.01668970286846161 %
0009 : 11111111111111111111000000101111;  % 0xfffff02f  -0.061779607087373734 %
000a : 11111111111111111110110010111011;  % 0xffffecbb  -0.07527302205562592 %
000b : 00000000000000000000010001011010;  % 0x0000045a  0.017001330852508545 %
000c : 11111111111111111110101010011111;  % 0xffffea9f  -0.08351528644561768 %
000d : 00000000000000000000111100100100;  % 0x00000f24  0.059135641902685165 %
000e : 00000000000000000000011101111000;  % 0x00000778  0.029175741598010063 %
000f : 00000000000000000001010110010001;  % 0x00001591  0.08424417674541473 %
0010 : 00000000000000000000001010011001;  % 0x00000299  0.010151378810405731 %
0011 : 00000000000000000001001011010110;  % 0x000012d6  0.07357519119977951 %
0012 : 00000000000000000000010111101100;  % 0x000005ec  0.023137077689170837 %
0013 : 11111111111111111111111001000111;  % 0xfffffe47  -0.0067252665758132935 %
0014 : 11111111111111111111001111101000;  % 0xfffff3e8  -0.04724225029349327 %
0015 : 11111111111111111111011101101001;  % 0xfffff769  -0.03355982154607773 %
0016 : 11111111111111111111000100011111;  % 0xfffff11f  -0.05811809003353119 %
0017 : 11111111111111111111001101011101;  % 0xfffff35d  -0.049361538141965866 %
0018 : 11111111111111111111111011001010;  % 0xfffffeca  -0.004723988473415375 %
0019 : 00000000000000000000010100101110;  % 0x0000052e  0.02023737132549286 %
001a : 00000000000000000000010000110111;  % 0x00000437  0.016466237604618073 %
001b : 11111111111111111110110010010101;  % 0xffffec95  -0.07585784792900085 %
001c : 00000000000000000000000011101111;  % 0x000000ef  0.0036478787660598755 %
001d : 00000000000000000000111000111111;  % 0x00000e3f  0.055652253329753876 %
001e : 00000000000000000000001010101111;  % 0x000002af  0.010490119457244873 %
001f : 00000000000000000000101101001011;  % 0x00000b4b  0.04411283880472183 %
0020 : 11111111111111111111010101110110;  % 0xfffff576  -0.04117138683795929 %
0021 : 00000000000000000001010110101011;  % 0x000015ab  0.08463913947343826 %
0022 : 11111111111111111110100100111011;  % 0xffffe93b  -0.08894629776477814 %
0023 : 11111111111111111110111011100110;  % 0xffffeee6  -0.06680893152952194 %
0024 : 11111111111111111111001000010111;  % 0xfffff217  -0.05434383079409599 %
0025 : 11111111111111111111000100110011;  % 0xfffff133  -0.05782284215092659 %
0026 : 00000000000000000000010001000101;  % 0x00000445  0.016672080382704735 %
0027 : 11111111111111111110100001001000;  % 0xffffe848  -0.09264451265335083 %
0028 : 11111111111111111111111111011110;  % 0xffffffde  -0.0005112786893732846 %
0029 : 11111111111111111111111001101000;  % 0xfffffe68  -0.006220627576112747 %
002a : 00000000000000000000010000011110;  % 0x0000041e  0.016075264662504196 %
002b : 00000000000000000000000000000100;  % 0x00000004  5.370474173105322e-05 %
002c : 11111111111111111111110000101010;  % 0xfffffc2a  -0.014982118271291256 %
002d : 00000000000000000000010101111111;  % 0x0000057f  0.021474944427609444 %
002e : 11111111111111111110101001100000;  % 0xffffea60  -0.08447565138339996 %
002f : 11111111111111111111011010010101;  % 0xfffff695  -0.03678738325834274 %
0030 : 00000000000000000000111000110100;  % 0x00000e34  0.05548563227057457 %
0031 : 11111111111111111111011001011010;  % 0xfffff65a  -0.03769628331065178 %
0032 : 11111111111111111110101011111101;  % 0xffffeafd  -0.0820804238319397 %
0033 : 11111111111111111111101011010000;  % 0xfffffad0  -0.0202653631567955 %
0034 : 11111111111111111110110010100000;  % 0xffffeca0  -0.07568274438381195 %
0035 : 00000000000000000000110001111101;  % 0x00000c7d  0.048788540065288544 %
0036 : 11111111111111111111011110011110;  % 0xfffff79e  -0.032738715410232544 %
0037 : 11111111111111111111101001111000;  % 0xfffffa78  -0.021601751446723938 %
0038 : 00000000000000000001000111100010;  % 0x000011e2  0.06985802203416824 %
0039 : 00000000000000000000001100100101;  % 0x00000325  0.012281551957130432 %
003a : 00000000000000000001000111101010;  % 0x000011ea  0.06997442245483398 %
003b : 00000000000000000000010000000111;  % 0x00000407  0.01573079824447632 %
003c : 11111111111111111110110100011100;  % 0xffffed1c  -0.07379139214754105 %
003d : 00000000000000000000100011001110;  % 0x000008ce  0.03438833728432655 %
003e : 00000000000000000001010000111000;  % 0x00001438  0.07898703962564468 %
003f : 11111111111111111110111110110000;  % 0xffffefb0  -0.0637206956744194 %
0040 : 11111111111111111111001000000010;  % 0xfffff202  -0.05465908721089363 %
0041 : 11111111111111111111011111100001;  % 0xfffff7e1  -0.031730081886053085 %
0042 : 11111111111111111111000001011100;  % 0xfffff05c  -0.06109142303466797 %
0043 : 00000000000000000000100101111010;  % 0x0000097a  0.03702384606003761 %
0044 : 11111111111111111110000110111111;  % 0xffffe1bf  -0.11818281561136246 %
0045 : 11111111111111111111011110100110;  % 0xfffff7a6  -0.03261745348572731 %
0046 : 00000000000000000000000111101001;  % 0x000001e9  0.007463450077921152 %
0047 : 11111111111111111111111101111001;  % 0xffffff79  -0.0020673854742199183 %
0048 : 11111111111111111110100010000100;  % 0xffffe884  -0.09173056483268738 %
0049 : 00000000000000000000011011110111;  % 0x000006f7  0.027200056239962578 %
004a : 11111111111111111111100011111010;  % 0xfffff8fa  -0.027441930025815964 %
004b : 00000000000000000001010011001001;  % 0x000014c9  0.0811922550201416 %
004c : 11111111111111111110101000101101;  % 0xffffea2d  -0.08524999767541885 %
004d : 11111111111111111110110001011101;  % 0xffffec5d  -0.07670522481203079 %
004e : 00000000000000000000000111001010;  % 0x000001ca  0.0069826385006308556 %
004f : 00000000000000000000101011110101;  % 0x00000af5  0.04280335456132889 %
0050 : 00000000000000000000110001001011;  % 0x00000c4b  0.048019666224718094 %
0051 : 00000000000000000000111011000000;  % 0x00000ec0  0.057615552097558975 %
0052 : 00000000000000000000101011111010;  % 0x00000afa  0.0428798571228981 %
0053 : 00000000000000000000111010101110;  % 0x00000eae  0.057335324585437775 %
0054 : 11111111111111111110110101001100;  % 0xffffed4c  -0.07305619865655899 %
0055 : 11111111111111111111010010111011;  % 0xfffff4bb  -0.04402003064751625 %
0056 : 11111111111111111111001011001100;  % 0xfffff2cc  -0.051573287695646286 %
0057 : 00000000000000000000110000111011;  % 0x00000c3b  0.047772716730833054 %
0058 : 00000000000000000000110000110100;  % 0x00000c34  0.04766598343849182 %
0059 : 11111111111111111111111100110111;  % 0xffffff37  -0.0030691346619278193 %
005a : 00000000000000000000000001000001;  % 0x00000041  0.000992802088148892 %
005b : 00000000000000000000011001111101;  % 0x0000067d  0.0253444816917181 %
005c : 11111111111111111110100100100001;  % 0xffffe921  -0.089345283806324 %
005d : 11111111111111111111100001011001;  % 0xfffff859  -0.029890725389122963 %
005e : 11111111111111111110010000011111;  % 0xffffe41f  -0.10890159010887146 %
005f : 11111111111111111111101101010011;  % 0xfffffb53  -0.01826842688024044 %
0060 : 11111111111111111101100010010111;  % 0xffffd897  -0.15393951535224915 %
0061 : 11111111111111111101110111001011;  % 0xffffddcb  -0.13361704349517822 %
0062 : 11111111111111111110000100001110;  % 0xffffe10e  -0.12087573856115341 %
0063 : 11111111111111111110010000011101;  % 0xffffe41d  -0.10892500728368759 %
0064 : 00000000000000000000000101101001;  % 0x00000169  0.005506081506609917 %
0065 : 11111111111111111111100010101111;  % 0xfffff8af  -0.028574859723448753 %
0066 : 11111111111111111111110110011011;  % 0xfffffd9b  -0.00934811681509018 %
0067 : 11111111111111111111100111011011;  % 0xfffff9db  -0.023999035358428955 %
0068 : 00000000000000000000101111010010;  % 0x00000bd2  0.046167876571416855 %
0069 : 11111111111111111111111101110011;  % 0xffffff73  -0.0021484692115336657 %
006a : 11111111111111111111011010101000;  % 0xfffff6a8  -0.036502864211797714 %
006b : 00000000000000000000001111110000;  % 0x000003f0  0.01538577489554882 %
006c : 00000000000000000001010010011101;  % 0x0000149d  0.08051850646734238 %
006d : 00000000000000000001001011101110;  % 0x000012ee  0.07394079118967056 %
006e : 11111111111111111111001100101101;  % 0xfffff32d  -0.05009198933839798 %
006f : 11111111111111111110110110100000;  % 0xffffeda0  -0.07177677005529404 %
0070 : 11111111111111111111011111111111;  % 0xfffff7ff  -0.0312679298222065 %
0071 : 00000000000000000000110000101001;  % 0x00000c29  0.04750623181462288 %
0072 : 00000000000000000000000111001101;  % 0x000001cd  0.0070360940881073475 %
0073 : 11111111111111111111111000010101;  % 0xfffffe15  -0.007486875634640455 %
0074 : 00000000000000000000110110000110;  % 0x00000d86  0.052822262048721313 %
0075 : 11111111111111111111001111100001;  % 0xfffff3e1  -0.04735392704606056 %
0076 : 11111111111111111111011000011111;  % 0xfffff61f  -0.03858623281121254 %
0077 : 11111111111111111110000110000010;  % 0xffffe182  -0.11910480260848999 %
0078 : 11111111111111111110011001100001;  % 0xffffe661  -0.10008329153060913 %
0079 : 11111111111111111110000011011110;  % 0xffffe0de  -0.12161927670240402 %
007a : 11111111111111111110000010001111;  % 0xffffe08f  -0.12281043827533722 %
007b : 11111111111111111111110011101001;  % 0xfffffce9  -0.01207626424729824 %
007c : 11111111111111111101011110001010;  % 0xffffd78a  -0.1580495983362198 %
007d : 11111111111111111110000101010000;  % 0xffffe150  -0.119865782558918 %
007e : 11111111111111111101101100011010;  % 0xffffdb1a  -0.1441332846879959 %
007f : 00000000000000000000011010100111;  % 0x000006a7  0.025986140593886375 %
0080 : 11111111111111111110011111111000;  % 0xffffe7f8  -0.09387286007404327 %
0081 : 00000000000000000000000010101101;  % 0x000000ad  0.0026329560205340385 %
0082 : 00000000000000000001000000101010;  % 0x0000102a  0.06314512342214584 %
0083 : 11111111111111111111010001000101;  % 0xfffff445  -0.04581933841109276 %
0084 : 11111111111111111110110101000000;  % 0xffffed40  -0.07324887067079544 %
0085 : 00000000000000000000110010111010;  % 0x00000cba  0.049706269055604935 %
0086 : 00000000000000000000110011001010;  % 0x00000cca  0.04996294528245926 %
0087 : 11111111111111111111000000010110;  % 0xfffff016  -0.06215982884168625 %
0088 : 11111111111111111111110110000010;  % 0xfffffd82  -0.009737271815538406 %
0089 : 00000000000000000000101001010011;  % 0x00000a53  0.04033590480685234 %
008a : 00000000000000000000111111100100;  % 0x00000fe4  0.06207127124071121 %
008b : 11111111111111111111101010010110;  % 0xfffffa96  -0.02114499732851982 %
008c : 11111111111111111110110001000001;  % 0xffffec41  -0.07713093608617783 %
008d : 11111111111111111111010000101100;  % 0xfffff42c  -0.04620261490345001 %
008e : 00000000000000000001010100111011;  % 0x0000153b  0.08292607963085175 %
008f : 11111111111111111111001001001010;  % 0xfffff24a  -0.05355515331029892 %
0090 : 11111111111111111110101111111101;  % 0xffffebfd  -0.07817481458187103 %
0091 : 00000000000000000001000110101111;  % 0x000011af  0.06907208263874054 %
0092 : 00000000000000000000000001000011;  % 0x00000043  0.0010208645835518837 %
0093 : 11111111111111111111000001110000;  % 0xfffff070  -0.06079409271478653 %
0094 : 00000000000000000001001001010111;  % 0x00001257  0.07164616137742996 %
0095 : 00000000000000000000001100010100;  % 0x00000314  0.012020444497466087 %
0096 : 11111111111111111111101010000010;  % 0xfffffa82  -0.021451273933053017 %
0097 : 11111111111111111111111011011000;  % 0xfffffed8  -0.004522500094026327 %
0098 : 00000000000000000001000111001000;  % 0x000011c8  0.06945061683654785 %
0099 : 00000000000000000000011101111101;  % 0x0000077d  0.029254991561174393 %
009a : 00000000000000000000000100111110;  % 0x0000013e  0.004853549413383007 %
009b : 11111111111111111111010010001111;  % 0xfffff48f  -0.044689491391181946 %
009c : 11111111111111111111110010010111;  % 0xfffffc97  -0.013319112360477448 %
009d : 11111111111111111111110011011101;  % 0xfffffcdd  -0.01225891150534153 %
009e : 11111111111111111111111011111110;  % 0xfffffefe  -0.003943657502532005 %
009f : 11111111111111111111100101111110;  % 0xfffff97e  -0.025413690134882927 %
00a0 : 11111111111111111111111100111001;  % 0xffffff39  -0.0030366000719368458 %
00a1 : 11111111111111111101111110001001;  % 0xffffdf89  -0.12681080400943756 %
00a2 : 11111111111111111111110001110100;  % 0xfffffc74  -0.013854758813977242 %
00a3 : 00000000000000000001001100101001;  % 0x00001329  0.07483720034360886 %
00a4 : 11111111111111111111110000011011;  % 0xfffffc1b  -0.01521365251392126 %
00a5 : 11111111111111111111100010011100;  % 0xfffff89c  -0.028873976320028305 %
00a6 : 11111111111111111111011111011100;  % 0xfffff7dc  -0.03180638328194618 %
00a7 : 00000000000000000001010010011010;  % 0x0000149a  0.0804777666926384 %
00a8 : 11111111111111111111011010101100;  % 0xfffff6ac  -0.03643358126282692 %
00a9 : 11111111111111111111011101110110;  % 0xfffff776  -0.03335031494498253 %
00aa : 00000000000000000001000011100110;  % 0x000010e6  0.06600207090377808 %
00ab : 00000000000000000001010001110011;  % 0x00001473  0.07987890392541885 %
00ac : 00000000000000000000001000000110;  % 0x00000206  0.007899654097855091 %
00ad : 11111111111111111111111000010111;  % 0xfffffe17  -0.007462254725396633 %
00ae : 00000000000000000010001010011000;  % 0x00002298  0.1351308524608612 %
00af : 00000000000000000000011011011100;  % 0x000006dc  0.026789817959070206 %
00b0 : 00000000000000000000011110000011;  % 0x00000783  0.029335806146264076 %
00b1 : 00000000000000000000110110100001;  % 0x00000da1  0.053238194435834885 %
00b2 : 00000000000000000000101000100110;  % 0x00000a26  0.0396428182721138 %
00b3 : 00000000000000000001010010101100;  % 0x000014ac  0.08074507862329483 %
00b4 : 11111111111111111111001101101011;  % 0xfffff36b  -0.04915263131260872 %
00b5 : 00000000000000000000111001100101;  % 0x00000e65  0.05623434856534004 %
00b6 : 00000000000000000000111011001011;  % 0x00000ecb  0.05777820572257042 %
00b7 : 00000000000000000000001101001011;  % 0x0000034b  0.012861098162829876 %
00b8 : 00000000000000000001011000010001;  % 0x00001611  0.08618956804275513 %
00b9 : 00000000000000000001001111000110;  % 0x000013c6  0.07724367082118988 %
00ba : 00000000000000000000010000000010;  % 0x00000402  0.015656502917408943 %
00bb : 00000000000000000000100001010000;  % 0x00000850  0.03247125819325447 %
00bc : 00000000000000000000001000100100;  % 0x00000224  0.008363095112144947 %
00bd : 00000000000000000001001011010100;  % 0x000012d4  0.07354599982500076 %
00be : 00000000000000000000001000000001;  % 0x00000201  0.007835078984498978 %
00bf : 00000000000000000000101111011011;  % 0x00000bdb  0.04630936682224274 %
00c0 : 11111111111111111111101010010100;  % 0xfffffa94  -0.021183811128139496 %
00c1 : 11111111111111111111011000010001;  % 0xfffff611  -0.03880434110760689 %
00c2 : 00000000000000000000100001010001;  % 0x00000851  0.0324915312230587 %
00c3 : 11111111111111111110101111011101;  % 0xffffebdd  -0.07866483181715012 %
00c4 : 11111111111111111111110110111111;  % 0xfffffdbf  -0.008797423914074898 %
00c5 : 00000000000000000001011000011100;  % 0x0000161c  0.08636392652988434 %
00c6 : 00000000000000000000110000101111;  % 0x00000c2f  0.047593411058187485 %
00c7 : 00000000000000000001001000010000;  % 0x00001210  0.07055273652076721 %
00c8 : 00000000000000000000000000101100;  % 0x0000002c  0.0006640449282713234 %
00c9 : 11111111111111111111100011101101;  % 0xfffff8ed  -0.027635395526885986 %
00ca : 00000000000000000000010100100000;  % 0x00000520  0.020023852586746216 %
00cb : 11111111111111111111010111110000;  % 0xfffff5f0  -0.039311930537223816 %
00cc : 00000000000000000000101111111000;  % 0x00000bf8  0.04675726965069771 %
00cd : 00000000000000000000100001010111;  % 0x00000857  0.03257562220096588 %
00ce : 00000000000000000000110111111101;  % 0x00000dfd  0.054638393223285675 %
00cf : 00000000000000000000011001001000;  % 0x00000648  0.024538103491067886 %
00d0 : 00000000000000000000111100111110;  % 0x00000f3e  0.05953266844153404 %
00d1 : 00000000000000000001100110110100;  % 0x000019b4  0.10040895640850067 %
00d2 : 11111111111111111111110010010010;  % 0xfffffc92  -0.01338980346918106 %
00d3 : 00000000000000000001000000000001;  % 0x00001001  0.062519371509552 %
00d4 : 00000000000000000001001001110000;  % 0x00001270  0.07201626896858215 %
00d5 : 00000000000000000001101001111011;  % 0x00001a7b  0.1034398004412651 %
00d6 : 00000000000000000001001000011111;  % 0x0000121f  0.07078727334737778 %
00d7 : 00000000000000000000101001001101;  % 0x00000a4d  0.040241193026304245 %
00d8 : 00000000000000000000110011011000;  % 0x00000cd8  0.0501755028963089 %
00d9 : 00000000000000000000110010011000;  % 0x00000c98  0.049189794808626175 %
00da : 00000000000000000000011111101011;  % 0x000007eb  0.030936580151319504 %
00db : 11111111111111111111100010111100;  % 0xfffff8bc  -0.028380606323480606 %
00dc : 11111111111111111110011000111110;  % 0xffffe63e  -0.100623719394207 %
00dd : 00000000000000000001010100101011;  % 0x0000152b  0.08268473297357559 %
00de : 00000000000000000001000100110110;  % 0x00001136  0.06723225116729736 %
00df : 11111111111111111111010000011011;  % 0xfffff41b  -0.046463437378406525 %
00e0 : 11111111111111111111101011011110;  % 0xfffffade  -0.020042486488819122 %
00e1 : 11111111111111111110110100000011;  % 0xffffed03  -0.07416629791259766 %
00e2 : 00000000000000000000111001011101;  % 0x00000e5d  0.05610203742980957 %
00e3 : 11111111111111111111011010100110;  % 0xfffff6a6  -0.036527570337057114 %
00e4 : 00000000000000000000100100000101;  % 0x00000905  0.035236459225416183 %
00e5 : 11111111111111111111111101001001;  % 0xffffff49  -0.002797622000798583 %
00e6 : 11111111111111111111101110000111;  % 0xfffffb87  -0.01746877282857895 %
00e7 : 00000000000000000000001011010000;  % 0x000002d0  0.01098795235157013 %
00e8 : 00000000000000000001011011001000;  % 0x000016c8  0.08898982405662537 %
00e9 : 11111111111111111111110110001100;  % 0xfffffd8c  -0.009581373073160648 %
00ea : 11111111111111111111111110111001;  % 0xffffffb9  -0.0010806915815919638 %
00eb : 11111111111111111111111010001110;  % 0xfffffe8e  -0.005641934461891651 %
00ec : 00000000000000000000010111010001;  % 0x000005d1  0.022725071758031845 %
00ed : 00000000000000000000000110110010;  % 0x000001b2  0.006628347095102072 %
00ee : 00000000000000000001000010011111;  % 0x0000109f  0.06493144482374191 %
00ef : 11111111111111111111111110000110;  % 0xffffff86  -0.0018543754704296589 %
00f0 : 00000000000000000001000010001111;  % 0x0000108f  0.06468675285577774 %
00f1 : 11111111111111111111110100000000;  % 0xfffffd00  -0.0117177814245224 %
00f2 : 00000000000000000001110000000111;  % 0x00001c07  0.10947686433792114 %
00f3 : 00000000000000000000100101101010;  % 0x0000096a  0.036773353815078735 %
00f4 : 00000000000000000000010010110100;  % 0x000004b4  0.018366165459156036 %
00f5 : 00000000000000000000011111101100;  % 0x000007ec  0.030945857986807823 %
00f6 : 11111111111111111111001011111110;  % 0xfffff2fe  -0.050817765295505524 %
00f7 : 11111111111111111111101001110100;  % 0xfffffa74  -0.021671734750270844 %
00f8 : 00000000000000000000010110000100;  % 0x00000584  0.02155180647969246 %
00f9 : 00000000000000000000011100010011;  % 0x00000713  0.027639733627438545 %
00fa : 11111111111111111111001010011000;  % 0xfffff298  -0.05236487090587616 %
00fb : 00000000000000000000000001011111;  % 0x0000005f  0.0014569396153092384 %
00fc : 11111111111111111111101011010011;  % 0xfffffad3  -0.020219532772898674 %
00fd : 00000000000000000000000001001001;  % 0x00000049  0.0011196325067430735 %
00fe : 11111111111111111111101111010101;  % 0xfffffbd5  -0.01628824882209301 %
00ff : 00000000000000000001100010100111;  % 0x000018a7  0.09629439562559128 %
0100 : 00000000000000000001000010100010;  % 0x000010a2  0.0649704560637474 %
0101 : 11111111111111111111111100111100;  % 0xffffff3c  -0.002992452820762992 %
0102 : 00000000000000000001011101010010;  % 0x00001752  0.09109041094779968 %
0103 : 11111111111111111111000001010100;  % 0xfffff054  -0.06121375784277916 %
0104 : 11111111111111111111100110001110;  % 0xfffff98e  -0.025173291563987732 %
0105 : 00000000000000000000110111001110;  % 0x00000dce  0.053920283913612366 %
0106 : 00000000000000000000001111011110;  % 0x000003de  0.015101342462003231 %
0107 : 00000000000000000000010011111101;  % 0x000004fd  0.0194803848862648 %
0108 : 00000000000000000000011001000000;  % 0x00000640  0.024418195709586143 %
0109 : 00000000000000000000010110001101;  % 0x0000058d  0.021675635129213333 %
010a : 00000000000000000000001000111100;  % 0x0000023c  0.008722956292331219 %
010b : 00000000000000000000111001011110;  % 0x00000e5e  0.05612438917160034 %
010c : 00000000000000000000100101001100;  % 0x0000094c  0.03632316738367081 %
010d : 00000000000000000001101010100111;  % 0x00001aa7  0.10410454869270325 %
010e : 00000000000000000000101101111110;  % 0x00000b7e  0.04489672929048538 %
010f : 00000000000000000001000010011011;  % 0x0000109b  0.06486661732196808 %
0110 : 11111111111111111111100111011101;  % 0xfffff9dd  -0.023965910077095032 %
0111 : 11111111111111111111110110010110;  % 0xfffffd96  -0.009423427283763885 %
0112 : 00000000000000000000100010010011;  % 0x00000893  0.03349786996841431 %
0113 : 11111111111111111110101011100010;  % 0xffffeae2  -0.08249112218618393 %
0114 : 11111111111111111111010011100111;  % 0xfffff4e7  -0.04335687682032585 %
0115 : 11111111111111111110101110000110;  % 0xffffeb86  -0.079979307949543 %
0116 : 00000000000000000000100110000101;  % 0x00000985  0.03719176724553108 %
0117 : 00000000000000000000101000010111;  % 0x00000a17  0.03940868750214577 %
0118 : 11111111111111111111011011000110;  % 0xfffff6c6  -0.03604522719979286 %
0119 : 00000000000000000000001110111000;  % 0x000003b8  0.014525064267218113 %
011a : 11111111111111111111010011101000;  % 0xfffff4e8  -0.04333433136343956 %
011b : 00000000000000000001111001000011;  % 0x00001e43  0.11821309477090836 %
011c : 00000000000000000000101011011010;  % 0x00000ada  0.042381562292575836 %
011d : 11111111111111111111110111111111;  % 0xfffffdff  -0.00782353337854147 %
011e : 00000000000000000000100001100111;  % 0x00000867  0.032828133553266525 %
011f : 11111111111111111111111111111000;  % 0xfffffff8  -0.00011801454820670187 %
0120 : 11111111111111111111110011111011;  % 0xfffffcfb  -0.01179897878319025 %
0121 : 11111111111111111111101110001100;  % 0xfffffb8c  -0.017400257289409637 %
0122 : 00000000000000000000000110101011;  % 0x000001ab  0.006511992774903774 %
0123 : 11111111111111111111011100100111;  % 0xfffff727  -0.03455595672130585 %
0124 : 00000000000000000000011111100101;  % 0x000007e5  0.030842840671539307 %
0125 : 11111111111111111111011000111101;  % 0xfffff63d  -0.038131728768348694 %
0126 : 11111111111111111111001000111111;  % 0xfffff23f  -0.05372225120663643 %
0127 : 11111111111111111111011111101100;  % 0xfffff7ec  -0.0315546952188015 %
0128 : 00000000000000000000111010000001;  % 0x00000e81  0.05664985626935959 %
0129 : 00000000000000000000000010010010;  % 0x00000092  0.0022258830722421408 %
012a : 00000000000000000000011111001010;  % 0x000007ca  0.030431725084781647 %
012b : 00000000000000000000001001100000;  % 0x00000260  0.00928226113319397 %
012c : 00000000000000000000111100111111;  % 0x00000f3f  0.05955100804567337 %
012d : 00000000000000000000000011001010;  % 0x000000ca  0.0030849960166960955 %
012e : 11111111111111111111100111100011;  % 0xfffff9e3  -0.023879317566752434 %
012f : 11111111111111111111001111110010;  % 0xfffff3f2  -0.047083526849746704 %
0130 : 11111111111111111110000011101000;  % 0xffffe0e8  -0.12146249413490295 %
0131 : 11111111111111111111000010000010;  % 0xfffff082  -0.06051122397184372 %
0132 : 00000000000000000000000010000100;  % 0x00000084  0.002009602729231119 %
0133 : 00000000000000000000100001110100;  % 0x00000874  0.03301700949668884 %
0134 : 00000000000000000000000011110110;  % 0x000000f6  0.0037518483586609364 %
0135 : 00000000000000000000011000111110;  % 0x0000063e  0.024377869442105293 %
0136 : 00000000000000000000100111011100;  % 0x000009dc  0.038508228957653046 %
0137 : 00000000000000000001100111101110;  % 0x000019ee  0.10128854215145111 %
0138 : 00000000000000000000010001000010;  % 0x00000442  0.0166372898966074 %
0139 : 11111111111111111111100001000010;  % 0xfffff842  -0.0302492193877697 %
013a : 11111111111111111111010100011100;  % 0xfffff51c  -0.042542990297079086 %
013b : 00000000000000000000010110110111;  % 0x000005b7  0.0223307516425848 %
013c : 00000000000000000000010100000001;  % 0x00000501  0.01954047940671444 %
013d : 00000000000000000000101011100101;  % 0x00000ae5  0.04256292060017586 %
013e : 11111111111111111111111101000000;  % 0xffffff40  -0.002933145733550191 %
013f : 00000000000000000001010101111111;  % 0x0000157f  0.08397220820188522 %
0140 : 11111111111111111111111101000111;  % 0xffffff47  -0.002828163793310523 %
0141 : 11111111111111111111110110011100;  % 0xfffffd9c  -0.009334972128272057 %
0142 : 11111111111111111111011011110101;  % 0xfffff6f5  -0.035327207297086716 %
0143 : 00000000000000000000110100010111;  % 0x00000d17  0.051126591861248016 %
0144 : 00000000000000000000110111010110;  % 0x00000dd6  0.0540512390434742 %
0145 : 00000000000000000001000110010000;  % 0x00001190  0.06861097365617752 %
0146 : 00000000000000000000001111001010;  % 0x000003ca  0.014795306138694286 %
0147 : 00000000000000000000010101111101;  % 0x0000057d  0.021435897797346115 %
0148 : 00000000000000000001000100111001;  % 0x00001139  0.06727112829685211 %
0149 : 11111111111111111111101010011100;  % 0xfffffa9c  -0.021063432097434998 %
014a : 00000000000000000000010101011011;  % 0x0000055b  0.020923476666212082 %
014b : 11111111111111111111101101110110;  % 0xfffffb76  -0.01773037016391754 %
014c : 11111111111111111101010110111111;  % 0xffffd5bf  -0.16505952179431915 %
014d : 11111111111111111111010010011101;  % 0xfffff49d  -0.044485583901405334 %
014e : 11111111111111111111100110000111;  % 0xfffff987  -0.025290580466389656 %
014f : 00000000000000000000010110111001;  % 0x000005b9  0.022351734340190887 %
0150 : 00000000000000000001000101110101;  % 0x00001175  0.0681922435760498 %
0151 : 11111111111111111111100001100110;  % 0xfffff866  -0.029687032103538513 %
0152 : 00000000000000000000011000001010;  % 0x0000060a  0.023585578426718712 %
0153 : 00000000000000000000100101011000;  % 0x00000958  0.036492664366960526 %
0154 : 00000000000000000000011100111001;  % 0x00000739  0.028217554092407227 %
0155 : 00000000000000000000100101011000;  % 0x00000958  0.03650382161140442 %
0156 : 00000000000000000000001000010111;  % 0x00000217  0.00816489290446043 %
0157 : 00000000000000000000000010010011;  % 0x00000093  0.0022500630002468824 %
0158 : 00000000000000000001000100000001;  % 0x00001101  0.06641903519630432 %
0159 : 00000000000000000000011110100000;  % 0x000007a0  0.02978150174021721 %
015a : 00000000000000000001100101001011;  % 0x0000194b  0.09879576414823532 %
015b : 00000000000000000000101111001101;  % 0x00000bcd  0.04610374569892883 %
015c : 11111111111111111111100101100001;  % 0xfffff961  -0.025866130366921425 %
015d : 11111111111111111111001001000111;  % 0xfffff247  -0.05360347032546997 %
015e : 00000000000000000001000001110001;  % 0x00001071  0.06422445178031921 %
015f : 00000000000000000000111010111011;  % 0x00000ebb  0.057540494948625565 %
0160 : 00000000000000000000000101110111;  % 0x00000177  0.005729455500841141 %
0161 : 00000000000000000001100010010000;  % 0x00001890  0.09595035016536713 %
0162 : 00000000000000000001111100010110;  % 0x00001f16  0.12142641842365265 %
0163 : 00000000000000000000011011000100;  % 0x000006c4  0.026433167979121208 %
0164 : 11111111111111111111111001010001;  % 0xfffffe51  -0.0065703061409294605 %
0165 : 00000000000000000000001000110100;  % 0x00000234  0.008598553016781807 %
0166 : 11111111111111111111110111011000;  % 0xfffffdd8  -0.0084218205884099 %
0167 : 00000000000000000000001110111011;  % 0x000003bb  0.014575048349797726 %
0168 : 11111111111111111101100000000111;  % 0xffffd807  -0.15613709390163422 %
0169 : 00000000000000000001000111001001;  % 0x000011c9  0.0694679319858551 %
016a : 11111111111111111110111100111010;  % 0xffffef3a  -0.06551924347877502 %
016b : 00000000000000000001001000011011;  % 0x0000121b  0.07072782516479492 %
016c : 11111111111111111111010110111101;  % 0xfffff5bd  -0.04008971154689789 %
016d : 00000000000000000000000010100111;  % 0x000000a7  0.002548297168686986 %
016e : 00000000000000000000100010001011;  % 0x0000088b  0.03336619958281517 %
016f : 00000000000000000000111110110110;  % 0x00000fb6  0.061372607946395874 %
0170 : 00000000000000000000111000111011;  % 0x00000e3b  0.05558909475803375 %
0171 : 00000000000000000000011001011101;  % 0x0000065d  0.024861928075551987 %
0172 : 00000000000000000001100110010110;  % 0x00001996  0.09994442760944366 %
0173 : 00000000000000000001010000101000;  % 0x00001428  0.07873427122831345 %
0174 : 00000000000000000001001111001001;  % 0x000013c9  0.07729322463274002 %
0175 : 00000000000000000000110000011111;  % 0x00000c1f  0.04734252765774727 %
0176 : 00000000000000000001001000111100;  % 0x0000123c  0.07122363895177841 %
0177 : 00000000000000000001100000010010;  % 0x00001812  0.09403087198734283 %
0178 : 00000000000000000000010111011101;  % 0x000005dd  0.022896146401762962 %
0179 : 00000000000000000000011001000101;  % 0x00000645  0.024492112919688225 %
017a : 00000000000000000000101101010111;  % 0x00000b57  0.044296082109212875 %
017b : 00000000000000000000101100110101;  % 0x00000b35  0.0437815822660923 %
017c : 00000000000000000001010110011001;  % 0x00001599  0.08436982333660126 %
017d : 00000000000000000000101100010011;  % 0x00000b13  0.043258924037218094 %
017e : 00000000000000000001001010100010;  % 0x000012a2  0.07278898358345032 %
017f : 00000000000000000000011110110111;  % 0x000007b7  0.030131567269563675 %
0180 : 00000000000000000000001110110000;  % 0x000003b0  0.014397337101399899 %
0181 : 00000000000000000000110100110010;  % 0x00000d32  0.051544759422540665 %
0182 : 00000000000000000000101010101101;  % 0x00000aad  0.04169965162873268 %
0183 : 11111111111111111111010100101001;  % 0xfffff529  -0.042346253991127014 %
0184 : 11111111111111111111101010101011;  % 0xfffffaab  -0.020825602114200592 %
0185 : 11111111111111111111101011101011;  % 0xfffffaeb  -0.019847322255373 %
0186 : 11111111111111111111111000100101;  % 0xfffffe25  -0.007242391351610422 %
0187 : 00000000000000000000000100000110;  % 0x00000106  0.003998821601271629 %
0188 : 11111111111111111111000001101010;  % 0xfffff06a  -0.06087559461593628 %
0189 : 00000000000000000000010111111100;  % 0x000005fc  0.02337101474404335 %
018a : 11111111111111111111000100111110;  % 0xfffff13e  -0.05764016509056091 %
018b : 00000000000000000000010011011110;  % 0x000004de  0.01902003586292267 %
018c : 00000000000000000001000010111001;  % 0x000010b9  0.06532150506973267 %
018d : 00000000000000000001101011100100;  % 0x00001ae4  0.10504099726676941 %
018e : 00000000000000000001110100001100;  % 0x00001d0c  0.11346708983182907 %
018f : 00000000000000000010010000011110;  % 0x0000241e  0.14107681810855865 %
0190 : 00000000000000000001011010001100;  % 0x0000168c  0.08807599544525146 %
0191 : 00000000000000000001001111001010;  % 0x000013ca  0.07729903608560562 %
0192 : 00000000000000000001001000100001;  % 0x00001221  0.07082054764032364 %
0193 : 00000000000000000000011011001011;  % 0x000006cb  0.026541156694293022 %
0194 : 00000000000000000000000010011101;  % 0x0000009d  0.002397410338744521 %
0195 : 00000000000000000001001000011010;  % 0x0000121a  0.07070603966712952 %
0196 : 00000000000000000001010100000110;  % 0x00001506  0.08211672306060791 %
0197 : 00000000000000000000000100110001;  % 0x00000131  0.004654303193092346 %
0198 : 00000000000000000001001101001001;  % 0x00001349  0.075338214635849 %
0199 : 00000000000000000010001110000111;  % 0x00002387  0.13878139853477478 %
019a : 00000000000000000001001001110111;  % 0x00001277  0.07213180512189865 %
019b : 00000000000000000000010000010110;  % 0x00000416  0.015966814011335373 %
019c : 00000000000000000001011101000100;  % 0x00001744  0.09087910503149033 %
019d : 11111111111111111110111000010110;  % 0xffffee16  -0.06998273730278015 %
019e : 00000000000000000000001011010000;  % 0x000002d0  0.010982686653733253 %
019f : 11111111111111111110011110000001;  % 0xffffe781  -0.09569486975669861 %
01a0 : 11111111111111111110110001000011;  % 0xffffec43  -0.07710953801870346 %
01a1 : 00000000000000000001000010001110;  % 0x0000108e  0.0646633729338646 %
01a2 : 11111111111111111111000101010000;  % 0xfffff150  -0.057368841022253036 %
01a3 : 00000000000000000001001011110110;  % 0x000012f6  0.07407102733850479 %
01a4 : 11111111111111111111101000101010;  % 0xfffffa2a  -0.022795356810092926 %
01a5 : 00000000000000000001001110001100;  % 0x0000138c  0.07635414600372314 %
01a6 : 11111111111111111111101100101100;  % 0xfffffb2c  -0.018856897950172424 %
01a7 : 11111111111111111111001101110100;  % 0xfffff374  -0.049011845141649246 %
01a8 : 11111111111111111111101001010111;  % 0xfffffa57  -0.022106433287262917 %
01a9 : 00000000000000000000000100011001;  % 0x00000119  0.004292453173547983 %
01aa : 00000000000000000010010010011010;  % 0x0000249a  0.14297616481781006 %
01ab : 00000000000000000000110011000010;  % 0x00000cc2  0.04983248561620712 %
01ac : 00000000000000000000101110000100;  % 0x00000b84  0.04498959332704544 %
01ad : 00000000000000000000010010011010;  % 0x0000049a  0.01797735132277012 %
01ae : 00000000000000000001011011001000;  % 0x000016c8  0.08899099379777908 %
01af : 00000000000000000000100110110111;  % 0x000009b7  0.037946853786706924 %
01b0 : 00000000000000000000010001011111;  % 0x0000045f  0.0170692577958107 %
01b1 : 00000000000000000000110000101010;  % 0x00000c2a  0.047520097345113754 %
01b2 : 11111111111111111111101010010100;  % 0xfffffa94  -0.021173903718590736 %
01b3 : 00000000000000000010000100001101;  % 0x0000210d  0.12910598516464233 %
01b4 : 00000000000000000000110000110001;  % 0x00000c31  0.04762968420982361 %
01b5 : 00000000000000000010111110110100;  % 0x00002fb4  0.1863335222005844 %
01b6 : 00000000000000000000100010101011;  % 0x000008ab  0.03385923430323601 %
01b7 : 00000000000000000000100000010000;  % 0x00000810  0.03148664906620979 %
01b8 : 00000000000000000000100001011000;  % 0x00000858  0.03258688002824783 %
01b9 : 00000000000000000000000010011100;  % 0x0000009c  0.0023760104086250067 %
01ba : 00000000000000000001010110010101;  % 0x00001595  0.08430933207273483 %
01bb : 00000000000000000000110101100010;  % 0x00000d62  0.05228300765156746 %
01bc : 11111111111111111110011110001111;  % 0xffffe78f  -0.09547405689954758 %
01bd : 11111111111111111110001111100000;  % 0xffffe3e0  -0.10987070947885513 %
01be : 11111111111111111110111111011011;  % 0xffffefdb  -0.06305720657110214 %
01bf : 11111111111111111111100100000011;  % 0xfffff903  -0.027301499620079994 %
01c0 : 11111111111111111110110001001111;  % 0xffffec4f  -0.07691635191440582 %
01c1 : 11111111111111111111011111010001;  % 0xfffff7d1  -0.03197270259261131 %
01c2 : 11111111111111111111001000010000;  % 0xfffff210  -0.05444006249308586 %
01c3 : 11111111111111111111011001100111;  % 0xfffff667  -0.037495240569114685 %
01c4 : 00000000000000000001001000110010;  % 0x00001232  0.07107150554656982 %
01c5 : 00000000000000000000101110010001;  % 0x00000b91  0.04518023878335953 %
01c6 : 11111111111111111111111100101100;  % 0xffffff2c  -0.0032311417162418365 %
01c7 : 00000000000000000000111011001000;  % 0x00000ec8  0.05774011090397835 %
01c8 : 00000000000000000001001010000110;  % 0x00001286  0.07236158847808838 %
01c9 : 11111111111111111111101010110100;  % 0xfffffab4  -0.020692048594355583 %
01ca : 11111111111111111111100110010100;  % 0xfffff994  -0.025078486651182175 %
01cb : 11111111111111111111011111011011;  % 0xfffff7db  -0.031809233129024506 %
01cc : 00000000000000000000101000101100;  % 0x00000a2c  0.03974079340696335 %
01cd : 00000000000000000000010111001011;  % 0x000005cb  0.02262614108622074 %
01ce : 00000000000000000000001101000111;  % 0x00000347  0.012808764353394508 %
01cf : 00000000000000000001100111001101;  % 0x000019cd  0.10079073905944824 %
01d0 : 00000000000000000000110011101110;  % 0x00000cee  0.05050135403871536 %
01d1 : 00000000000000000001111011010011;  % 0x00001ed3  0.12040551006793976 %
01d2 : 00000000000000000000101110011100;  % 0x00000b9c  0.04535333439707756 %
01d3 : 11111111111111111111011001110010;  % 0xfffff672  -0.037319473922252655 %
01d4 : 00000000000000000000100100111000;  % 0x00000938  0.03601711988449097 %
01d5 : 00000000000000000000011001111010;  % 0x0000067a  0.02529977262020111 %
01d6 : 00000000000000000000001011000111;  % 0x000002c7  0.010847589001059532 %
01d7 : 11111111111111111110101011101010;  % 0xffffeaea  -0.08237151801586151 %
01d8 : 00000000000000000000010110000010;  % 0x00000582  0.021508323028683662 %
01d9 : 11111111111111111111000101100000;  % 0xfffff160  -0.0571359284222126 %
01da : 11111111111111111111001100011100;  % 0xfffff31c  -0.05035015940666199 %
01db : 00000000000000000000010001000111;  % 0x00000447  0.016711799427866936 %
01dc : 00000000000000000000110011100011;  % 0x00000ce3  0.050333939492702484 %
01dd : 00000000000000000000011100101110;  % 0x0000072e  0.028047559782862663 %
01de : 00000000000000000000011101110111;  % 0x00000777  0.029165323823690414 %
01df : 11111111111111111111100001110010;  % 0xfffff872  -0.029505416750907898 %
01e0 : 11111111111111111111000100111011;  % 0xfffff13b  -0.0576954148709774 %
01e1 : 11111111111111111111100001100000;  % 0xfffff860  -0.02978801541030407 %
01e2 : 00000000000000000001010001001110;  % 0x0000144e  0.07931870222091675 %
01e3 : 00000000000000000001000111011011;  % 0x000011db  0.0697421059012413 %
01e4 : 00000000000000000000011011101001;  % 0x000006e9  0.026992352679371834 %
01e5 : 11111111111111111111000001000011;  % 0xfffff043  -0.06147928908467293 %
01e6 : 11111111111111111111100110110100;  % 0xfffff9b4  -0.024590570479631424 %
01e7 : 11111111111111111111011010010101;  % 0xfffff695  -0.0367862842977047 %
01e8 : 11111111111111111111011000110000;  % 0xfffff630  -0.03832418471574783 %
01e9 : 00000000000000000001001101010011;  % 0x00001353  0.07549133151769638 %
01ea : 11111111111111111111100100010100;  % 0xfffff914  -0.027045708149671555 %
01eb : 00000000000000000010011111001100;  % 0x000027cc  0.15546250343322754 %
01ec : 00000000000000000000011010000100;  % 0x00000684  0.025444092229008675 %
01ed : 00000000000000000001001000101001;  % 0x00001229  0.07093246281147003 %
01ee : 00000000000000000000101000011111;  % 0x00000a1f  0.03953583538532257 %
01ef : 00000000000000000000000001000110;  % 0x00000046  0.001064732321538031 %
01f0 : 00000000000000000000011011110001;  % 0x000006f1  0.027111832052469254 %
01f1 : 11111111111111111111000111101110;  % 0xfffff1ee  -0.05496621131896973 %
01f2 : 00000000000000000000110000101101;  % 0x00000c2d  0.047566160559654236 %
01f3 : 11111111111111111110100010100101;  % 0xffffe8a5  -0.09122791886329651 %
01f4 : 11111111111111111110110001110101;  % 0xffffec75  -0.07634510099887848 %
01f5 : 00000000000000000000011110010100;  % 0x00000794  0.02960718609392643 %
01f6 : 11111111111111111110111100011001;  % 0xffffef19  -0.06603047251701355 %
01f7 : 11111111111111111111010111110101;  % 0xfffff5f5  -0.039232078939676285 %
01f8 : 11111111111111111111011110100100;  % 0xfffff7a4  -0.03264949843287468 %
01f9 : 11111111111111111111001110000010;  % 0xfffff382  -0.048793744295835495 %
01fa : 11111111111111111111110001011101;  % 0xfffffc5d  -0.014202076941728592 %
01fb : 00000000000000000000011101101000;  % 0x00000768  0.02892984449863434 %
01fc : 11111111111111111111001000100100;  % 0xfffff224  -0.05413777381181717 %
01fd : 11111111111111111111001001011001;  % 0xfffff259  -0.053331565111875534 %
01fe : 11111111111111111111011111010111;  % 0xfffff7d7  -0.0318814218044281 %
01ff : 11111111111111111101101101001011;  % 0xffffdb4b  -0.14338932931423187 %
0200 : 11111111111111111111010000110110;  % 0xfffff436  -0.0460566021502018 %
0201 : 11111111111111111111000111000010;  % 0xfffff1c2  -0.05563874542713165 %
0202 : 11111111111111111111001011010110;  % 0xfffff2d6  -0.051428426057100296 %
0203 : 11111111111111111110110111000110;  % 0xffffedc6  -0.07119133323431015 %
0204 : 11111111111111111101000111000110;  % 0xffffd1c6  -0.18057134747505188 %
0205 : 11111111111111111111001101001101;  % 0xfffff34d  -0.04959922656416893 %
0206 : 11111111111111111111110011000110;  % 0xfffffcc6  -0.012604432180523872 %
0207 : 11111111111111111111101100011101;  % 0xfffffb1d  -0.019082192331552505 %
0208 : 00000000000000000000000011110001;  % 0x000000f1  0.003677557921037078 %
0209 : 00000000000000000000010011010111;  % 0x000004d7  0.01890397071838379 %
020a : 11111111111111111111011110010101;  % 0xfffff795  -0.032882314175367355 %
020b : 11111111111111111111111011101010;  % 0xfffffeea  -0.004239985253661871 %
020c : 00000000000000000000110010100000;  % 0x00000ca0  0.049322549253702164 %
020d : 00000000000000000000000010010100;  % 0x00000094  0.002260827226564288 %
020e : 00000000000000000000010101110110;  % 0x00000576  0.02133272960782051 %
020f : 11111111111111111101100000000111;  % 0xffffd807  -0.15614281594753265 %
0210 : 11111111111111111110101001011001;  % 0xffffea59  -0.08458083868026733 %
0211 : 00000000000000000000010110000100;  % 0x00000584  0.02154255472123623 %
0212 : 00000000000000000001010001100111;  % 0x00001467  0.07969801872968674 %
0213 : 00000000000000000001000001110100;  % 0x00001074  0.06426580250263214 %
0214 : 11111111111111111111001110000001;  % 0xfffff381  -0.04881718382239342 %
0215 : 00000000000000000000100101001001;  % 0x00000949  0.036265552043914795 %
0216 : 11111111111111111111110010110011;  % 0xfffffcb3  -0.012892315164208412 %
0217 : 00000000000000000000101011110100;  % 0x00000af4  0.042787790298461914 %
0218 : 00000000000000000000010111010001;  % 0x000005d1  0.022713474929332733 %
0219 : 11111111111111111111011010000110;  % 0xfffff686  -0.037023305892944336 %
021a : 11111111111111111110010010011001;  % 0xffffe499  -0.1070447638630867 %
021b : 11111111111111111111001011011111;  % 0xfffff2df  -0.05128983035683632 %
021c : 11111111111111111110010111111001;  % 0xffffe5f9  -0.10166403651237488 %
021d : 11111111111111111101011111101101;  % 0xffffd7ed  -0.15654106438159943 %
021e : 11111111111111111101111000010001;  % 0xffffde11  -0.13254891335964203 %
021f : 11111111111111111110001000011000;  % 0xffffe218  -0.11682508885860443 %
0220 : 11111111111111111101101111111010;  % 0xffffdbfa  -0.1407226175069809 %
0221 : 11111111111111111101101101011010;  % 0xffffdb5a  -0.14315550029277802 %
0222 : 11111111111111111111100010011100;  % 0xfffff89c  -0.028862595558166504 %
0223 : 11111111111111111110010101000101;  % 0xffffe545  -0.10441652685403824 %
0224 : 11111111111111111111101000100000;  % 0xfffffa20  -0.02294674888253212 %
0225 : 11111111111111111111110110100100;  % 0xfffffda4  -0.009217004291713238 %
0226 : 00000000000000000000000001011111;  % 0x0000005f  0.0014424200635403395 %
0227 : 00000000000000000000010000101011;  % 0x0000042b  0.016276568174362183 %
0228 : 11111111111111111111010011101111;  % 0xfffff4ef  -0.043225325644016266 %
0229 : 00000000000000000000000010111010;  % 0x000000ba  0.0028368234634399414 %
022a : 11111111111111111101111000111000;  % 0xffffde38  -0.13196080923080444 %
022b : 11111111111111111111010000101101;  % 0xfffff42d  -0.046187542378902435 %
022c : 11111111111111111111001010100101;  % 0xfffff2a5  -0.05217428877949715 %
022d : 00000000000000000000101001000001;  % 0x00000a41  0.040054742246866226 %
022e : 00000000000000000001000100010111;  % 0x00001117  0.0667538121342659 %
022f : 00000000000000000001010100111100;  % 0x0000153c  0.08294733613729477 %
0230 : 11111111111111111111101010101110;  % 0xfffffaae  -0.020784281194210052 %
0231 : 00000000000000000001001010111100;  % 0x000012bc  0.07318281382322311 %
0232 : 00000000000000000000010001111101;  % 0x0000047d  0.017536764964461327 %
0233 : 00000000000000000000110001000110;  % 0x00000c46  0.04794777184724808 %
0234 : 00000000000000000001000111011100;  % 0x000011dc  0.06976478546857834 %
0235 : 11111111111111111110110101100000;  % 0xffffed60  -0.0727488324046135 %
0236 : 11111111111111111110011001011101;  % 0xffffe65d  -0.10013950616121292 %
0237 : 11111111111111111101011010100111;  % 0xffffd6a7  -0.16152027249336243 %
0238 : 11111111111111111101100001101110;  % 0xffffd86e  -0.15457738935947418 %
0239 : 11111111111111111101100101110100;  % 0xffffd974  -0.15056651830673218 %
023a : 11111111111111111101011001100010;  % 0xffffd662  -0.16257241368293762 %
023b : 11111111111111111101100100011001;  % 0xffffd919  -0.15196633338928223 %
023c : 11111111111111111101110000011111;  % 0xffffdc1f  -0.1401577740907669 %
023d : 11111111111111111111001111111100;  % 0xfffff3fc  -0.04693219065666199 %
023e : 11111111111111111111101010001011;  % 0xfffffa8b  -0.021315423771739006 %
023f : 11111111111111111111010100010001;  % 0xfffff511  -0.04270682856440544 %
0240 : 11111111111111111111111111011001;  % 0xffffffd9  -0.0005970334750600159 %
0241 : 11111111111111111111101000110010;  % 0xfffffa32  -0.022669369354844093 %
0242 : 11111111111111111111000101101100;  % 0xfffff16c  -0.05695023760199547 %
0243 : 11111111111111111111110010101010;  % 0xfffffcaa  -0.013030505739152431 %
0244 : 00000000000000000000011111011010;  % 0x000007da  0.030673958361148834 %
0245 : 11111111111111111111111101000101;  % 0xffffff45  -0.0028583798557519913 %
0246 : 11111111111111111111001001001100;  % 0xfffff24c  -0.05352034419775009 %
0247 : 11111111111111111110001011101000;  % 0xffffe2e8  -0.11364760249853134 %
0248 : 11111111111111111111111111110101;  % 0xfffffff5  -0.00017049122834578156 %
0249 : 00000000000000000000100101001100;  % 0x0000094c  0.0363166406750679 %
024a : 11111111111111111110101100111111;  % 0xffffeb3f  -0.08107662200927734 %
024b : 11111111111111111111000001110010;  % 0xfffff072  -0.060764361172914505 %
024c : 00000000000000000000011000000011;  % 0x00000603  0.02348647266626358 %
024d : 11111111111111111110111000110010;  % 0xffffee32  -0.06955089420080185 %
024e : 00000000000000000000111110000111;  % 0x00000f87  0.06065243110060692 %
024f : 00000000000000000001000110000011;  % 0x00001183  0.06840015202760696 %
0250 : 11111111111111111110011010110010;  % 0xffffe6b2  -0.09884775429964066 %
0251 : 11111111111111111111110001111101;  % 0xfffffc7d  -0.013711981475353241 %
0252 : 11111111111111111111111010011001;  % 0xfffffe99  -0.005476594902575016 %
0253 : 11111111111111111110100110000011;  % 0xffffe983  -0.08784211426973343 %
0254 : 11111111111111111111010101000011;  % 0xfffff543  -0.04193922504782677 %
0255 : 11111111111111111110001011100000;  % 0xffffe2e0  -0.11376922577619553 %
0256 : 11111111111111111111001011110100;  % 0xfffff2f4  -0.050958167761564255 %
0257 : 11111111111111111110000000011011;  % 0xffffe01b  -0.12458080798387527 %
0258 : 00000000000000000000000111000010;  % 0x000001c2  0.00686455937102437 %
0259 : 11111111111111111110000110100101;  % 0xffffe1a5  -0.1185692772269249 %
025a : 11111111111111111110011010011111;  % 0xffffe69f  -0.09913533180952072 %
025b : 11111111111111111111100100010010;  % 0xfffff912  -0.027072547003626823 %
025c : 11111111111111111110111000100110;  % 0xffffee26  -0.06972984224557877 %
025d : 11111111111111111110011110100110;  % 0xffffe7a6  -0.09512241184711456 %
025e : 11111111111111111110001010100111;  % 0xffffe2a7  -0.1146409884095192 %
025f : 11111111111111111111010001000010;  % 0xfffff442  -0.045866213738918304 %
0260 : 11111111111111111111100110011101;  % 0xfffff99d  -0.024954255670309067 %
0261 : 11111111111111111110101111110011;  % 0xffffebf3  -0.07832322269678116 %
0262 : 11111111111111111111100010011011;  % 0xfffff89b  -0.028881603851914406 %
0263 : 11111111111111111101111010110011;  % 0xffffdeb3  -0.1300804615020752 %
0264 : 00000000000000000000110110110110;  % 0x00000db6  0.05355696380138397 %
0265 : 00000000000000000000010001100101;  % 0x00000465  0.017163222655653954 %
0266 : 00000000000000000000100100010101;  % 0x00000915  0.03548019379377365 %
0267 : 11111111111111111110101010111110;  % 0xffffeabe  -0.08303584903478622 %
0268 : 00000000000000000001001111011001;  % 0x000013d9  0.07752387970685959 %
0269 : 00000000000000000000000000111111;  % 0x0000003f  0.0009623034275136888 %
026a : 00000000000000000000100001011110;  % 0x0000085e  0.032681625336408615 %
026b : 00000000000000000000101010100100;  % 0x00000aa4  0.04156726971268654 %
026c : 00000000000000000000000110000010;  % 0x00000182  0.005889374762773514 %
026d : 11111111111111111110001110011111;  % 0xffffe39f  -0.1108509749174118 %
026e : 11111111111111111110101110101011;  % 0xffffebab  -0.07942356914281845 %
026f : 11111111111111111111001011010111;  % 0xfffff2d7  -0.05140400305390358 %
0270 : 00000000000000000000100011010001;  % 0x000008d1  0.03443579003214836 %
0271 : 11111111111111111111101111100101;  % 0xfffffbe5  -0.016039324924349785 %
0272 : 11111111111111111111011011100010;  % 0xfffff6e2  -0.03561884164810181 %
0273 : 00000000000000000000011111000000;  % 0x000007c0  0.030279060825705528 %
0274 : 11111111111111111111001001001011;  % 0xfffff24b  -0.053547170013189316 %
0275 : 11111111111111111111000011010101;  % 0xfffff0d5  -0.059242505580186844 %
0276 : 11111111111111111111001100101110;  % 0xfffff32e  -0.05008387938141823 %
0277 : 11111111111111111110011001000100;  % 0xffffe644  -0.10052723437547684 %
0278 : 11111111111111111111001100110101;  % 0xfffff335  -0.04996568709611893 %
0279 : 11111111111111111110110101011010;  % 0xffffed5a  -0.07284003496170044 %
027a : 11111111111111111111011100001100;  % 0xfffff70c  -0.034975580871105194 %
027b : 11111111111111111101101000010010;  % 0xffffda12  -0.14816609025001526 %
027c : 11111111111111111111110111100011;  % 0xfffffde3  -0.008248526602983475 %
027d : 11111111111111111111101010101100;  % 0xfffffaac  -0.020808452740311623 %
027e : 11111111111111111111011101000111;  % 0xfffff747  -0.03407031297683716 %
027f : 11111111111111111110100100010101;  % 0xffffe915  -0.08952679485082626 %
0280 : 00000000000000000000101000111001;  % 0x00000a39  0.039933737367391586 %
0281 : 11111111111111111111100011011100;  % 0xfffff8dc  -0.027887798845767975 %
0282 : 00000000000000000001001111111100;  % 0x000013fc  0.07806830108165741 %
0283 : 00000000000000000001010101000111;  % 0x00001547  0.08311354368925095 %
0284 : 11111111111111111110111100000011;  % 0xffffef03  -0.06636282801628113 %
0285 : 00000000000000000000001010100001;  % 0x000002a1  0.010271109640598297 %
0286 : 11111111111111111111010101110001;  % 0xfffff571  -0.04123866930603981 %
0287 : 11111111111111111110111000000000;  % 0xffffee00  -0.07030819356441498 %
0288 : 11111111111111111111000000010010;  % 0xfffff012  -0.062226008623838425 %
0289 : 00000000000000000000011011111111;  % 0x000006ff  0.027326062321662903 %
028a : 00000000000000000001011000010111;  % 0x00001617  0.08628450334072113 %
028b : 00000000000000000000010110101100;  % 0x000005ac  0.022163162007927895 %
028c : 00000000000000000000101001000000;  % 0x00000a40  0.0400451123714447 %
028d : 11111111111111111111010101110001;  % 0xfffff571  -0.04125112295150757 %
028e : 00000000000000000000010010011000;  % 0x00000498  0.01793774962425232 %
028f : 11111111111111111111101001010000;  % 0xfffffa50  -0.022220097482204437 %
0290 : 11111111111111111111010001010011;  % 0xfffff453  -0.045602597296237946 %
0291 : 11111111111111111111010101011111;  % 0xfffff55f  -0.04151783511042595 %
0292 : 11111111111111111111110001101000;  % 0xfffffc68  -0.014036436565220356 %
0293 : 11111111111111111110111010111100;  % 0xffffeebc  -0.0674496665596962 %
0294 : 11111111111111111110010100110001;  % 0xffffe531  -0.10472568869590759 %
0295 : 11111111111111111111110110000011;  % 0xfffffd83  -0.009717750363051891 %
0296 : 11111111111111111111010111010011;  % 0xfffff5d3  -0.039752159267663956 %
0297 : 11111111111111111111001100111010;  % 0xfffff33a  -0.04989256337285042 %
0298 : 11111111111111111110001011110100;  % 0xffffe2f4  -0.11347034573554993 %
0299 : 11111111111111111110100111100011;  % 0xffffe9e3  -0.08637510985136032 %
029a : 11111111111111111110010110001001;  % 0xffffe589  -0.10337381064891815 %
029b : 00000000000000000000000101111110;  % 0x0000017e  0.005821995437145233 %
029c : 11111111111111111110111010001110;  % 0xffffee8e  -0.06814326345920563 %
029d : 00000000000000000000011011010010;  % 0x000006d2  0.02664116583764553 %
029e : 11111111111111111111111110100011;  % 0xffffffa3  -0.0014253464760258794 %
029f : 11111111111111111111110100000100;  % 0xfffffd04  -0.011650167405605316 %
02a0 : 00000000000000000000000000110110;  % 0x00000036  0.0008240267634391785 %
02a1 : 00000000000000000000010000010111;  % 0x00000417  0.015977822244167328 %
02a2 : 11111111111111111110101101000000;  % 0xffffeb40  -0.08105253428220749 %
02a3 : 00000000000000000000101100001001;  % 0x00000b09  0.043111201375722885 %
02a4 : 11111111111111111111101010011110;  % 0xfffffa9e  -0.02102978713810444 %
02a5 : 00000000000000000001011110101010;  % 0x000017aa  0.0924430787563324 %
02a6 : 00000000000000000000111000100011;  % 0x00000e23  0.055219314992427826 %
02a7 : 00000000000000000000111111001000;  % 0x00000fc8  0.06164814904332161 %
02a8 : 11111111111111111111111000110100;  % 0xfffffe34  -0.007021426688879728 %
02a9 : 11111111111111111111101000100010;  % 0xfffffa22  -0.0229208841919899 %
02aa : 11111111111111111111101100001110;  % 0xfffffb0e  -0.019322121515870094 %
02ab : 00000000000000000000000000111100;  % 0x0000003c  0.0009137162123806775 %
02ac : 11111111111111111111100100101000;  % 0xfffff928  -0.02674100175499916 %
02ad : 11111111111111111111011000001101;  % 0xfffff60d  -0.03886845335364342 %
02ae : 11111111111111111111001011000111;  % 0xfffff2c7  -0.0516449399292469 %
02af : 11111111111111111111101000000101;  % 0xfffffa05  -0.023359248414635658 %
02b0 : 11111111111111111110101000010001;  % 0xffffea11  -0.08568297326564789 %
02b1 : 11111111111111111111001100000100;  % 0xfffff304  -0.05072198063135147 %
02b2 : 11111111111111111111001101001100;  % 0xfffff34c  -0.049620360136032104 %
02b3 : 11111111111111111111101110110010;  % 0xfffffbb2  -0.01682182587683201 %
02b4 : 11111111111111111111110101010111;  % 0xfffffd57  -0.010391528718173504 %
02b5 : 00000000000000000000111101100010;  % 0x00000f62  0.06008892133831978 %
02b6 : 00000000000000000000101110111001;  % 0x00000bb9  0.04579264670610428 %
02b7 : 11111111111111111110111101111011;  % 0xffffef7b  -0.06453605741262436 %
02b8 : 00000000000000000001010000010010;  % 0x00001412  0.07840706408023834 %
02b9 : 11111111111111111111100101110101;  % 0xfffff975  -0.02555982396006584 %
02ba : 11111111111111111111110001000010;  % 0xfffffc42  -0.014614025130867958 %
02bb : 11111111111111111110110001101111;  % 0xffffec6f  -0.0764312893152237 %
02bc : 11111111111111111111001011001111;  % 0xfffff2cf  -0.051531024277210236 %
02bd : 00000000000000000000101000011010;  % 0x00000a1a  0.039453186094760895 %
02be : 00000000000000000000111001110101;  % 0x00000e75  0.056475721299648285 %
02bf : 00000000000000000000010000101000;  % 0x00000428  0.01623566821217537 %
02c0 : 11111111111111111111100100101111;  % 0xfffff92f  -0.026625318452715874 %
02c1 : 00000000000000000010010001111101;  % 0x0000247d  0.14252780377864838 %
02c2 : 00000000000000000000010011001111;  % 0x000004cf  0.018775979056954384 %
02c3 : 00000000000000000001011110011001;  % 0x00001799  0.09217509627342224 %
02c4 : 00000000000000000010001000010010;  % 0x00002212  0.13308925926685333 %
02c5 : 00000000000000000000101001101110;  % 0x00000a6e  0.040740374475717545 %
02c6 : 00000000000000000001011001010000;  % 0x00001650  0.08715374767780304 %
02c7 : 00000000000000000000111111001101;  % 0x00000fcd  0.0617242306470871 %
02c8 : 00000000000000000001000100111100;  % 0x0000113c  0.06732568889856339 %
02c9 : 00000000000000000001000110001001;  % 0x00001189  0.06850192695856094 %
02ca : 00000000000000000000010101001100;  % 0x0000054c  0.020692884922027588 %
02cb : 00000000000000000000100000010110;  % 0x00000816  0.03158411383628845 %
02cc : 00000000000000000001001000111001;  % 0x00001239  0.07117787003517151 %
02cd : 00000000000000000000011010001000;  % 0x00000688  0.02550891973078251 %
02ce : 00000000000000000001001011111100;  % 0x000012fc  0.07415119558572769 %
02cf : 00000000000000000001001101110111;  % 0x00001377  0.07603249698877335 %
02d0 : 11111111111111111111110101011010;  % 0xfffffd5a  -0.010347090661525726 %
02d1 : 00000000000000000010000111001111;  % 0x000021cf  0.13205879926681519 %
02d2 : 11111111111111111111000101110010;  % 0xfffff172  -0.05685874819755554 %
02d3 : 00000000000000000000011011110011;  % 0x000006f3  0.027138564735651016 %
02d4 : 11111111111111111111011000110010;  % 0xfffff632  -0.03829682245850563 %
02d5 : 00000000000000000001010010011110;  % 0x0000149e  0.08053786307573318 %
02d6 : 00000000000000000000010011101111;  % 0x000004ef  0.019274702295660973 %
02d7 : 00000000000000000001011000010101;  % 0x00001615  0.08626245707273483 %
02d8 : 00000000000000000000011110111001;  % 0x000007b9  0.030164606869220734 %
02d9 : 11111111111111111111000111001110;  % 0xfffff1ce  -0.055456746369600296 %
02da : 00000000000000000000101011000111;  % 0x00000ac7  0.04209328442811966 %
02db : 11111111111111111111101001000111;  % 0xfffffa47  -0.022348526865243912 %
02dc : 11111111111111111111000000101111;  % 0xfffff02f  -0.061783116310834885 %
02dd : 11111111111111111110110011110101;  % 0xffffecf5  -0.07437911629676819 %
02de : 00000000000000000000100001010011;  % 0x00000853  0.03251058980822563 %
02df : 00000000000000000001100101011100;  % 0x0000195c  0.09905392676591873 %
02e0 : 00000000000000000000100000111101;  % 0x0000083d  0.03218066692352295 %
02e1 : 00000000000000000010001110010111;  % 0x00002397  0.1390175074338913 %
02e2 : 00000000000000000000100111100011;  % 0x000009e3  0.03862692415714264 %
02e3 : 00000000000000000001101100110110;  % 0x00001b36  0.1062932088971138 %
02e4 : 00000000000000000000100101110111;  % 0x00000977  0.03697711229324341 %
02e5 : 00000000000000000010000111101010;  % 0x000021ea  0.13247916102409363 %
02e6 : 00000000000000000011000110011111;  % 0x0000319f  0.19383132457733154 %
02e7 : 00000000000000000011000100011011;  % 0x0000311b  0.1918119490146637 %
02e8 : 00000000000000000010001010011001;  % 0x00002299  0.13514326512813568 %
02e9 : 00000000000000000010001100111001;  % 0x00002339  0.13758593797683716 %
02ea : 00000000000000000001100110010101;  % 0x00001995  0.09993145614862442 %
02eb : 00000000000000000000000001010010;  % 0x00000052  0.0012462612939998507 %
02ec : 00000000000000000000000101010000;  % 0x00000150  0.005133071914315224 %
02ed : 00000000000000000001000010011010;  % 0x0000109a  0.06485071033239365 %
02ee : 00000000000000000001001011000101;  % 0x000012c5  0.07331731915473938 %
02ef : 00000000000000000001000000000010;  % 0x00001002  0.06253302842378616 %
02f0 : 00000000000000000000010110100000;  % 0x000005a0  0.021979041397571564 %
02f1 : 00000000000000000000000100000101;  % 0x00000105  0.003979405853897333 %
02f2 : 00000000000000000000000100010110;  % 0x00000116  0.004243962466716766 %
02f3 : 00000000000000000000001000100001;  % 0x00000221  0.008313998579978943 %
02f4 : 11111111111111111110101011011101;  % 0xffffeadd  -0.0825633630156517 %
02f5 : 00000000000000000001000110010101;  % 0x00001195  0.06867582350969315 %
02f6 : 00000000000000000000011001010110;  % 0x00000656  0.024749964475631714 %
02f7 : 11111111111111111111011111110001;  % 0xfffff7f1  -0.03147240728139877 %
02f8 : 00000000000000000000000000010000;  % 0x00000010  0.00024516897974535823 %
02f9 : 00000000000000000000010110110001;  % 0x000005b1  0.0222304817289114 %
02fa : 00000000000000000000001101000100;  % 0x00000344  0.01276348065584898 %
02fb : 11111111111111111111011100010110;  % 0xfffff716  -0.03482801839709282 %
02fc : 00000000000000000001011010110010;  % 0x000016b2  0.08864817023277283 %
02fd : 00000000000000000000010000000100;  % 0x00000404  0.015683559700846672 %
02fe : 11111111111111111111111101100100;  % 0xffffff64  -0.002383425133302808 %
02ff : 11111111111111111111110011101010;  % 0xfffffcea  -0.01205475628376007 %
0300 : 11111111111111111110111010011011;  % 0xffffee9b  -0.06794960051774979 %
0301 : 00000000000000000001001100011111;  % 0x0000131f  0.07468780875205994 %
0302 : 00000000000000000000110110100000;  % 0x00000da0  0.05322941020131111 %
0303 : 11111111111111111111001011011000;  % 0xfffff2d8  -0.05138716101646423 %
0304 : 11111111111111111111100100001110;  % 0xfffff90e  -0.02712353691458702 %
0305 : 11111111111111111111110011010011;  % 0xfffffcd3  -0.012405812740325928 %
0306 : 00000000000000000001100011110011;  % 0x000018f3  0.09745350480079651 %
0307 : 00000000000000000001001010011111;  % 0x0000129f  0.07273172587156296 %
0308 : 11111111111111111111001101111001;  % 0xfffff379  -0.048938050866127014 %
0309 : 11111111111111111111110110000011;  % 0xfffffd83  -0.009722336195409298 %
030a : 11111111111111111111100100011001;  % 0xfffff919  -0.02695956453680992 %
030b : 00000000000000000000101111011110;  % 0x00000bde  0.04635493457317352 %
030c : 00000000000000000000110101010100;  % 0x00000d54  0.052062563598155975 %
030d : 11111111111111111111111011001111;  % 0xfffffecf  -0.004656068980693817 %
030e : 00000000000000000001010000010001;  % 0x00001411  0.07838728278875351 %
030f : 11111111111111111110111111110111;  % 0xffffeff7  -0.06263130158185959 %
END;
