11111111111111111110111101000110
00000000000000000000011110001111
11111111111111111110111111001001
11111111111111111111101101100000
11111111111111111111010110101010
11111111111111111110111010101011
11111111111111111111101000001100
00000000000000000000111001000011
11111111111111111111101111110111
11111111111111111111001010101110
00000000000000000001000101011110
00000000000000000000001011001110
00000000000000000001011000111011
00000000000000000001001100101110
11111111111111111110101001000010
00000000000000000001010000000011
00000000000000000001001010001110
00000000000000000000100010000101
11111111111111111111011000001001
00000000000000000000100001011000
00000000000000000000101110011111
00000000000000000000110001000111
11111111111111111111010010001100
11111111111111111110111010100111
00000000000000000000101001001010
11111111111111111111001010010011
00000000000000000000100001010101
00000000000000000000000111111111
00000000000000000001010111010010
11111111111111111111110110111101
11111111111111111111110110101000
00000000000000000001000111011001
11111111111111111110101011010110
11111111111111111110101101101100
00000000000000000001000010010111
11111111111111111111100000010110
00000000000000000000001010100010
00000000000000000001000001111101
11111111111111111110111010000000
00000000000000000001010001101100
11111111111111111111011000011101
00000000000000000000001110101011
00000000000000000001000011100101
00000000000000000000111111110111
00000000000000000001000011111111
11111111111111111110111011100101
00000000000000000001001111001010
11111111111111111111000100110110
11111111111111111111101100000110
11111111111111111111101111000001
11111111111111111111111110001111
11111111111111111111011011101000
11111111111111111111100111101001
11111111111111111111101100101000
11111111111111111111101000110001
00000000000000000000110000010000
00000000000000000000111010011001
00000000000000000000101111000000
11111111111111111111100001110101
11111111111111111110101111111010
00000000000000000000101101011010
00000000000000000001000001010100
11111111111111111110101000111101
11111111111111111111101111010011
11111111111111111111001110110111
11111111111111111111101000100101
11111111111111111110101100100000
00000000000000000000010011001010
11111111111111111110101000110111
11111111111111111111111101011111
00000000000000000000010100001101
00000000000000000000011101001000
11111111111111111111010100000010
11111111111111111111001100101011
00000000000000000001000000000000
00000000000000000000111010110101
00000000000000000000111001110001
11111111111111111110110100111111
11111111111111111110111000111111
11111111111111111111100001010101
00000000000000000000101100000000
11111111111111111110101010000011
11111111111111111111111110101101
11111111111111111110101110111001
00000000000000000000001110111100
11111111111111111111010100011001
11111111111111111111101100111010
11111111111111111111010101100111
00000000000000000001001111000000
11111111111111111111011100011011
11111111111111111111001110000000
00000000000000000000011000101001
00000000000000000000001110001001
11111111111111111110101011010110
00000000000000000001000001000001
11111111111111111111110111000011
11111111111111111111101010011111
00000000000000000000111000100010
00000000000000000000110100000111
00000000000000000001010011010110
00000000000000000000101100010010
11111111111111111110100101100000
00000000000000000000100111011010
00000000000000000000111011110111
11111111111111111111001011011001
11111111111111111111010011001100
11111111111111111111111100110110
11111111111111111111000101100011
00000000000000000000001110101101
00000000000000000000001000000000
11111111111111111111000010111011
11111111111111111111011101000010
11111111111111111111010011001011
00000000000000000000011101001000
00000000000000000000111001101100
11111111111111111111001000101010
00000000000000000000010111111111
11111111111111111110111100010100
00000000000000000000110001100100
00000000000000000001010011010000
11111111111111111111101110100100
00000000000000000001001001110100
00000000000000000000101101110110
11111111111111111111001011001011
00000000000000000000111000110100
11111111111111111111100010110001
11111111111111111111111011111011
11111111111111111111010111011111
11111111111111111111011001100001
11111111111111111110110111010100
11111111111111111111111011111001
00000000000000000000110000011010
11111111111111111111110000100110
00000000000000000000011010010100
11111111111111111110110111001011
00000000000000000000001001000110
00000000000000000000110101001101
00000000000000000000110000010011
11111111111111111110101000101010
11111111111111111111001000110110
00000000000000000001000111111101
11111111111111111111001000111000
11111111111111111111100010001001
00000000000000000000110001001010
00000000000000000000010100010101
11111111111111111111000011111011
00000000000000000000101000101111
11111111111111111111110100100000
11111111111111111111100011111001
00000000000000000000001001110000
00000000000000000001000101111001
00000000000000000000000000011110
11111111111111111111101000101010
00000000000000000001001110100110
11111111111111111111010011010001
00000000000000000001001001100111
11111111111111111111101011011001
11111111111111111111000010100001
11111111111111111110101010100111
00000000000000000000011000000100
00000000000000000000010110011101
11111111111111111111011000111001
00000000000000000000000010111000
00000000000000000001000010010100
00000000000000000000111000001101
00000000000000000000001011000111
11111111111111111111000000000011
00000000000000000000101111001001
11111111111111111111000101000001
00000000000000000000110101001110
11111111111111111111101000110100
11111111111111111110101110010001
11111111111111111111111010001100
00000000000000000000110010101101
00000000000000000000010110101000
00000000000000000000000010011111
00000000000000000001010000110110
00000000000000000001010011011011
00000000000000000000010001100011
11111111111111111111101111001100
00000000000000000000100110011100
00000000000000000001000111001111
11111111111111111111000000000000
11111111111111111111100100010101
00000000000000000001000011111101
11111111111111111110101111100011
11111111111111111110110101110001
11111111111111111111001100000000
11111111111111111111000100110000
00000000000000000000011101100111
11111111111111111111100000110110
11111111111111111110101000110001
00000000000000000000000101010101
00000000000000000000111111110001
00000000000000000001010101101111
11111111111111111111100111010011
00000000000000000000001100110101
11111111111111111111000011011011
11111111111111111111111101100110
00000000000000000000011110101111
00000000000000000000110101110011
11111111111111111111011011111100
00000000000000000000110101100101
11111111111111111111011110111110
00000000000000000001010000111010
11111111111111111111001101011101
00000000000000000001001100000100
11111111111111111111111110111101
00000000000000000000111101001000
11111111111111111111000000011101
11111111111111111111010101111111
11111111111111111110111111000111
00000000000000000000101001100111
00000000000000000001000011100111
00000000000000000000110010000000
11111111111111111111011111000101
11111111111111111110100110111000
00000000000000000001000010010100
00000000000000000000110001101011
00000000000000000000010001010010
11111111111111111111001111000010
00000000000000000001010001100110
00000000000000000000110011101110
00000000000000000001001100101111
00000000000000000000000011111000
00000000000000000000100110100011
00000000000000000001010011011111
00000000000000000001010101111000
11111111111111111111110110100100
11111111111111111111011111000101
00000000000000000001000010001000
00000000000000000000000110000001
00000000000000000000100011010000
00000000000000000000011100101000
11111111111111111111111011001011
11111111111111111111011111010011
11111111111111111111110011110110
11111111111111111110110010101111
11111111111111111111101010001110
00000000000000000000000111101001
00000000000000000000011010001100
00000000000000000001010001110111
00000000000000000000110100011110
11111111111111111111111000111101
00000000000000000000001011011100
00000000000000000000000011101100
00000000000000000000111000011000
11111111111111111111100011010101
11111111111111111111101101111101
00000000000000000000111000101100
00000000000000000000010111100101
00000000000000000000011010010001
00000000000000000001010111111001
00000000000000000000011111111101
00000000000000000000001001010011
00000000000000000000111111001011
11111111111111111111011111110000
11111111111111111110111011101001
00000000000000000000111010011000
11111111111111111111101010101011
11111111111111111111010000101001
11111111111111111110111011110000
11111111111111111111001011010110
11111111111111111111110011111101
11111111111111111111000011011110
11111111111111111110110101110100
11111111111111111110101010010011
00000000000000000001001111011101
00000000000000000000111100011001
11111111111111111111111101110000
11111111111111111111011000011111
11111111111111111111110001000000
00000000000000000000001011111110
11111111111111111110111010000011
11111111111111111111101001111010
00000000000000000000011100011000
11111111111111111110111111100100
00000000000000000000100000011010
11111111111111111111110001110110
11111111111111111111001011101010
11111111111111111110111110111001
00000000000000000000000011110010
11111111111111111110101010100000
11111111111111111111000110011100
11111111111111111110111011100001
00000000000000000000000111000001
11111111111111111111000111000011
11111111111111111111110000100100
11111111111111111111111010100111
00000000000000000001001010001001
00000000000000000000011110110000
11111111111111111111101001100011
00000000000000000000000000100110
00000000000000000000110011111111
00000000000000000001001010010100
11111111111111111111010010000010
11111111111111111111111010001110
00000000000000000001000011000101
00000000000000000001000010101000
11111111111111111111110001101000
11111111111111111110111110101101
00000000000000000000011010010011
00000000000000000000010101110100
00000000000000000000010001000011
11111111111111111111111000101010
00000000000000000000000011011011
11111111111111111110101101010010
11111111111111111111100010001101
00000000000000000000101100001111
11111111111111111111001111100110
11111111111111111111100001100101
00000000000000000000010000010111
00000000000000000001000111110110
11111111111111111111110100000010
11111111111111111111100110110011
11111111111111111111011111100001
11111111111111111111010010111001
11111111111111111110101011111011
00000000000000000000111010010110
11111111111111111111110100001001
00000000000000000000111101011011
11111111111111111110101011100101
00000000000000000001001110110001
11111111111111111111101100000101
00000000000000000000010100011010
11111111111111111110101001000100
11111111111111111111001010111011
11111111111111111111000010100110
11111111111111111110111111100111
00000000000000000000010111100001
00000000000000000000110001101100
11111111111111111110111100010000
11111111111111111110101101110110
11111111111111111111000101100000
11111111111111111111011111011110
11111111111111111110101001110001
00000000000000000000101100100100
00000000000000000000111110111111
11111111111111111110110010111010
00000000000000000001001100100100
00000000000000000000000100111011
11111111111111111110101110110001
00000000000000000000000011111101
11111111111111111111000010001100
11111111111111111111000010001001
11111111111111111110100110110100
11111111111111111110011101001001
11111111111111111111101011111011
11111111111111111110101110010001
00000000000000000000100011101001
11111111111111111111011010000101
11111111111111111111000010110100
00000000000000000000100100101011
11111111111111111111010000000101
00000000000000000000111111111101
00000000000000000001000110000101
11111111111111111110101101101111
00000000000000000001000001111111
00000000000000000000100000010100
00000000000000000000110111110110
11111111111111111110111110010001
11111111111111111110101111101001
00000000000000000000000110101001
11111111111111111111111100111011
00000000000000000000100010010000
00000000000000000000000100100100
00000000000000000000001101000010
00000000000000000000001111110011
11111111111111111110110000100101
00000000000000000000100010100101
00000000000000000000100111101011
00000000000000000000010000100111
00000000000000000000100100000101
11111111111111111111001000100101
00000000000000000000111010100000
11111111111111111111010100110101
00000000000000000000010000000111
11111111111111111110100011101110
00000000000000000001000100001000
11111111111111111110100101100100
00000000000000000000111011101110
11111111111111111111110011111100
11111111111111111110100010000010
11111111111111111110110100101011
11111111111111111111010111110101
00000000000000000000010011101110
11111111111111111111100000011101
11111111111111111111101010100001
11111111111111111111111100111100
11111111111111111110101101111000
00000000000000000000101011101101
00000000000000000000010011111111
11111111111111111111011110000000
00000000000000000001000001110111
00000000000000000000000100100110
11111111111111111111101001101100
11111111111111111111011000101111
00000000000000000001000001110100
00000000000000000001000101000000
00000000000000000000101010001101
11111111111111111111101110010001
11111111111111111110100110011100
11111111111111111111010000000101
11111111111111111111101010111100
11111111111111111111110011101100
00000000000000000000110110010010
00000000000000000000111110000000
00000000000000000000111001010100
00000000000000000000011110111001
00000000000000000000110100000100
11111111111111111111111010110110
00000000000000000000110100101010
11111111111111111110100000011111
00000000000000000000111011000110
11111111111111111111110011110100
00000000000000000000100010110011
00000000000000000000100010001010
11111111111111111111011100011001
11111111111111111111110001000000
11111111111111111111010001001010
11111111111111111111001010000101
11111111111111111111100110001011
11111111111111111111001110000100
11111111111111111110110101101100
11111111111111111111110000010110
00000000000000000001000110010100
11111111111111111111000100000000
11111111111111111111100101000111
11111111111111111111110101011000
00000000000000000000011011100000
11111111111111111110110110110101
11111111111111111110011010010011
11111111111111111111001101110001
11111111111111111111101100101001
11111111111111111111000100101001
00000000000000000000100111001101
11111111111111111110110100111001
00000000000000000000110101111011
11111111111111111111111011011011
00000000000000000000001011101100
11111111111111111111001100101010
11111111111111111111001110001010
00000000000000000000011101111010
11111111111111111111111111001000
00000000000000000000101110100110
11111111111111111111011001100100
00000000000000000000101110100111
11111111111111111111011001111011
11111111111111111110111001101000
00000000000000000001001110111010
00000000000000000001010100010100
00000000000000000000100111101011
11111111111111111110111000111110
11111111111111111110100001101110
11111111111111111110101110100010
11111111111111111111010111101010
11111111111111111110110110111000
11111111111111111111001101101010
00000000000000000000010011111011
11111111111111111111100001101110
11111111111111111111101100111101
00000000000000000000110101100100
00000000000000000000001001000001
00000000000000000000001111000000
00000000000000000000010101010111
00000000000000000000000011100100
11111111111111111111110110010001
00000000000000000000111100001010
00000000000000000000100010101011
00000000000000000000011001001010
11111111111111111111011100100001
11111111111111111111010100011110
11111111111111111110010111100010
00000000000000000000101010011101
11111111111111111111101011010111
00000000000000000000100111011110
00000000000000000000110101111100
00000000000000000000110101001100
11111111111111111110111000001100
00000000000000000001000010011010
00000000000000000001001101000010
11111111111111111111111101000011
00000000000000000000101000100001
11111111111111111111110100001101
11111111111111111110100100000110
00000000000000000000010110000110
11111111111111111110011111111110
11111111111111111111000000010011
00000000000000000001010000100000
00000000000000000001010010101010
00000000000000000000010011111000
11111111111111111110110000111000
11111111111111111110111000011000
11111111111111111111011000111101
11111111111111111110110111001100
11111111111111111110101001010011
00000000000000000001000010000010
11111111111111111110101010001111
00000000000000000000000000111011
00000000000000000000001111001111
00000000000000000001000011000001
11111111111111111111010111101100
11111111111111111111111101111111
11111111111111111111000010001110
00000000000000000001001001111000
00000000000000000001010000010001
11111111111111111111100111010110
11111111111111111111100110010010
00000000000000000001000001111100
11111111111111111110111011111011
00000000000000000000001110000010
11111111111111111110110100000001
00000000000000000000110000011001
11111111111111111110010001011000
11111111111111111111100000011001
11111111111111111111010101110110
11111111111111111111110111100000
11111111111111111111111000000100
11111111111111111111111011100011
00000000000000000000011111010010
00000000000000000000011101001000
00000000000000000000100100100010
11111111111111111110111101100100
00000000000000000000110001101011
00000000000000000000010100001001
11111111111111111110100001010111
00000000000000000000000001001110
11111111111111111111101011101001
11111111111111111111001101000011
11111111111111111111101010110011
11111111111111111111010011111001
11111111111111111111110111001100
00000000000000000000001101001001
11111111111111111111111010100000
11111111111111111111010001001111
11111111111111111111100101011010
11111111111111111111001001011111
11111111111111111111110111000011
11111111111111111111000111101010
00000000000000000000110001111000
11111111111111111111010001000111
11111111111111111110011011001101
00000000000000000000001011100000
00000000000000000001000111000111
00000000000000000000001110111000
00000000000000000000101100100011
00000000000000000000010111010001
00000000000000000000100101110001
00000000000000000000100100100110
11111111111111111111000011011001
11111111111111111111110111111111
00000000000000000001000100101111
11111111111111111111011001011101
00000000000000000001001110001100
11111111111111111110111110101001
00000000000000000000000001110001
00000000000000000001001011101010
11111111111111111111000010101001
00000000000000000000000110001101
00000000000000000000000111111010
00000000000000000000011011000110
00000000000000000001010010100101
00000000000000000001010100101010
00000000000000000001011000101100
00000000000000000000010110010111
11111111111111111111001100101100
11111111111111111111110100100011
11111111111111111111100011111110
11111111111111111111001011100110
11111111111111111111011100110100
11111111111111111110101010101010
00000000000000000000000101000011
11111111111111111110111101000010
11111111111111111110111010010001
11111111111111111111111001111100
00000000000000000000001101010100
11111111111111111111010111001000
00000000000000000000101001110011
00000000000000000000000000101101
11111111111111111110110011000111
00000000000000000000111111111110
00000000000000000000100011010101
11111111111111111111111000000110
11111111111111111111100001001101
11111111111111111111010000110000
11111111111111111111001101101111
00000000000000000001000111000110
00000000000000000000011101101100
00000000000000000000111100111010
00000000000000000000101011001001
11111111111111111111110000000011
11111111111111111111101101101101
11111111111111111110111010000011
11111111111111111111010110111100
11111111111111111110111011101100
00000000000000000001010000101100
11111111111111111110111101100000
11111111111111111111001111010100
11111111111111111110111011101001
00000000000000000000001000010101
00000000000000000000011100101001
00000000000000000000010001000011
00000000000000000000110101111010
00000000000000000000011010001101
00000000000000000001000010000000
00000000000000000001001101011011
00000000000000000001011101000101
00000000000000000001000011101100
00000000000000000000000010110001
00000000000000000001100010100010
00000000000000000000101110011111
11111111111111111111101000001001
11111111111111111110111011100111
00000000000000000000010000110001
11111111111111111111000100011101
00000000000000000000011011101011
11111111111111111110101000101110
00000000000000000000100011110111
00000000000000000000000010000010
11111111111111111111000111000000
00000000000000000000001001100111
00000000000000000000010011010011
00000000000000000000101110101001
11111111111111111111011101000011
11111111111111111111000011101100
11111111111111111111110010000100
11111111111111111110111100010011
00000000000000000000011011110011
11111111111111111110111011010111
00000000000000000000100100011011
11111111111111111111011100000101
11111111111111111111010110010010
00000000000000000001001100011000
00000000000000000000001101110000
11111111111111111111010101101101
11111111111111111111110000011011
11111111111111111111110110101111
11111111111111111111000011100000
11111111111111111110110111011000
11111111111111111111111000101000
11111111111111111111010111100001
00000000000000000000100110001010
00000000000000000000011011010001
11111111111111111111001101110110
00000000000000000000010001110100
00000000000000000000000101011100
11111111111111111111101000100100
11111111111111111111111000001111
11111111111111111111110011000010
11111111111111111110110010101001
00000000000000000000110001000111
11111111111111111110110110111001
00000000000000000000000010101101
00000000000000000000111110111110
11111111111111111111101101100000
11111111111111111111111011100010
11111111111111111111101101010010
11111111111111111111001001110110
11111111111111111110110110001101
00000000000000000000100101110111
11111111111111111110110110001111
11111111111111111111010111010001
00000000000000000000101111111100
00000000000000000000101110000010
00000000000000000001100100000100
11111111111111111111111000110001
11111111111111111110111110000001
11111111111111111110110000100111
00000000000000000000000110011100
11111111111111111111000111110000
11111111111111111110111101100010
00000000000000000000111111110000
00000000000000000000100110110001
00000000000000000000111010000111
11111111111111111111100111101010
00000000000000000000000101010101
11111111111111111111011011100101
00000000000000000000101011111101
11111111111111111111100000110111
00000000000000000000110010001110
11111111111111111111011110101111
00000000000000000000100110111011
11111111111111111110101000001100
11111111111111111111111001001100
11111111111111111111001101010100
11111111111111111111110011001100
00000000000000000000010011000001
11111111111111111111111101100110
11111111111111111111010011001001
00000000000000000000010000101110
11111111111111111111110001010101
00000000000000000000110111101010
11111111111111111111001110101100
00000000000000000000111101111010
11111111111111111110111110110000
11111111111111111111101110100100
11111111111111111111010010001000
11111111111111111111011000100011
11111111111111111111111101101011
00000000000000000000011111010010
00000000000000000001000010000000
00000000000000000000111100000010
11111111111111111111001000000001
00000000000000000000010000010111
00000000000000000001000011100111
00000000000000000000111010001111
11111111111111111111110011011011
00000000000000000001010011100100
11111111111111111111111011110010
00000000000000000000100110000110
11111111111111111110101000111000
11111111111111111110110011011100
11111111111111111111101111101010
00000000000000000000011011000101
11111111111111111111010101101010
11111111111111111110110110011001
00000000000000000000001010111100
00000000000000000001000010100100
11111111111111111110100111111110
00000000000000000000110101010110
00000000000000000000101010111010
00000000000000000000000001111100
00000000000000000000110110100010
11111111111111111111001101011110
00000000000000000001001011000000
11111111111111111110111010001011
11111111111111111110110110011110
11111111111111111111001010011000
00000000000000000000101101110011
00000000000000000001000000000011
00000000000000000001001101111101
00000000000000000000001111010000
00000000000000000000111100110000
00000000000000000000100100010000
11111111111111111111110111100010
11111111111111111111111001011010
00000000000000000001010110010010
00000000000000000001001111001100
00000000000000000000010011011011
00000000000000000000101000110110
11111111111111111111110001010000
11111111111111111111111010110111
00000000000000000000100101001101
11111111111111111110111010001000
00000000000000000000010011001000
11111111111111111111111001110111
00000000000000000000100111011111
11111111111111111111001011100010
11111111111111111111100001110001
00000000000000000000010010110000
00000000000000000001010011000011
00000000000000000001000001001010
11111111111111111110101101111110
00000000000000000000110101011101
00000000000000000000001001100110
11111111111111111111001111101101
00000000000000000000110011000101
00000000000000000000011000010010
00000000000000000001011000101010
11111111111111111111100101011011
00000000000000000001000001111111
00000000000000000000001100100101
11111111111111111111000111001101
00000000000000000001001111100111
00000000000000000001000001101001
00000000000000000001011000110110
00000000000000000000100000001010
11111111111111111111100101110110
11111111111111111111010111100000
00000000000000000000000010110000
11111111111111111111011010110000
11111111111111111111010100000000
00000000000000000000101101110100
11111111111111111111000111110110
11111111111111111110111010000101
11111111111111111110101001111000
00000000000000000000101100010101
11111111111111111111110011000011
00000000000000000000110001000000
00000000000000000000001100100011
11111111111111111110101110011011
11111111111111111111110010011101
00000000000000000001001000100011
11111111111111111110111101110110
