DEPTH = 10;
WIDTH = 32;
ADDRESS_RADIX = HEX;
DATA_RADIX = BIN;
CONTENT
BEGIN
0000 : 00000000000000000001010100011011;  % 0x0000151b  0.08243955 %
0001 : 00000000000000000000001001010111;  % 0x00000257  0.009140387 %
0002 : 00000000000000000000010010111111;  % 0x000004bf  0.018545054 %
0003 : 00000000000000000000101110001111;  % 0x00000b8f  0.04515318 %
0004 : 11111111111111111111010100010111;  % 0xfffff517  -0.042625204 %
0005 : 00000000000000000000011010101100;  % 0x000006ac  0.0260669 %
0006 : 00000000000000000000111001000011;  % 0x00000e43  0.055709474 %
0007 : 00000000000000000001001110100100;  % 0x000013a4  0.076727696 %
0008 : 00000000000000000000100110011111;  % 0x0000099f  0.037579186 %
0009 : 00000000000000000000111101101111;  % 0x00000f6f  0.060288213 %
END;
