DEPTH = 784;
WIDTH = 32;
ADDRESS_RADIX = HEX;
DATA_RADIX = BIN;
CONTENT
BEGIN
0000 : 00000000000000000000000101000101;  % 0x00000145  0.004958190023899078 %
0001 : 00000000000000000000110100110101;  % 0x00000d35  0.051597364246845245 %
0002 : 00000000000000000000111100100011;  % 0x00000f23  0.05913383513689041 %
0003 : 11111111111111111111110001001111;  % 0xfffffc4f  -0.01441221684217453 %
0004 : 11111111111111111111010011000010;  % 0xfffff4c2  -0.04391219839453697 %
0005 : 00000000000000000000101000000001;  % 0x00000a01  0.03907596319913864 %
0006 : 11111111111111111110110000010011;  % 0xffffec13  -0.07783713936805725 %
0007 : 00000000000000000000101110001111;  % 0x00000b8f  0.0451531782746315 %
0008 : 00000000000000000000011101110011;  % 0x00000773  0.029100582003593445 %
0009 : 11111111111111111110111101110010;  % 0xffffef72  -0.06466694176197052 %
000a : 11111111111111111111101111000011;  % 0xfffffbc3  -0.016555093228816986 %
000b : 00000000000000000000101010110110;  % 0x00000ab6  0.0418398454785347 %
000c : 00000000000000000000110101100001;  % 0x00000d61  0.05226515233516693 %
000d : 11111111111111111111110110110001;  % 0xfffffdb1  -0.009012896567583084 %
000e : 11111111111111111111110010001011;  % 0xfffffc8b  -0.013497930020093918 %
000f : 00000000000000000001011000101100;  % 0x0000162c  0.08660881966352463 %
0010 : 11111111111111111111100101011110;  % 0xfffff95e  -0.025907151401042938 %
0011 : 11111111111111111110110101101110;  % 0xffffed6e  -0.07253406196832657 %
0012 : 00000000000000000001001010111010;  % 0x000012ba  0.07314763218164444 %
0013 : 11111111111111111111000000000110;  % 0xfffff006  -0.062411900609731674 %
0014 : 11111111111111111111001111001100;  % 0xfffff3cc  -0.0476640984416008 %
0015 : 00000000000000000000110101001110;  % 0x00000d4e  0.05197114497423172 %
0016 : 00000000000000000001001000100101;  % 0x00001225  0.07087991386651993 %
0017 : 00000000000000000001010110000011;  % 0x00001583  0.08403196185827255 %
0018 : 00000000000000000000010110011100;  % 0x0000059c  0.021910443902015686 %
0019 : 11111111111111111111001000011011;  % 0xfffff21b  -0.05428028479218483 %
001a : 00000000000000000000010011001101;  % 0x000004cd  0.01874716579914093 %
001b : 11111111111111111110110110000011;  % 0xffffed83  -0.07221973687410355 %
001c : 00000000000000000000100011111011;  % 0x000008fb  0.035083189606666565 %
001d : 00000000000000000000001101111011;  % 0x0000037b  0.013593144714832306 %
001e : 00000000000000000000110101001010;  % 0x00000d4a  0.05190400034189224 %
001f : 11111111111111111110101010111110;  % 0xffffeabe  -0.08303586393594742 %
0020 : 00000000000000000001000010011111;  % 0x0000109f  0.06492295861244202 %
0021 : 11111111111111111111111100100001;  % 0xffffff21  -0.0034097558818757534 %
0022 : 11111111111111111111101000101100;  % 0xfffffa2c  -0.022758793085813522 %
0023 : 11111111111111111111011011010000;  % 0xfffff6d0  -0.03588865324854851 %
0024 : 11111111111111111111100001000101;  % 0xfffff845  -0.030190421268343925 %
0025 : 00000000000000000000010011010100;  % 0x000004d4  0.018858294934034348 %
0026 : 11111111111111111110101110101001;  % 0xffffeba9  -0.0794527605175972 %
0027 : 11111111111111111111000011000011;  % 0xfffff0c3  -0.059529226273298264 %
0028 : 00000000000000000000111010001111;  % 0x00000e8f  0.05686558037996292 %
0029 : 11111111111111111111111111001110;  % 0xffffffce  -0.0007685255259275436 %
002a : 00000000000000000000000011101111;  % 0x000000ef  0.003644331591203809 %
002b : 00000000000000000000010000111011;  % 0x0000043b  0.01652909629046917 %
002c : 00000000000000000001000001000100;  % 0x00001044  0.06354334950447083 %
002d : 11111111111111111111110100001101;  % 0xfffffd0d  -0.011523486115038395 %
002e : 00000000000000000000111100010101;  % 0x00000f15  0.058913204818964005 %
002f : 11111111111111111110111101000111;  % 0xffffef47  -0.06531556695699692 %
0030 : 00000000000000000001000100001000;  % 0x00001108  0.0665220394730568 %
0031 : 00000000000000000001010101010110;  % 0x00001556  0.08334377408027649 %
0032 : 00000000000000000000110101001111;  % 0x00000d4f  0.0519939586520195 %
0033 : 11111111111111111111100011010111;  % 0xfffff8d7  -0.027972890064120293 %
0034 : 11111111111111111111101101000111;  % 0xfffffb47  -0.018448635935783386 %
0035 : 00000000000000000000100000111100;  % 0x0000083c  0.03216961771249771 %
0036 : 11111111111111111111000110101110;  % 0xfffff1ae  -0.05594012886285782 %
0037 : 00000000000000000000010000010100;  % 0x00000414  0.015929654240608215 %
0038 : 00000000000000000000001001011100;  % 0x0000025c  0.009209156036376953 %
0039 : 11111111111111111110110011011001;  % 0xffffecd9  -0.07481492310762405 %
003a : 00000000000000000001000010011100;  % 0x0000109c  0.06488125771284103 %
003b : 11111111111111111111001000111011;  % 0xfffff23b  -0.053785424679517746 %
003c : 00000000000000000001000000011100;  % 0x0000101c  0.06292470544576645 %
003d : 11111111111111111111011110110010;  % 0xfffff7b2  -0.0324363186955452 %
003e : 00000000000000000000100110011111;  % 0x0000099f  0.03758398815989494 %
003f : 00000000000000000000001100101101;  % 0x0000032d  0.012401248328387737 %
0040 : 11111111111111111111010001000011;  % 0xfffff443  -0.0458575040102005 %
0041 : 11111111111111111111100011010101;  % 0xfffff8d5  -0.027998393401503563 %
0042 : 11111111111111111111010010010011;  % 0xfffff493  -0.04463597759604454 %
0043 : 11111111111111111110111101101011;  % 0xffffef6b  -0.06477943807840347 %
0044 : 00000000000000000000000001111011;  % 0x0000007b  0.0018811465706676245 %
0045 : 00000000000000000000101001110000;  % 0x00000a70  0.040778402239084244 %
0046 : 11111111111111111110110001011011;  % 0xffffec5b  -0.07674122601747513 %
0047 : 11111111111111111111110001001111;  % 0xfffffc4f  -0.014421002008020878 %
0048 : 11111111111111111110111111111100;  % 0xffffeffc  -0.06256689131259918 %
0049 : 00000000000000000000101101000100;  % 0x00000b44  0.04399879276752472 %
004a : 11111111111111111111001110100100;  % 0xfffff3a4  -0.04828041419386864 %
004b : 11111111111111111111001000010111;  % 0xfffff217  -0.054338593035936356 %
004c : 00000000000000000001011000011011;  % 0x0000161b  0.08634244650602341 %
004d : 11111111111111111111101101101011;  % 0xfffffb6b  -0.01790032908320427 %
004e : 00000000000000000000111111111001;  % 0x00000ff9  0.06239471957087517 %
004f : 00000000000000000000101100001110;  % 0x00000b0e  0.04317726939916611 %
0050 : 11111111111111111111000011110010;  % 0xfffff0f2  -0.058805253356695175 %
0051 : 11111111111111111111011101101100;  % 0xfffff76c  -0.033513061702251434 %
0052 : 00000000000000000000010111110001;  % 0x000005f1  0.023204311728477478 %
0053 : 11111111111111111111010101000001;  % 0xfffff541  -0.041980329900979996 %
0054 : 00000000000000000000000100011001;  % 0x00000119  0.004290536046028137 %
0055 : 00000000000000000001000101101001;  % 0x00001169  0.06801516562700272 %
0056 : 00000000000000000000101001000100;  % 0x00000a44  0.040101103484630585 %
0057 : 11111111111111111111011011001100;  % 0xfffff6cc  -0.0359487310051918 %
0058 : 11111111111111111111010011000001;  % 0xfffff4c1  -0.04392798990011215 %
0059 : 00000000000000000001011010001111;  % 0x0000168f  0.08811290562152863 %
005a : 00000000000000000001011111110101;  % 0x000017f5  0.0935758650302887 %
005b : 11111111111111111111000110100010;  % 0xfffff1a2  -0.05611756071448326 %
005c : 11111111111111111111111010100010;  % 0xfffffea2  -0.0053388215601444244 %
005d : 00000000000000000000001100100000;  % 0x00000320  0.012207582592964172 %
005e : 00000000000000000001011001111011;  % 0x0000167b  0.08781690895557404 %
005f : 11111111111111111111101111001011;  % 0xfffffbcb  -0.016430381685495377 %
0060 : 00000000000000000010000011000101;  % 0x000020c5  0.12801097333431244 %
0061 : 00000000000000000000110100001010;  % 0x00000d0a  0.05092650279402733 %
0062 : 00000000000000000001101000110000;  % 0x00001a30  0.10229075700044632 %
0063 : 00000000000000000000000001101101;  % 0x0000006d  0.0016590184532105923 %
0064 : 00000000000000000001010110101010;  % 0x000015aa  0.0846230685710907 %
0065 : 00000000000000000001000001100011;  % 0x00001063  0.06400442123413086 %
0066 : 00000000000000000001101000001011;  % 0x00001a0b  0.10173075646162033 %
0067 : 00000000000000000000101010101000;  % 0x00000aa8  0.0416196808218956 %
0068 : 11111111111111111111111110000100;  % 0xffffff84  -0.0018856675596907735 %
0069 : 00000000000000000001000101101110;  % 0x0000116e  0.0680786743760109 %
006a : 11111111111111111111011010101101;  % 0xfffff6ad  -0.03642095997929573 %
006b : 11111111111111111110110111011101;  % 0xffffeddd  -0.07085411250591278 %
006c : 00000000000000000000110110011100;  % 0x00000d9c  0.053154125809669495 %
006d : 00000000000000000001001011010100;  % 0x000012d4  0.073549285531044 %
006e : 00000000000000000000000001011111;  % 0x0000005f  0.0014438205398619175 %
006f : 00000000000000000000010011011000;  % 0x000004d8  0.01892729103565216 %
0070 : 00000000000000000001011000000001;  % 0x00001601  0.08595792204141617 %
0071 : 11111111111111111111010011011001;  % 0xfffff4d9  -0.043558988720178604 %
0072 : 11111111111111111110111000011101;  % 0xffffee1d  -0.06987632811069489 %
0073 : 11111111111111111111011010101100;  % 0xfffff6ac  -0.03644457086920738 %
0074 : 11111111111111111111100110000010;  % 0xfffff982  -0.025362104177474976 %
0075 : 11111111111111111111110010000001;  % 0xfffffc81  -0.01365499384701252 %
0076 : 11111111111111111111011010010111;  % 0xfffff697  -0.03675973787903786 %
0077 : 00000000000000000000111001101010;  % 0x00000e6a  0.05631014332175255 %
0078 : 00000000000000000000110011111110;  % 0x00000cfe  0.05075522139668465 %
0079 : 00000000000000000001010001011110;  % 0x0000145e  0.07956338673830032 %
007a : 00000000000000000010111000110000;  % 0x00002e30  0.1804155707359314 %
007b : 00000000000000000010000101010011;  % 0x00002153  0.13017062842845917 %
007c : 00000000000000000000101011101000;  % 0x00000ae8  0.04260281100869179 %
007d : 00000000000000000000000101111110;  % 0x0000017e  0.0058290609158575535 %
007e : 00000000000000000001000000011111;  % 0x0000101f  0.06296654790639877 %
007f : 00000000000000000010011010011111;  % 0x0000269f  0.15086692571640015 %
0080 : 00000000000000000001110100110110;  % 0x00001d36  0.11410222202539444 %
0081 : 00000000000000000001000010001100;  % 0x0000108c  0.06463927775621414 %
0082 : 00000000000000000000110100101000;  % 0x00000d28  0.05138535425066948 %
0083 : 00000000000000000000010110010110;  % 0x00000596  0.02182033658027649 %
0084 : 00000000000000000000101101100100;  % 0x00000b64  0.04449540749192238 %
0085 : 11111111111111111111110010001111;  % 0xfffffc8f  -0.01344293076545 %
0086 : 00000000000000000000101010011100;  % 0x00000a9c  0.04143953695893288 %
0087 : 00000000000000000000010011110101;  % 0x000004f5  0.019356805831193924 %
0088 : 00000000000000000001010111101010;  % 0x000015ea  0.0855989009141922 %
0089 : 00000000000000000001100110000101;  % 0x00001985  0.09968340396881104 %
008a : 11111111111111111111101100110011;  % 0xfffffb33  -0.018745530396699905 %
008b : 11111111111111111111010010110101;  % 0xfffff4b5  -0.044119998812675476 %
008c : 00000000000000000000110100000110;  % 0x00000d06  0.05086565762758255 %
008d : 00000000000000000001001010101101;  % 0x000012ad  0.07295764237642288 %
008e : 11111111111111111110111000110010;  % 0xffffee32  -0.06954582035541534 %
008f : 00000000000000000000111100110111;  % 0x00000f37  0.05943448096513748 %
0090 : 00000000000000000001001101110010;  % 0x00001372  0.0759589672088623 %
0091 : 11111111111111111111111111110011;  % 0xfffffff3  -0.0001945515105035156 %
0092 : 11111111111111111111100100101101;  % 0xfffff92d  -0.02665908820927143 %
0093 : 00000000000000000001110111101100;  % 0x00001dec  0.1168772503733635 %
0094 : 00000000000000000000010000011001;  % 0x00000419  0.016008256003260612 %
0095 : 00000000000000000000100110110011;  % 0x000009b3  0.037882424890995026 %
0096 : 00000000000000000000100000010101;  % 0x00000815  0.03157615289092064 %
0097 : 00000000000000000001011011111001;  % 0x000016f9  0.08973588794469833 %
0098 : 11111111111111111111111101100110;  % 0xffffff66  -0.002343714702874422 %
0099 : 00000000000000000000100001001010;  % 0x0000084a  0.032375648617744446 %
009a : 00000000000000000000000100010000;  % 0x00000110  0.0041432068683207035 %
009b : 00000000000000000000011011001100;  % 0x000006cc  0.026545347645878792 %
009c : 00000000000000000000000011011100;  % 0x000000dc  0.003358082380145788 %
009d : 00000000000000000000110010101100;  % 0x00000cac  0.04949792101979256 %
009e : 00000000000000000000111110101000;  % 0x00000fa8  0.06115765869617462 %
009f : 00000000000000000000110100101101;  % 0x00000d2d  0.051467135548591614 %
00a0 : 00000000000000000000110110110001;  % 0x00000db1  0.053483959287405014 %
00a1 : 11111111111111111111111101111110;  % 0xffffff7e  -0.0019890086259692907 %
00a2 : 11111111111111111110110001110100;  % 0xffffec74  -0.076348677277565 %
00a3 : 11111111111111111111101111110011;  % 0xfffffbf3  -0.015818331390619278 %
00a4 : 11111111111111111111000100000010;  % 0xfffff102  -0.05856101214885712 %
00a5 : 00000000000000000001010010001111;  % 0x0000148f  0.08029990643262863 %
00a6 : 11111111111111111111100110111011;  % 0xfffff9bb  -0.02449052594602108 %
00a7 : 00000000000000000000110111001101;  % 0x00000dcd  0.05391283333301544 %
00a8 : 11111111111111111111110111101011;  % 0xfffffdeb  -0.008138932287693024 %
00a9 : 11111111111111111111111101000000;  % 0xffffff40  -0.0029266204219311476 %
00aa : 11111111111111111110110101010010;  % 0xffffed52  -0.07296356558799744 %
00ab : 00000000000000000000000111110110;  % 0x000001f6  0.007654465269297361 %
00ac : 00000000000000000000101000010111;  % 0x00000a17  0.03940724954009056 %
00ad : 11111111111111111110111111110011;  % 0xffffeff3  -0.06269756704568863 %
00ae : 00000000000000000000101000000001;  % 0x00000a01  0.03907424584031105 %
00af : 11111111111111111111100111111011;  % 0xfffff9fb  -0.02351006120443344 %
00b0 : 00000000000000000000010000101011;  % 0x0000042b  0.016288604587316513 %
00b1 : 00000000000000000000001011110110;  % 0x000002f6  0.011567899957299232 %
00b2 : 11111111111111111111110010111000;  % 0xfffffcb8  -0.012814137153327465 %
00b3 : 11111111111111111111111011101101;  % 0xfffffeed  -0.004192696884274483 %
00b4 : 00000000000000000000011101111100;  % 0x0000077c  0.029235372319817543 %
00b5 : 00000000000000000000001101000110;  % 0x00000346  0.012785693630576134 %
00b6 : 00000000000000000000100011000100;  % 0x000008c4  0.034241218119859695 %
00b7 : 00000000000000000000001110001000;  % 0x00000388  0.013797789812088013 %
00b8 : 00000000000000000001011111001000;  % 0x000017c8  0.09289666265249252 %
00b9 : 00000000000000000001001010000101;  % 0x00001285  0.07234487682580948 %
00ba : 00000000000000000000000101001101;  % 0x0000014d  0.005086362361907959 %
00bb : 00000000000000000000110010111001;  % 0x00000cb9  0.04969578608870506 %
00bc : 11111111111111111111111000110001;  % 0xfffffe31  -0.007067666854709387 %
00bd : 00000000000000000000101001110011;  % 0x00000a73  0.04081489145755768 %
00be : 11111111111111111111001110000110;  % 0xfffff386  -0.048738982528448105 %
00bf : 11111111111111111111101010110000;  % 0xfffffab0  -0.02075784094631672 %
00c0 : 11111111111111111111101010100010;  % 0xfffffaa2  -0.020961729809641838 %
00c1 : 00000000000000000000100010100001;  % 0x000008a1  0.03371378034353256 %
00c2 : 00000000000000000001001100001111;  % 0x0000130f  0.07444364577531815 %
00c3 : 00000000000000000001011001010001;  % 0x00001651  0.08716964721679688 %
00c4 : 11111111111111111111100110101011;  % 0xfffff9ab  -0.02473357878625393 %
00c5 : 11111111111111111110110010100010;  % 0xffffeca2  -0.07565052807331085 %
00c6 : 11111111111111111111111011100001;  % 0xfffffee1  -0.004378905054181814 %
00c7 : 00000000000000000000000111010010;  % 0x000001d2  0.007105079013854265 %
00c8 : 11111111111111111111100011011000;  % 0xfffff8d8  -0.027950100600719452 %
00c9 : 00000000000000000000100100101000;  % 0x00000928  0.03576214239001274 %
00ca : 00000000000000000000010111100111;  % 0x000005e7  0.02306137979030609 %
00cb : 11111111111111111111000101000100;  % 0xfffff144  -0.057562489062547684 %
00cc : 00000000000000000000110110011011;  % 0x00000d9b  0.05313887447118759 %
00cd : 11111111111111111111110110100111;  % 0xfffffda7  -0.00917728990316391 %
00ce : 00000000000000000000101110010001;  % 0x00000b91  0.04517856612801552 %
00cf : 11111111111111111111101001010111;  % 0xfffffa57  -0.02210966870188713 %
00d0 : 11111111111111111111111101000001;  % 0xffffff41  -0.0029068614821881056 %
00d1 : 11111111111111111111111111000110;  % 0xffffffc6  -0.0008850765880197287 %
00d2 : 11111111111111111111110000101010;  % 0xfffffc2a  -0.014989828690886497 %
00d3 : 00000000000000000000010101000011;  % 0x00000543  0.02054840512573719 %
00d4 : 11111111111111111111100101001101;  % 0xfffff94d  -0.026162859052419662 %
00d5 : 11111111111111111111110101011100;  % 0xfffffd5c  -0.010315146297216415 %
00d6 : 00000000000000000000001011010001;  % 0x000002d1  0.010997416451573372 %
00d7 : 00000000000000000000001110111111;  % 0x000003bf  0.01462573278695345 %
00d8 : 11111111111111111111101101010111;  % 0xfffffb57  -0.018208960071206093 %
00d9 : 11111111111111111111110110011101;  % 0xfffffd9d  -0.00933019444346428 %
00da : 00000000000000000000010110100011;  % 0x000005a3  0.02202579192817211 %
00db : 11111111111111111110000111100001;  % 0xffffe1e1  -0.1176648736000061 %
00dc : 00000000000000000000101010001111;  % 0x00000a8f  0.04124603047966957 %
00dd : 11111111111111111111111000101010;  % 0xfffffe2a  -0.007164733950048685 %
00de : 11111111111111111111001001110000;  % 0xfffff270  -0.0529751181602478 %
00df : 00000000000000000000101010001111;  % 0x00000a8f  0.04124901816248894 %
00e0 : 00000000000000000000101000100000;  % 0x00000a20  0.039548713713884354 %
00e1 : 11111111111111111111010001110110;  % 0xfffff476  -0.04507312551140785 %
00e2 : 00000000000000000000111001001011;  % 0x00000e4b  0.05583512410521507 %
00e3 : 00000000000000000000000000000011;  % 0x00000003  4.920333594782278e-05 %
00e4 : 11111111111111111111011011111000;  % 0xfffff6f8  -0.035282958298921585 %
00e5 : 00000000000000000000001101010011;  % 0x00000353  0.012991735711693764 %
00e6 : 11111111111111111111100110111110;  % 0xfffff9be  -0.024440597742795944 %
00e7 : 11111111111111111110111100100000;  % 0xffffef20  -0.0659218281507492 %
00e8 : 00000000000000000000101010011000;  % 0x00000a98  0.04138524830341339 %
00e9 : 11111111111111111111110001111101;  % 0xfffffc7d  -0.013712935149669647 %
00ea : 11111111111111111111111111111111;  % 0xffffffff  -2.0956051230314188e-05 %
00eb : 11111111111111111111110110100010;  % 0xfffffda2  -0.009248871356248856 %
00ec : 11111111111111111111011001001111;  % 0xfffff64f  -0.03785938397049904 %
00ed : 11111111111111111111011010111110;  % 0xfffff6be  -0.036156024783849716 %
00ee : 11111111111111111111100110100001;  % 0xfffff9a1  -0.024882754310965538 %
00ef : 11111111111111111111010011011100;  % 0xfffff4dc  -0.04351738095283508 %
00f0 : 00000000000000000000111110010010;  % 0x00000f92  0.060823485255241394 %
00f1 : 11111111111111111111100001011001;  % 0xfffff859  -0.029898321256041527 %
00f2 : 00000000000000000000001011010101;  % 0x000002d5  0.011056719347834587 %
00f3 : 11111111111111111111101110001111;  % 0xfffffb8f  -0.017350895330309868 %
00f4 : 11111111111111111111011100001110;  % 0xfffff70e  -0.03494790196418762 %
00f5 : 00000000000000000000011000000000;  % 0x00000600  0.023431401699781418 %
00f6 : 11111111111111111111101100001000;  % 0xfffffb08  -0.01940893940627575 %
00f7 : 11111111111111111110101001101110;  % 0xffffea6e  -0.08426462858915329 %
00f8 : 00000000000000000000110000100100;  % 0x00000c24  0.047427572309970856 %
00f9 : 11111111111111111111110011100100;  % 0xfffffce4  -0.012153541669249535 %
00fa : 00000000000000000000001100011010;  % 0x0000031a  0.012113702483475208 %
00fb : 11111111111111111111001010010100;  % 0xfffff294  -0.052423324435949326 %
00fc : 11111111111111111111011101111010;  % 0xfffff77a  -0.03328948840498924 %
00fd : 00000000000000000001001111000010;  % 0x000013c2  0.07718349248170853 %
00fe : 00000000000000000000111000111111;  % 0x00000e3f  0.055643972009420395 %
00ff : 11111111111111111111001010111011;  % 0xfffff2bb  -0.051834702491760254 %
0100 : 00000000000000000001010000111110;  % 0x0000143e  0.07907477766275406 %
0101 : 00000000000000000000001111000100;  % 0x000003c4  0.014715246856212616 %
0102 : 00000000000000000000001011011000;  % 0x000002d8  0.011107997968792915 %
0103 : 11111111111111111111111010000100;  % 0xfffffe84  -0.005805189721286297 %
0104 : 00000000000000000000001000111101;  % 0x0000023d  0.008748138323426247 %
0105 : 11111111111111111111100001100001;  % 0xfffff861  -0.029764045029878616 %
0106 : 00000000000000000000100000001101;  % 0x0000080d  0.03145258501172066 %
0107 : 11111111111111111111110011100000;  % 0xfffffce0  -0.012204213999211788 %
0108 : 00000000000000000000000110000010;  % 0x00000182  0.005884534679353237 %
0109 : 11111111111111111111101011001000;  % 0xfffffac8  -0.02039211057126522 %
010a : 11111111111111111110011100110001;  % 0xffffe731  -0.09690839052200317 %
010b : 11111111111111111111011111010101;  % 0xfffff7d5  -0.03191255405545235 %
010c : 11111111111111111111101011001111;  % 0xfffffacf  -0.020280739292502403 %
010d : 11111111111111111111111111111110;  % 0xfffffffe  -3.544571518432349e-05 %
010e : 00000000000000000000100010010001;  % 0x00000891  0.033467765897512436 %
010f : 00000000000000000000100000111011;  % 0x0000083b  0.032143205404281616 %
0110 : 00000000000000000000101111000111;  % 0x00000bc7  0.04600146412849426 %
0111 : 00000000000000000001011100110001;  % 0x00001731  0.09059236943721771 %
0112 : 00000000000000000000110110000011;  % 0x00000d83  0.05277503281831741 %
0113 : 00000000000000000001111100000111;  % 0x00001f07  0.12120147049427032 %
0114 : 00000000000000000010000000101100;  % 0x0000202c  0.12567763030529022 %
0115 : 00000000000000000010001001011110;  % 0x0000225e  0.13424994051456451 %
0116 : 00000000000000000000111111011111;  % 0x00000fdf  0.06199635937809944 %
0117 : 11111111111111111111000010101011;  % 0xfffff0ab  -0.05989416316151619 %
0118 : 11111111111111111111001101011101;  % 0xfffff35d  -0.04936772957444191 %
0119 : 11111111111111111111000000001101;  % 0xfffff00d  -0.06230553612112999 %
011a : 11111111111111111111101010011100;  % 0xfffffa9c  -0.021056726574897766 %
011b : 11111111111111111111000110100001;  % 0xfffff1a1  -0.05613870173692703 %
011c : 00000000000000000000101011100100;  % 0x00000ae4  0.04253578931093216 %
011d : 11111111111111111111110111011100;  % 0xfffffddc  -0.008361978456377983 %
011e : 11111111111111111110101100000101;  % 0xffffeb05  -0.08196096122264862 %
011f : 00000000000000000000001001111001;  % 0x00000279  0.009653003886342049 %
0120 : 11111111111111111111100011101001;  % 0xfffff8e9  -0.027689659968018532 %
0121 : 11111111111111111111101001111010;  % 0xfffffa7a  -0.021571742370724678 %
0122 : 11111111111111111111101010001110;  % 0xfffffa8e  -0.02126370370388031 %
0123 : 11111111111111111111100110101111;  % 0xfffff9af  -0.024680504575371742 %
0124 : 00000000000000000000000110111001;  % 0x000001b9  0.006732492242008448 %
0125 : 11111111111111111110101000111101;  % 0xffffea3d  -0.08500450104475021 %
0126 : 11111111111111111111001000011000;  % 0xfffff218  -0.05432276427745819 %
0127 : 11111111111111111101011111001000;  % 0xffffd7c8  -0.15710461139678955 %
0128 : 00000000000000000000000000001100;  % 0x0000000c  0.00018676392210181803 %
0129 : 11111111111111111111111001010011;  % 0xfffffe53  -0.006551965605467558 %
012a : 00000000000000000001010000100011;  % 0x00001423  0.07866380363702774 %
012b : 00000000000000000000110000100101;  % 0x00000c25  0.04744377359747887 %
012c : 00000000000000000001000100001110;  % 0x0000110e  0.06662115454673767 %
012d : 00000000000000000001000110110100;  % 0x000011b4  0.06915274262428284 %
012e : 00000000000000000001011101000100;  % 0x00001744  0.09088841080665588 %
012f : 00000000000000000010100000010111;  % 0x00002817  0.1565990000963211 %
0130 : 00000000000000000011010001101001;  % 0x00003469  0.20472808182239532 %
0131 : 00000000000000000001100010001100;  % 0x0000188c  0.09588683396577835 %
0132 : 00000000000000000001010011101001;  % 0x000014e9  0.08168694376945496 %
0133 : 11111111111111111111010010101001;  % 0xfffff4a9  -0.04429590329527855 %
0134 : 11111111111111111110110000100010;  % 0xffffec22  -0.07760997116565704 %
0135 : 11111111111111111111001010100111;  % 0xfffff2a7  -0.05213291198015213 %
0136 : 11111111111111111111011010100001;  % 0xfffff6a1  -0.036610741168260574 %
0137 : 00000000000000000000011011001000;  % 0x000006c8  0.026488712057471275 %
0138 : 00000000000000000000101011010111;  % 0x00000ad7  0.04234049469232559 %
0139 : 11111111111111111111000011010000;  % 0xfffff0d0  -0.059327635914087296 %
013a : 00000000000000000000010010110100;  % 0x000004b4  0.018364181742072105 %
013b : 11111111111111111101111101010110;  % 0xffffdf56  -0.12758982181549072 %
013c : 11111111111111111111111011101000;  % 0xfffffee8  -0.004266712348908186 %
013d : 00000000000000000000001011101111;  % 0x000002ef  0.011462829075753689 %
013e : 11111111111111111110111011011110;  % 0xffffeede  -0.06692150980234146 %
013f : 00000000000000000000101011100101;  % 0x00000ae5  0.04256356135010719 %
0140 : 11111111111111111111110111000110;  % 0xfffffdc6  -0.008698883466422558 %
0141 : 00000000000000000000001111111110;  % 0x000003fe  0.015600794926285744 %
0142 : 11111111111111111111110000111110;  % 0xfffffc3e  -0.014676917344331741 %
0143 : 11111111111111111111100111001111;  % 0xfffff9cf  -0.02418753318488598 %
0144 : 11111111111111111111111011100001;  % 0xfffffee1  -0.004383645951747894 %
0145 : 00000000000000000001000111101001;  % 0x000011e9  0.06996885687112808 %
0146 : 11111111111111111111111111110010;  % 0xfffffff2  -0.00021752214524894953 %
0147 : 00000000000000000001010010111011;  % 0x000014bb  0.0809793621301651 %
0148 : 11111111111111111111111101001001;  % 0xffffff49  -0.0027975658886134624 %
0149 : 11111111111111111111101000011111;  % 0xfffffa1f  -0.022961046546697617 %
014a : 00000000000000000000001000010000;  % 0x00000210  0.008053932338953018 %
014b : 00000000000000000000000100111110;  % 0x0000013e  0.004858443979173899 %
014c : 00000000000000000010000011100111;  % 0x000020e7  0.12852466106414795 %
014d : 00000000000000000000001011000011;  % 0x000002c3  0.010788589715957642 %
014e : 00000000000000000001110000110001;  % 0x00001c31  0.11011969298124313 %
014f : 00000000000000000000110001000101;  % 0x00000c45  0.04792817682027817 %
0150 : 00000000000000000000100111110101;  % 0x000009f5  0.03890213742852211 %
0151 : 11111111111111111111100110011110;  % 0xfffff99e  -0.024933747947216034 %
0152 : 00000000000000000000101101101001;  % 0x00000b69  0.04457080364227295 %
0153 : 11111111111111111110000111100001;  % 0xffffe1e1  -0.11766587942838669 %
0154 : 00000000000000000000100101000110;  % 0x00000946  0.03622055426239967 %
0155 : 11111111111111111110111110101101;  % 0xffffefad  -0.0637672170996666 %
0156 : 11111111111111111111010110001101;  % 0xfffff58d  -0.04081985354423523 %
0157 : 11111111111111111111011111001011;  % 0xfffff7cb  -0.032051682472229004 %
0158 : 11111111111111111111000011001110;  % 0xfffff0ce  -0.059351954609155655 %
0159 : 11111111111111111111110000110110;  % 0xfffffc36  -0.014795314520597458 %
015a : 00000000000000000001000101110011;  % 0x00001173  0.06816170364618301 %
015b : 00000000000000000000111000011101;  % 0x00000e1d  0.055130187422037125 %
015c : 00000000000000000001111000101111;  % 0x00001e2f  0.11790356040000916 %
015d : 00000000000000000001110110011010;  % 0x00001d9a  0.1156342551112175 %
015e : 00000000000000000000100000110000;  % 0x00000830  0.031984057277441025 %
015f : 11111111111111111111010001001000;  % 0xfffff448  -0.04576953127980232 %
0160 : 11111111111111111110111010000010;  % 0xffffee82  -0.068330779671669 %
0161 : 00000000000000000000010011001000;  % 0x000004c8  0.018672963604331017 %
0162 : 11111111111111111111111101101001;  % 0xffffff69  -0.0023098187521100044 %
0163 : 00000000000000000000101100110110;  % 0x00000b36  0.04379197582602501 %
0164 : 11111111111111111111101000101000;  % 0xfffffa28  -0.02283181995153427 %
0165 : 11111111111111111111100000001111;  % 0xfffff80f  -0.03101581335067749 %
0166 : 11111111111111111110010111100010;  % 0xffffe5e2  -0.10201947391033173 %
0167 : 11111111111111111111000001101000;  % 0xfffff068  -0.06091566011309624 %
0168 : 00000000000000000000111000010001;  % 0x00000e11  0.05494631454348564 %
0169 : 00000000000000000000011100010001;  % 0x00000711  0.027609942480921745 %
016a : 00000000000000000000000001111001;  % 0x00000079  0.0018398967804387212 %
016b : 11111111111111111111111110011101;  % 0xffffff9d  -0.0015085613122209907 %
016c : 11111111111111111111100100000100;  % 0xfffff904  -0.027279937639832497 %
016d : 00000000000000000001001011001001;  % 0x000012c9  0.07337361574172974 %
016e : 11111111111111111110010100000101;  % 0xffffe505  -0.10538588464260101 %
016f : 11111111111111111111100011111001;  % 0xfffff8f9  -0.027445711195468903 %
0170 : 11111111111111111111000010110101;  % 0xfffff0b5  -0.05974481999874115 %
0171 : 11111111111111111111000101100110;  % 0xfffff166  -0.0570400208234787 %
0172 : 00000000000000000000001000001000;  % 0x00000208  0.007934353314340115 %
0173 : 00000000000000000000110111010100;  % 0x00000dd4  0.05402161180973053 %
0174 : 00000000000000000000110111001001;  % 0x00000dc9  0.05384989455342293 %
0175 : 00000000000000000001101101001000;  % 0x00001b48  0.10656072944402695 %
0176 : 00000000000000000001001110110100;  % 0x000013b4  0.07697024196386337 %
0177 : 00000000000000000001111001101011;  % 0x00001e6b  0.11881503462791443 %
0178 : 00000000000000000010011101001001;  % 0x00002749  0.15345819294452667 %
0179 : 00000000000000000010000111000010;  % 0x000021c2  0.13186274468898773 %
017a : 00000000000000000001000110010110;  % 0x00001196  0.06870126724243164 %
017b : 11111111111111111111011010110011;  % 0xfffff6b3  -0.03632599115371704 %
017c : 00000000000000000000100100110001;  % 0x00000931  0.035909608006477356 %
017d : 11111111111111111111010010101100;  % 0xfffff4ac  -0.044247888028621674 %
017e : 00000000000000000001001000111101;  % 0x0000123d  0.07124264538288116 %
017f : 00000000000000000000010100101110;  % 0x0000052e  0.020228901877999306 %
0180 : 00000000000000000000010001110110;  % 0x00000476  0.0174216590821743 %
0181 : 11111111111111111111100111010111;  % 0xfffff9d7  -0.02406378462910652 %
0182 : 11111111111111111111100101010100;  % 0xfffff954  -0.02606080286204815 %
0183 : 00000000000000000000111010101111;  % 0x00000eaf  0.05736004188656807 %
0184 : 00000000000000000000001100000001;  % 0x00000301  0.011738776229321957 %
0185 : 11111111111111111110111011000001;  % 0xffffeec1  -0.06736256927251816 %
0186 : 00000000000000000000010100001001;  % 0x00000509  0.01966739632189274 %
0187 : 00000000000000000001000011100010;  % 0x000010e2  0.0659487321972847 %
0188 : 11111111111111111111000011010101;  % 0xfffff0d5  -0.05925653874874115 %
0189 : 00000000000000000000011001100010;  % 0x00000662  0.024926887825131416 %
018a : 11111111111111111110110100011011;  % 0xffffed1b  -0.07380827516317368 %
018b : 11111111111111111110101110010001;  % 0xffffeb91  -0.07982062548398972 %
018c : 11111111111111111111111101100100;  % 0xffffff64  -0.0023875716142356396 %
018d : 11111111111111111111001100010010;  % 0xfffff312  -0.050514105707407 %
018e : 00000000000000000001110011010000;  % 0x00001cd0  0.1125473752617836 %
018f : 00000000000000000001001111101100;  % 0x000013ec  0.0778244286775589 %
0190 : 00000000000000000000111100100101;  % 0x00000f25  0.0591595321893692 %
0191 : 00000000000000000000010000001001;  % 0x00000409  0.015762757509946823 %
0192 : 00000000000000000001101010001111;  % 0x00001a8f  0.1037498265504837 %
0193 : 00000000000000000000110000100111;  % 0x00000c27  0.04746546223759651 %
0194 : 00000000000000000001100100101100;  % 0x0000192c  0.09833437949419022 %
0195 : 00000000000000000000110010100111;  % 0x00000ca7  0.04942695051431656 %
0196 : 00000000000000000001001101101000;  % 0x00001368  0.07579908519983292 %
0197 : 00000000000000000000001001011100;  % 0x0000025c  0.00922367163002491 %
0198 : 11111111111111111111110111111111;  % 0xfffffdff  -0.00782853364944458 %
0199 : 00000000000000000001100001000011;  % 0x00001843  0.09477416425943375 %
019a : 00000000000000000000001100000000;  % 0x00000300  0.011719785630702972 %
019b : 11111111111111111110100101010101;  % 0xffffe955  -0.0885406881570816 %
019c : 11111111111111111110100010100010;  % 0xffffe8a2  -0.09127413481473923 %
019d : 11111111111111111111011101000001;  % 0xfffff741  -0.0341661274433136 %
019e : 11111111111111111101100111001111;  % 0xffffd9cf  -0.14917851984500885 %
019f : 11111111111111111110011100100100;  % 0xffffe724  -0.09710492193698883 %
01a0 : 11111111111111111111100000001100;  % 0xfffff80c  -0.031071098521351814 %
01a1 : 00000000000000000000010011001100;  % 0x000004cc  0.01873476430773735 %
01a2 : 11111111111111111110110011100001;  % 0xffffece1  -0.07469521462917328 %
01a3 : 00000000000000000000111000101010;  % 0x00000e2a  0.05532539635896683 %
01a4 : 11111111111111111111111001101101;  % 0xfffffe6d  -0.006142518948763609 %
01a5 : 00000000000000000000011111001011;  % 0x000007cb  0.030440788716077805 %
01a6 : 00000000000000000000000001000110;  % 0x00000046  0.0010655112564563751 %
01a7 : 11111111111111111111101001001001;  % 0xfffffa49  -0.02232559397816658 %
01a8 : 11111111111111111111100110011010;  % 0xfffff99a  -0.024988912045955658 %
01a9 : 11111111111111111111010010010111;  % 0xfffff497  -0.04457111656665802 %
01aa : 00000000000000000001011011101101;  % 0x000016ed  0.08955865353345871 %
01ab : 00000000000000000001001111100000;  % 0x000013e0  0.07763904333114624 %
01ac : 00000000000000000000100010110100;  % 0x000008b4  0.03400276228785515 %
01ad : 00000000000000000001000011110001;  % 0x000010f1  0.06618348509073257 %
01ae : 00000000000000000000110000000000;  % 0x00000c00  0.046874649822711945 %
01af : 00000000000000000000001011101010;  % 0x000002ea  0.011377904564142227 %
01b0 : 00000000000000000000101001111011;  % 0x00000a7b  0.040935054421424866 %
01b1 : 00000000000000000001101000110010;  % 0x00001a32  0.10232114046812057 %
01b2 : 00000000000000000000110000011001;  % 0x00000c19  0.04726236313581467 %
01b3 : 00000000000000000000011111010101;  % 0x000007d5  0.03059064783155918 %
01b4 : 00000000000000000000111100001011;  % 0x00000f0b  0.05876550450921059 %
01b5 : 11111111111111111111110101010110;  % 0xfffffd56  -0.010406117886304855 %
01b6 : 00000000000000000001001001000001;  % 0x00001241  0.07130447775125504 %
01b7 : 11111111111111111111110111000001;  % 0xfffffdc1  -0.00877339206635952 %
01b8 : 11111111111111111111100000000010;  % 0xfffff802  -0.03122170828282833 %
01b9 : 11111111111111111111011110110110;  % 0xfffff7b6  -0.032379746437072754 %
01ba : 11111111111111111111000110001000;  % 0xfffff188  -0.05652328580617905 %
01bb : 00000000000000000000101110100011;  % 0x00000ba3  0.0454556830227375 %
01bc : 00000000000000000000011100001110;  % 0x0000070e  0.027556145563721657 %
01bd : 00000000000000000000100110101111;  % 0x000009af  0.03783298283815384 %
01be : 00000000000000000000001010100101;  % 0x000002a5  0.010335776954889297 %
01bf : 11111111111111111110111000111000;  % 0xffffee38  -0.06945985555648804 %
01c0 : 00000000000000000000111001010101;  % 0x00000e55  0.05597809702157974 %
01c1 : 11111111111111111110101110101011;  % 0xffffebab  -0.07941705733537674 %
01c2 : 00000000000000000000111000011000;  % 0x00000e18  0.05505295842885971 %
01c3 : 00000000000000000000100001101101;  % 0x0000086d  0.03290596976876259 %
01c4 : 00000000000000000000111010000111;  % 0x00000e87  0.05674375593662262 %
01c5 : 00000000000000000000111000101111;  % 0x00000e2f  0.05540163069963455 %
01c6 : 00000000000000000000001010101100;  % 0x000002ac  0.01043656188994646 %
01c7 : 11111111111111111110111010011011;  % 0xffffee9b  -0.06794632226228714 %
01c8 : 11111111111111111111101010101011;  % 0xfffffaab  -0.020830221474170685 %
01c9 : 00000000000000000000010101110110;  % 0x00000576  0.021328167989850044 %
01ca : 11111111111111111110110000101001;  % 0xffffec29  -0.07750668376684189 %
01cb : 00000000000000000000001101001111;  % 0x0000034f  0.0129240108653903 %
01cc : 00000000000000000000101000001100;  % 0x00000a0c  0.03924572840332985 %
01cd : 00000000000000000001011011100001;  % 0x000016e1  0.08936721086502075 %
01ce : 00000000000000000000001000110100;  % 0x00000234  0.008611164055764675 %
01cf : 00000000000000000000010101011010;  % 0x0000055a  0.02090013027191162 %
01d0 : 00000000000000000000111011101110;  % 0x00000eee  0.058318689465522766 %
01d1 : 00000000000000000000111010011011;  % 0x00000e9b  0.05705470219254494 %
01d2 : 11111111111111111111110100010101;  % 0xfffffd15  -0.011399406008422375 %
01d3 : 11111111111111111111110011110011;  % 0xfffffcf3  -0.011923675425350666 %
01d4 : 11111111111111111111001110110100;  % 0xfffff3b4  -0.04803207516670227 %
01d5 : 00000000000000000000011110001000;  % 0x00000788  0.029415572062134743 %
01d6 : 11111111111111111111011110100011;  % 0xfffff7a3  -0.03266697749495506 %
01d7 : 00000000000000000000111100011100;  % 0x00000f1c  0.0590178482234478 %
01d8 : 00000000000000000000001001110010;  % 0x00000272  0.009550155140459538 %
01d9 : 00000000000000000001010010101000;  % 0x000014a8  0.08069312572479248 %
01da : 11111111111111111111010010000110;  % 0xfffff486  -0.04483111575245857 %
01db : 00000000000000000001010110100000;  % 0x000015a0  0.0844721794128418 %
01dc : 00000000000000000000101111101110;  % 0x00000bee  0.04660695046186447 %
01dd : 11111111111111111110111111001100;  % 0xffffefcc  -0.06329897046089172 %
01de : 11111111111111111111111111101111;  % 0xffffffef  -0.00026156564126722515 %
01df : 00000000000000000001001001111101;  % 0x0000127d  0.07222691178321838 %
01e0 : 11111111111111111111110110101101;  % 0xfffffdad  -0.009078741073608398 %
01e1 : 11111111111111111111010000011101;  % 0xfffff41d  -0.046428482979536057 %
01e2 : 00000000000000000000010101001111;  % 0x0000054f  0.02073805220425129 %
01e3 : 00000000000000000001010010110100;  % 0x000014b4  0.08087439090013504 %
01e4 : 00000000000000000000000000111111;  % 0x0000003f  0.0009577289456501603 %
01e5 : 11111111111111111111110010010010;  % 0xfffffc92  -0.013403334654867649 %
01e6 : 00000000000000000000000100111111;  % 0x0000013f  0.004863388370722532 %
01e7 : 00000000000000000000011101110100;  % 0x00000774  0.029112204909324646 %
01e8 : 11111111111111111110111001100110;  % 0xffffee66  -0.06876133382320404 %
01e9 : 11111111111111111111110100011101;  % 0xfffffd1d  -0.011275057680904865 %
01ea : 11111111111111111111010111100100;  % 0xfffff5e4  -0.03949659317731857 %
01eb : 00000000000000000000001100010110;  % 0x00000316  0.012061973102390766 %
01ec : 00000000000000000000001000110100;  % 0x00000234  0.00860624574124813 %
01ed : 00000000000000000001000111101101;  % 0x000011ed  0.07002776861190796 %
01ee : 00000000000000000000011110111001;  % 0x000007b9  0.030160289257764816 %
01ef : 00000000000000000001011011011110;  % 0x000016de  0.08932621777057648 %
01f0 : 11111111111111111111111000100100;  % 0xfffffe24  -0.007266048341989517 %
01f1 : 00000000000000000001101100111000;  % 0x00001b38  0.10631849616765976 %
01f2 : 00000000000000000000011111111011;  % 0x000007fb  0.031180523335933685 %
01f3 : 00000000000000000000100010100100;  % 0x000008a4  0.03375757858157158 %
01f4 : 11111111111111111111001111111111;  % 0xfffff3ff  -0.046891599893569946 %
01f5 : 11111111111111111111001010011101;  % 0xfffff29d  -0.052295982837677 %
01f6 : 11111111111111111111000001001101;  % 0xfffff04d  -0.061320070177316666 %
01f7 : 00000000000000000000001000111010;  % 0x0000023a  0.00870266929268837 %
01f8 : 11111111111111111110101010110101;  % 0xffffeab5  -0.08317165076732635 %
01f9 : 11111111111111111111000011001111;  % 0xfffff0cf  -0.059340670704841614 %
01fa : 00000000000000000000111000010111;  % 0x00000e17  0.05503492429852486 %
01fb : 11111111111111111111101110000011;  % 0xfffffb83  -0.017531294375658035 %
01fc : 00000000000000000001101110101111;  % 0x00001baf  0.10814379155635834 %
01fd : 00000000000000000000110011010101;  % 0x00000cd5  0.05012393742799759 %
01fe : 00000000000000000011000100010000;  % 0x00003110  0.19165225327014923 %
01ff : 11111111111111111111110100100000;  % 0xfffffd20  -0.01122814230620861 %
0200 : 00000000000000000000001011100000;  % 0x000002e0  0.011233679950237274 %
0201 : 11111111111111111111000100110010;  % 0xfffff132  -0.057838402688503265 %
0202 : 11111111111111111111100010010100;  % 0xfffff894  -0.028988348320126534 %
0203 : 11111111111111111110001011000000;  % 0xffffe2c0  -0.11425947397947311 %
0204 : 11111111111111111110101001111111;  % 0xffffea7f  -0.08400117605924606 %
0205 : 11111111111111111110000111101011;  % 0xffffe1eb  -0.11750634759664536 %
0206 : 11111111111111111111010010100110;  % 0xfffff4a6  -0.04434195160865784 %
0207 : 00000000000000000000000100100001;  % 0x00000121  0.0044097900390625 %
0208 : 00000000000000000000111101101001;  % 0x00000f69  0.0601884163916111 %
0209 : 00000000000000000001001111100100;  % 0x000013e4  0.0776996985077858 %
020a : 11111111111111111111111110101011;  % 0xffffffab  -0.0012906516203656793 %
020b : 00000000000000000000010010111001;  % 0x000004b9  0.01845540851354599 %
020c : 00000000000000000001010011100101;  % 0x000014e5  0.08161422610282898 %
020d : 00000000000000000000000101010011;  % 0x00000153  0.0051731690764427185 %
020e : 00000000000000000000110101000000;  % 0x00000d40  0.051753778010606766 %
020f : 00000000000000000001111111001110;  % 0x00001fce  0.12423904985189438 %
0210 : 11111111111111111111101110100101;  % 0xfffffba5  -0.017019599676132202 %
0211 : 00000000000000000000100101111110;  % 0x0000097e  0.037084102630615234 %
0212 : 11111111111111111110101001101001;  % 0xffffea69  -0.08433128148317337 %
0213 : 11111111111111111111010011101100;  % 0xfffff4ec  -0.043279752135276794 %
0214 : 11111111111111111111101001010011;  % 0xfffffa53  -0.02217823639512062 %
0215 : 00000000000000000000111001100111;  % 0x00000e67  0.05625438690185547 %
0216 : 00000000000000000001001011011100;  % 0x000012dc  0.07366987317800522 %
0217 : 00000000000000000001000101011011;  % 0x0000115b  0.06779759377241135 %
0218 : 00000000000000000001010100000010;  % 0x00001502  0.08205455541610718 %
0219 : 00000000000000000001110101110011;  % 0x00001d73  0.11503101885318756 %
021a : 00000000000000000001011000001101;  % 0x0000160d  0.08614068478345871 %
021b : 11111111111111111111010111000000;  % 0xfffff5c0  -0.04003632441163063 %
021c : 11111111111111111111110001111110;  % 0xfffffc7e  -0.013695813715457916 %
021d : 11111111111111111110100010000100;  % 0xffffe884  -0.09173087030649185 %
021e : 11111111111111111110011000011111;  % 0xffffe61f  -0.10108792036771774 %
021f : 11111111111111111110001000010010;  % 0xffffe212  -0.11691047996282578 %
0220 : 11111111111111111110100110100101;  % 0xffffe9a5  -0.08733092248439789 %
0221 : 11111111111111111110000011010011;  % 0xffffe0d3  -0.1217770129442215 %
0222 : 11111111111111111111001110100010;  % 0xfffff3a2  -0.04830499365925789 %
0223 : 11111111111111111111000111010101;  % 0xfffff1d5  -0.05534236878156662 %
0224 : 00000000000000000000011000101111;  % 0x0000062f  0.02415596880018711 %
0225 : 00000000000000000000100010111110;  % 0x000008be  0.0341450534760952 %
0226 : 00000000000000000000111010011001;  % 0x00000e99  0.05702385678887367 %
0227 : 00000000000000000001000000101111;  % 0x0000102f  0.06321021169424057 %
0228 : 00000000000000000001100101110010;  % 0x00001972  0.09938812255859375 %
0229 : 00000000000000000010010001100100;  % 0x00002464  0.14215721189975739 %
022a : 00000000000000000010010001111101;  % 0x0000247d  0.14253534376621246 %
022b : 00000000000000000000011111111000;  % 0x000007f8  0.031124485656619072 %
022c : 00000000000000000000001101111000;  % 0x00000378  0.013544775545597076 %
022d : 00000000000000000000111101001011;  % 0x00000f4b  0.05973111838102341 %
022e : 00000000000000000001001000111101;  % 0x0000123d  0.07123763859272003 %
022f : 11111111111111111111101010101001;  % 0xfffffaa9  -0.0208617951720953 %
0230 : 11111111111111111111111110100100;  % 0xffffffa4  -0.0014011040329933167 %
0231 : 00000000000000000000011101001100;  % 0x0000074c  0.028506601229310036 %
0232 : 00000000000000000000111001101010;  % 0x00000e6a  0.056305672973394394 %
0233 : 00000000000000000000101001101000;  % 0x00000a68  0.04065197333693504 %
0234 : 00000000000000000001011110000000;  % 0x00001780  0.09180007129907608 %
0235 : 00000000000000000010100011101010;  % 0x000028ea  0.15982311964035034 %
0236 : 00000000000000000000101100111010;  % 0x00000b3a  0.04385389760136604 %
0237 : 00000000000000000000101011010111;  % 0x00000ad7  0.04233742132782936 %
0238 : 00000000000000000000000100110011;  % 0x00000133  0.004685337655246258 %
0239 : 11111111111111111111101110001101;  % 0xfffffb8d  -0.01737244613468647 %
023a : 00000000000000000000000001001100;  % 0x0000004c  0.0011625841725617647 %
023b : 11111111111111111110000100111011;  % 0xffffe13b  -0.12018992751836777 %
023c : 11111111111111111110101001111011;  % 0xffffea7b  -0.08405958116054535 %
023d : 11111111111111111111110100000101;  % 0xfffffd05  -0.011646986939013004 %
023e : 11111111111111111111011100001100;  % 0xfffff70c  -0.03496973589062691 %
023f : 11111111111111111111111101001101;  % 0xffffff4d  -0.0027307444252073765 %
0240 : 00000000000000000000010110011100;  % 0x0000059c  0.021907709538936615 %
0241 : 00000000000000000001001101010101;  % 0x00001355  0.07551537454128265 %
0242 : 00000000000000000001110010110001;  % 0x00001cb1  0.11207323521375656 %
0243 : 00000000000000000000010011111101;  % 0x000004fd  0.0194834154099226 %
0244 : 00000000000000000001100111100010;  % 0x000019e2  0.10110335797071457 %
0245 : 00000000000000000001110010111110;  % 0x00001cbe  0.1122761219739914 %
0246 : 00000000000000000001000000101111;  % 0x0000102f  0.06322283297777176 %
0247 : 00000000000000000001001001000011;  % 0x00001243  0.0713282972574234 %
0248 : 00000000000000000000100101101000;  % 0x00000968  0.03674977272748947 %
0249 : 11111111111111111110110011100011;  % 0xffffece3  -0.07466214150190353 %
024a : 11111111111111111111110110110010;  % 0xfffffdb2  -0.008996945805847645 %
024b : 00000000000000000000111001010000;  % 0x00000e50  0.05591471493244171 %
024c : 11111111111111111110110110111011;  % 0xffffedbb  -0.07136838138103485 %
024d : 11111111111111111110111101011110;  % 0xffffef5e  -0.06496497243642807 %
024e : 00000000000000000000100100010010;  % 0x00000912  0.03542632982134819 %
024f : 11111111111111111111010011111101;  % 0xfffff4fd  -0.04301416873931885 %
0250 : 11111111111111111111111010000010;  % 0xfffffe82  -0.005826380103826523 %
0251 : 00000000000000000000001010010000;  % 0x00000290  0.01001492328941822 %
0252 : 00000000000000000000000000011111;  % 0x0000001f  0.00047494040336459875 %
0253 : 00000000000000000000001000010101;  % 0x00000215  0.00812666118144989 %
0254 : 11111111111111111111111000010010;  % 0xfffffe12  -0.007537779398262501 %
0255 : 11111111111111111111110001111011;  % 0xfffffc7b  -0.013743910938501358 %
0256 : 11111111111111111111011001000111;  % 0xfffff647  -0.03798297047615051 %
0257 : 00000000000000000000011001110111;  % 0x00000677  0.025249915197491646 %
0258 : 00000000000000000000011011111000;  % 0x000006f8  0.027221806347370148 %
0259 : 11111111111111111111110000101101;  % 0xfffffc2d  -0.01494294311851263 %
025a : 11111111111111111111010110111010;  % 0xfffff5ba  -0.04012908414006233 %
025b : 11111111111111111111111000001011;  % 0xfffffe0b  -0.007647295016795397 %
025c : 11111111111111111111111001000000;  % 0xfffffe40  -0.006838145200163126 %
025d : 11111111111111111111001011011001;  % 0xfffff2d9  -0.051383256912231445 %
025e : 11111111111111111111101101001111;  % 0xfffffb4f  -0.018327442929148674 %
025f : 00000000000000000000001001100101;  % 0x00000265  0.009356382302939892 %
0260 : 11111111111111111111110101101001;  % 0xfffffd69  -0.010110106319189072 %
0261 : 00000000000000000000111100111111;  % 0x00000f3f  0.059550728648900986 %
0262 : 00000000000000000000101000011000;  % 0x00000a18  0.03943257033824921 %
0263 : 11111111111111111111110001101011;  % 0xfffffc6b  -0.013985974714159966 %
0264 : 00000000000000000000100110011010;  % 0x0000099a  0.03751005232334137 %
0265 : 11111111111111111111011101011100;  % 0xfffff75c  -0.03375953435897827 %
0266 : 00000000000000000000000001101010;  % 0x0000006a  0.0016228270251303911 %
0267 : 11111111111111111111110100100111;  % 0xfffffd27  -0.011121587827801704 %
0268 : 00000000000000000000001111110010;  % 0x000003f2  0.015409192070364952 %
0269 : 00000000000000000000101011101101;  % 0x00000aed  0.04267901927232742 %
026a : 00000000000000000001000010000100;  % 0x00001084  0.06450977921485901 %
026b : 00000000000000000001101001010001;  % 0x00001a51  0.10280384868383408 %
026c : 00000000000000000001100001000001;  % 0x00001841  0.09474600106477737 %
026d : 11111111111111111101110011010111;  % 0xffffdcd7  -0.13733674585819244 %
026e : 11111111111111111110110000011100;  % 0xffffec1c  -0.07770231366157532 %
026f : 00000000000000000000100111001111;  % 0x000009cf  0.038320910185575485 %
0270 : 00000000000000000000001101010011;  % 0x00000353  0.012978252954781055 %
0271 : 00000000000000000000001101010101;  % 0x00000355  0.013012145645916462 %
0272 : 00000000000000000000010111001001;  % 0x000005c9  0.022605188190937042 %
0273 : 00000000000000000001001110001010;  % 0x0000138a  0.07633201777935028 %
0274 : 00000000000000000000101010000011;  % 0x00000a83  0.041054047644138336 %
0275 : 00000000000000000000101111101000;  % 0x00000be8  0.04650489240884781 %
0276 : 00000000000000000000000011110110;  % 0x000000f6  0.0037498977035284042 %
0277 : 11111111111111111111110101001000;  % 0xfffffd48  -0.01062177773565054 %
0278 : 11111111111111111111001111010100;  % 0xfffff3d4  -0.04754844680428505 %
0279 : 00000000000000000000001110010101;  % 0x00000395  0.013993483036756516 %
027a : 00000000000000000000011101011101;  % 0x0000075d  0.028768351301550865 %
027b : 11111111111111111111111111001000;  % 0xffffffc8  -0.0008522969437763095 %
027c : 00000000000000000001000000100111;  % 0x00001027  0.06309892237186432 %
027d : 00000000000000000000011011000000;  % 0x000006c0  0.026371346786618233 %
027e : 00000000000000000000101001000010;  % 0x00000a42  0.040069203823804855 %
027f : 11111111111111111111101101011010;  % 0xfffffb5a  -0.018159059807658195 %
0280 : 11111111111111111111000001001011;  % 0xfffff04b  -0.06135115772485733 %
0281 : 00000000000000000001010111110001;  % 0x000015f1  0.08571279793977737 %
0282 : 11111111111111111111001100100101;  % 0xfffff325  -0.050211794674396515 %
0283 : 00000000000000000000001010100011;  % 0x000002a3  0.010292324237525463 %
0284 : 11111111111111111110101001010001;  % 0xffffea51  -0.08470771461725235 %
0285 : 00000000000000000001010001001101;  % 0x0000144d  0.07930415123701096 %
0286 : 00000000000000000001011100111100;  % 0x0000173c  0.09075665473937988 %
0287 : 00000000000000000000101001000000;  % 0x00000a40  0.04004144296050072 %
0288 : 00000000000000000000010011110111;  % 0x000004f7  0.019398540258407593 %
0289 : 11111111111111111111011011010101;  % 0xfffff6d5  -0.03580478951334953 %
028a : 00000000000000000000010100010000;  % 0x00000510  0.01976912096142769 %
028b : 11111111111111111110111100010110;  % 0xffffef16  -0.06606832146644592 %
028c : 00000000000000000001000111010001;  % 0x000011d1  0.0695895254611969 %
028d : 11111111111111111111011010101000;  % 0xfffff6a8  -0.03649946302175522 %
028e : 00000000000000000001010000100000;  % 0x00001420  0.07861921936273575 %
028f : 11111111111111111111101111011010;  % 0xfffffbda  -0.016212016344070435 %
0290 : 11111111111111111111010111011101;  % 0xfffff5dd  -0.03959158435463905 %
0291 : 00000000000000000001000110001001;  % 0x00001189  0.06849987059831619 %
0292 : 11111111111111111111110000011010;  % 0xfffffc1a  -0.015234365127980709 %
0293 : 00000000000000000000100111110010;  % 0x000009f2  0.03884337842464447 %
0294 : 00000000000000000000001000101001;  % 0x00000229  0.008438699878752232 %
0295 : 11111111111111111111100001001110;  % 0xfffff84e  -0.030066395178437233 %
0296 : 00000000000000000001100000000100;  % 0x00001804  0.09380842000246048 %
0297 : 00000000000000000000011011011010;  % 0x000006da  0.02676340937614441 %
0298 : 00000000000000000000100110010100;  % 0x00000994  0.03741324320435524 %
0299 : 11111111111111111111011110111100;  % 0xfffff7bc  -0.03228645399212837 %
029a : 00000000000000000000110010011101;  % 0x00000c9d  0.049268919974565506 %
029b : 00000000000000000001010010000101;  % 0x00001485  0.080153688788414 %
029c : 00000000000000000000111000100010;  % 0x00000e22  0.05520830675959587 %
029d : 00000000000000000001000000110010;  % 0x00001032  0.06326577067375183 %
029e : 11111111111111111111001111110000;  % 0xfffff3f0  -0.047114547342061996 %
029f : 11111111111111111111000001100101;  % 0xfffff065  -0.060956284403800964 %
02a0 : 11111111111111111110100111111000;  % 0xffffe9f8  -0.08605986833572388 %
02a1 : 11111111111111111110110100001010;  % 0xffffed0a  -0.07406144589185715 %
02a2 : 11111111111111111110111101010101;  % 0xffffef55  -0.06511033326387405 %
02a3 : 11111111111111111111110001000110;  % 0xfffffc46  -0.014554467983543873 %
02a4 : 00000000000000000000110000111100;  % 0x00000c3c  0.04778899624943733 %
02a5 : 11111111111111111111100111010100;  % 0xfffff9d4  -0.024111637845635414 %
02a6 : 00000000000000000000000011101011;  % 0x000000eb  0.0035854445304721594 %
02a7 : 00000000000000000001000010100000;  % 0x000010a0  0.06494122743606567 %
02a8 : 00000000000000000010000010010000;  % 0x00002090  0.12719844281673431 %
02a9 : 00000000000000000001010001001100;  % 0x0000144c  0.07928890734910965 %
02aa : 00000000000000000001000010011000;  % 0x00001098  0.06482362747192383 %
02ab : 00000000000000000001000100010000;  % 0x00001110  0.06664714962244034 %
02ac : 00000000000000000001010010101000;  % 0x000014a8  0.08069096505641937 %
02ad : 00000000000000000000101010110000;  % 0x00000ab0  0.04174640029668808 %
02ae : 00000000000000000000111111101011;  % 0x00000feb  0.06217275932431221 %
02af : 00000000000000000000000100100000;  % 0x00000120  0.004401151556521654 %
02b0 : 00000000000000000000110111000101;  % 0x00000dc5  0.05378851294517517 %
02b1 : 00000000000000000000000101100100;  % 0x00000164  0.005426277872174978 %
02b2 : 00000000000000000000011110111011;  % 0x000007bb  0.03020324930548668 %
02b3 : 00000000000000000000000110001010;  % 0x0000018a  0.006007655989378691 %
02b4 : 00000000000000000001100000110001;  % 0x00001831  0.09450212866067886 %
02b5 : 00000000000000000000100110001001;  % 0x00000989  0.03723983094096184 %
02b6 : 11111111111111111111101000001001;  % 0xfffffa09  -0.02329588308930397 %
02b7 : 00000000000000000001010101101010;  % 0x0000156a  0.08364200592041016 %
02b8 : 00000000000000000000000000110001;  % 0x00000031  0.0007415164727717638 %
02b9 : 00000000000000000000000101101001;  % 0x00000169  0.005512738134711981 %
02ba : 11111111111111111111000010000000;  % 0xfffff080  -0.06054411455988884 %
02bb : 11111111111111111110101111111000;  % 0xffffebf8  -0.07824773341417313 %
02bc : 11111111111111111111100101010000;  % 0xfffff950  -0.026119481772184372 %
02bd : 11111111111111111111100110111111;  % 0xfffff9bf  -0.02443474531173706 %
02be : 11111111111111111111111001010111;  % 0xfffffe57  -0.006481596734374762 %
02bf : 11111111111111111110110000010011;  % 0xffffec13  -0.07784193754196167 %
02c0 : 00000000000000000001001000011101;  % 0x0000121d  0.07075665891170502 %
02c1 : 00000000000000000001000010110010;  % 0x000010b2  0.065214604139328 %
02c2 : 11111111111111111111100010000011;  % 0xfffff883  -0.029254881665110588 %
02c3 : 00000000000000000001010101010011;  % 0x00001553  0.08329807966947556 %
02c4 : 00000000000000000000001100111110;  % 0x0000033e  0.012663425877690315 %
02c5 : 00000000000000000000010101011110;  % 0x0000055e  0.020959092304110527 %
02c6 : 00000000000000000001001010010000;  % 0x00001290  0.07250954210758209 %
02c7 : 00000000000000000001101101110011;  % 0x00001b73  0.10722749680280685 %
02c8 : 00000000000000000001000011100010;  % 0x000010e2  0.06595300137996674 %
02c9 : 00000000000000000001110000011000;  % 0x00001c18  0.10973411798477173 %
02ca : 00000000000000000001000110111110;  % 0x000011be  0.06930046528577805 %
02cb : 00000000000000000001110000110100;  % 0x00001c34  0.11016415804624557 %
02cc : 00000000000000000010011001011001;  % 0x00002659  0.14979714155197144 %
02cd : 00000000000000000000100000011101;  % 0x0000081d  0.0316988043487072 %
02ce : 00000000000000000001101000000001;  % 0x00001a01  0.1015753448009491 %
02cf : 00000000000000000000111011111101;  % 0x00000efd  0.0585450604557991 %
02d0 : 00000000000000000001011001100100;  % 0x00001664  0.08746346831321716 %
02d1 : 00000000000000000000111000110010;  % 0x00000e32  0.0554472953081131 %
02d2 : 11111111111111111111010000010111;  % 0xfffff417  -0.04652708023786545 %
02d3 : 11111111111111111111100011111101;  % 0xfffff8fd  -0.027385693043470383 %
02d4 : 00000000000000000000010101010011;  % 0x00000553  0.02079901099205017 %
02d5 : 11111111111111111110101100101010;  % 0xffffeb2a  -0.08139728754758835 %
02d6 : 00000000000000000000011111011011;  % 0x000007db  0.0306851826608181 %
02d7 : 11111111111111111111101100011111;  % 0xfffffb1f  -0.019055023789405823 %
02d8 : 11111111111111111111110001110111;  % 0xfffffc77  -0.013814948499202728 %
02d9 : 11111111111111111111011011001011;  % 0xfffff6cb  -0.03597050905227661 %
02da : 00000000000000000000010101101110;  % 0x0000056e  0.02121482789516449 %
02db : 11111111111111111110101111101011;  % 0xffffebeb  -0.07844287902116776 %
02dc : 11111111111111111111010111010011;  % 0xfffff5d3  -0.03974257782101631 %
02dd : 11111111111111111111010011001101;  % 0xfffff4cd  -0.04374445602297783 %
02de : 00000000000000000000111010011101;  % 0x00000e9d  0.05707726627588272 %
02df : 11111111111111111111001000111111;  % 0xfffff23f  -0.05371863767504692 %
02e0 : 00000000000000000001100101101010;  % 0x0000196a  0.099266916513443 %
02e1 : 11111111111111111111100100000001;  % 0xfffff901  -0.027330191805958748 %
02e2 : 11111111111111111111111000100101;  % 0xfffffe25  -0.007245478220283985 %
02e3 : 11111111111111111111011001011110;  % 0xfffff65e  -0.03763037174940109 %
02e4 : 11111111111111111111111100010110;  % 0xffffff16  -0.0035720421001315117 %
02e5 : 00000000000000000000110110100000;  % 0x00000da0  0.05322697013616562 %
02e6 : 00000000000000000000011001010011;  % 0x00000653  0.02469775453209877 %
02e7 : 00000000000000000000010010000100;  % 0x00000484  0.01763751357793808 %
02e8 : 11111111111111111111111101101101;  % 0xffffff6d  -0.002243651542812586 %
02e9 : 00000000000000000000011011010101;  % 0x000006d5  0.026688048616051674 %
02ea : 11111111111111111111100001111100;  % 0xfffff87c  -0.02935645915567875 %
02eb : 00000000000000000000111110111010;  % 0x00000fba  0.06142789125442505 %
02ec : 11111111111111111111101000110001;  % 0xfffffa31  -0.02269221656024456 %
02ed : 00000000000000000001001001101100;  % 0x0000126c  0.07196733355522156 %
02ee : 00000000000000000000110000101011;  % 0x00000c2b  0.04752708226442337 %
02ef : 00000000000000000000000101010001;  % 0x00000151  0.0051447320729494095 %
02f0 : 11111111111111111111011000000010;  % 0xfffff602  -0.03903834521770477 %
02f1 : 00000000000000000001010100110101;  % 0x00001535  0.08283647149801254 %
02f2 : 11111111111111111111001100110100;  % 0xfffff334  -0.04999055713415146 %
02f3 : 11111111111111111111000000011110;  % 0xfffff01e  -0.062047090381383896 %
02f4 : 11111111111111111110110011101010;  % 0xffffecea  -0.07455834001302719 %
02f5 : 00000000000000000000010011011011;  % 0x000004db  0.018969841301441193 %
02f6 : 11111111111111111111001101011111;  % 0xfffff35f  -0.04933689534664154 %
02f7 : 00000000000000000001000100101111;  % 0x0000112f  0.06711887568235397 %
02f8 : 11111111111111111111100111001001;  % 0xfffff9c9  -0.024270102381706238 %
02f9 : 00000000000000000000001101011011;  % 0x0000035b  0.01310389768332243 %
02fa : 00000000000000000000000111010100;  % 0x000001d4  0.007138936780393124 %
02fb : 11111111111111111111101010000011;  % 0xfffffa83  -0.021441761404275894 %
02fc : 00000000000000000000101011110111;  % 0x00000af7  0.042826637625694275 %
02fd : 11111111111111111111100010100001;  % 0xfffff8a1  -0.028795093297958374 %
02fe : 00000000000000000000001000010111;  % 0x00000217  0.008167999796569347 %
02ff : 11111111111111111111100110110000;  % 0xfffff9b0  -0.024659598246216774 %
0300 : 11111111111111111111100000111110;  % 0xfffff83e  -0.03030962310731411 %
0301 : 11111111111111111111101101001011;  % 0xfffffb4b  -0.01838519796729088 %
0302 : 00000000000000000001000111011000;  % 0x000011d8  0.06969963014125824 %
0303 : 00000000000000000000011100000001;  % 0x00000701  0.02736436016857624 %
0304 : 00000000000000000000100001101011;  % 0x0000086b  0.03288909047842026 %
0305 : 11111111111111111110100000001101;  % 0xffffe80d  -0.09355330467224121 %
0306 : 11111111111111111110111110100100;  % 0xffffefa4  -0.06390600651502609 %
0307 : 11111111111111111111101100010001;  % 0xfffffb11  -0.01927485316991806 %
0308 : 11111111111111111111110010101001;  % 0xfffffca9  -0.013052721507847309 %
0309 : 00000000000000000000010111000101;  % 0x000005c5  0.022535046562552452 %
030a : 00000000000000000000010100001101;  % 0x0000050d  0.019728155806660652 %
030b : 00000000000000000000100001111011;  % 0x0000087b  0.033129237592220306 %
030c : 11111111111111111111110010011111;  % 0xfffffc9f  -0.013195253908634186 %
030d : 11111111111111111110101101011101;  % 0xffffeb5d  -0.0806095078587532 %
030e : 11111111111111111111001001101110;  % 0xfffff26e  -0.05301612988114357 %
030f : 11111111111111111110101111101110;  % 0xffffebee  -0.07839322835206985 %
END;
