DEPTH = 784;
WIDTH = 32;
ADDRESS_RADIX = HEX;
DATA_RADIX = BIN;
CONTENT
BEGIN
0000 : 11111111111111111110111111100110;  % 0xffffefe6  -0.0628940612077713 %
0001 : 11111111111111111111011111101011;  % 0xfffff7eb  -0.031564533710479736 %
0002 : 00000000000000000000011010011011;  % 0x0000069b  0.025799892842769623 %
0003 : 00000000000000000000011101111101;  % 0x0000077d  0.029255546629428864 %
0004 : 11111111111111111111000001100101;  % 0xfffff065  -0.06095562130212784 %
0005 : 00000000000000000000000100011000;  % 0x00000118  0.0042753666639328 %
0006 : 00000000000000000001000001111001;  % 0x00001079  0.06434967368841171 %
0007 : 00000000000000000000011010101100;  % 0x000006ac  0.026066899299621582 %
0008 : 00000000000000000000000001101011;  % 0x0000006b  0.0016336888074874878 %
0009 : 00000000000000000001000011010100;  % 0x000010d4  0.06574023514986038 %
000a : 11111111111111111111000000010110;  % 0xfffff016  -0.062169868499040604 %
000b : 11111111111111111111101011101100;  % 0xfffffaec  -0.0198429673910141 %
000c : 11111111111111111110101001011111;  % 0xffffea5f  -0.08448933809995651 %
000d : 00000000000000000000010101010111;  % 0x00000557  0.020857583731412888 %
000e : 00000000000000000000000101101100;  % 0x0000016c  0.005551500245928764 %
000f : 00000000000000000001000011010110;  % 0x000010d6  0.06576318293809891 %
0010 : 11111111111111111111111110100001;  % 0xffffffa1  -0.0014524832367897034 %
0011 : 11111111111111111111111110111100;  % 0xffffffbc  -0.0010391324758529663 %
0012 : 11111111111111111110111110001010;  % 0xffffef8a  -0.06429645419120789 %
0013 : 11111111111111111111100000001000;  % 0xfffff808  -0.0311226025223732 %
0014 : 11111111111111111111100100100001;  % 0xfffff921  -0.026843756437301636 %
0015 : 11111111111111111111111101011100;  % 0xffffff5c  -0.00249510258436203 %
0016 : 00000000000000000000110100000110;  % 0x00000d06  0.050879739224910736 %
0017 : 11111111111111111111010101111110;  % 0xfffff57e  -0.041052594780921936 %
0018 : 00000000000000000001000000111000;  % 0x00001038  0.06335938721895218 %
0019 : 00000000000000000001001011001101;  % 0x000012cd  0.07344343513250351 %
001a : 00000000000000000000100100101101;  % 0x0000092d  0.03583630919456482 %
001b : 11111111111111111111000010000101;  % 0xfffff085  -0.06047787889838219 %
001c : 11111111111111111110111010001111;  % 0xffffee8f  -0.06812648475170135 %
001d : 11111111111111111111000001011001;  % 0xfffff059  -0.06114434823393822 %
001e : 00000000000000000000100110100101;  % 0x000009a5  0.03767773509025574 %
001f : 11111111111111111110110101000001;  % 0xffffed41  -0.07323234528303146 %
0020 : 00000000000000000001001101100000;  % 0x00001360  0.07568816095590591 %
0021 : 11111111111111111110110011011010;  % 0xffffecda  -0.0747990682721138 %
0022 : 11111111111111111111011100010000;  % 0xfffff710  -0.03491126373410225 %
0023 : 11111111111111111110111111000101;  % 0xffffefc5  -0.06340616941452026 %
0024 : 00000000000000000000011100001010;  % 0x0000070a  0.027496851980686188 %
0025 : 00000000000000000000100100000011;  % 0x00000903  0.03520677611231804 %
0026 : 11111111111111111110111011000101;  % 0xffffeec5  -0.06730029731988907 %
0027 : 11111111111111111110111110000101;  % 0xffffef85  -0.06437668949365616 %
0028 : 11111111111111111111011001011100;  % 0xfffff65c  -0.03766137361526489 %
0029 : 00000000000000000000111011000010;  % 0x00000ec2  0.05764598026871681 %
002a : 11111111111111111111110111101111;  % 0xfffffdef  -0.008070964366197586 %
002b : 11111111111111111111000100001110;  % 0xfffff10e  -0.058380767703056335 %
002c : 00000000000000000001000100011111;  % 0x0000111f  0.06688199192285538 %
002d : 11111111111111111110110101010011;  % 0xffffed53  -0.07294651865959167 %
002e : 00000000000000000001010100011111;  % 0x0000151f  0.08249873667955399 %
002f : 11111111111111111111100101010001;  % 0xfffff951  -0.02610654942691326 %
0030 : 11111111111111111110111010101011;  % 0xffffeeab  -0.06770967692136765 %
0031 : 11111111111111111110101101001111;  % 0xffffeb4f  -0.08081988990306854 %
0032 : 11111111111111111111000001111110;  % 0xfffff07e  -0.06058439239859581 %
0033 : 00000000000000000000110101110110;  % 0x00000d76  0.05258883163332939 %
0034 : 11111111111111111110101000110101;  % 0xffffea35  -0.08513273298740387 %
0035 : 11111111111111111111111111110110;  % 0xfffffff6  -0.00015112757682800293 %
0036 : 00000000000000000000100100010001;  % 0x00000911  0.03542283922433853 %
0037 : 00000000000000000001001101111011;  % 0x0000137b  0.0761001780629158 %
0038 : 11111111111111111111000110001101;  % 0xfffff18d  -0.05644742771983147 %
0039 : 00000000000000000001010011000001;  % 0x000014c1  0.08107573539018631 %
003a : 00000000000000000000011111000100;  % 0x000007c4  0.03033553436398506 %
003b : 11111111111111111110101101110100;  % 0xffffeb74  -0.08026833087205887 %
003c : 11111111111111111111111110011000;  % 0xffffff98  -0.00159042130690068 %
003d : 11111111111111111110110110001001;  % 0xffffed89  -0.07212325930595398 %
003e : 00000000000000000000100111101101;  % 0x000009ed  0.03877309337258339 %
003f : 11111111111111111111110000111110;  % 0xfffffc3e  -0.014673350378870964 %
0040 : 11111111111111111111110000001011;  % 0xfffffc0b  -0.015452580526471138 %
0041 : 11111111111111111111111010011011;  % 0xfffffe9b  -0.005448362790048122 %
0042 : 00000000000000000000110000011000;  % 0x00000c18  0.04723931849002838 %
0043 : 00000000000000000001101111011110;  % 0x00001bde  0.10884951800107956 %
0044 : 00000000000000000001010000101100;  % 0x0000142c  0.07879918813705444 %
0045 : 00000000000000000001001110100101;  % 0x000013a5  0.07674126327037811 %
0046 : 00000000000000000000010000010001;  % 0x00000411  0.01588527485728264 %
0047 : 00000000000000000000100011000100;  % 0x000008c4  0.03424118086695671 %
0048 : 00000000000000000000110001011001;  % 0x00000c59  0.04822787642478943 %
0049 : 00000000000000000000000100100101;  % 0x00000125  0.004471654538065195 %
004a : 11111111111111111111101001100001;  % 0xfffffa61  -0.021954504773020744 %
004b : 00000000000000000001011010111110;  % 0x000016be  0.08883900195360184 %
004c : 11111111111111111111110000001001;  % 0xfffffc09  -0.015490273013710976 %
004d : 00000000000000000000001100101001;  % 0x00000329  0.012348264455795288 %
004e : 00000000000000000000000110111100;  % 0x000001bc  0.006771307438611984 %
004f : 00000000000000000001010011000001;  % 0x000014c1  0.0810665637254715 %
0050 : 00000000000000000001000001010000;  % 0x00001050  0.06372459977865219 %
0051 : 11111111111111111111011011000011;  % 0xfffff6c3  -0.03608018159866333 %
0052 : 00000000000000000000111000101011;  % 0x00000e2b  0.05533841997385025 %
0053 : 11111111111111111110111101100001;  % 0xffffef61  -0.06492666900157928 %
0054 : 00000000000000000001010000000101;  % 0x00001405  0.07819830626249313 %
0055 : 00000000000000000000001100001001;  % 0x00000309  0.01185346394777298 %
0056 : 11111111111111111111101010010100;  % 0xfffffa94  -0.021178433671593666 %
0057 : 00000000000000000000000001100110;  % 0x00000066  0.0015604723012074828 %
0058 : 11111111111111111111001101101110;  % 0xfffff36e  -0.04909749701619148 %
0059 : 00000000000000000000110110000000;  % 0x00000d80  0.05274049565196037 %
005a : 00000000000000000001010111000010;  % 0x000015c2  0.08499393612146378 %
005b : 00000000000000000000010100000111;  % 0x00000507  0.019631899893283844 %
005c : 00000000000000000010000000100011;  % 0x00002023  0.12553244829177856 %
005d : 00000000000000000010000100010111;  % 0x00002117  0.12925732135772705 %
005e : 00000000000000000001001110000000;  % 0x00001380  0.07617779821157455 %
005f : 11111111111111111111110011111001;  % 0xfffffcf9  -0.011824588291347027 %
0060 : 00000000000000000000100010011111;  % 0x0000089f  0.033676959574222565 %
0061 : 00000000000000000000101111101101;  % 0x00000bed  0.04657990112900734 %
0062 : 00000000000000000001101111110101;  % 0x00001bf5  0.10921088606119156 %
0063 : 11111111111111111111100011110011;  % 0xfffff8f3  -0.02754203788936138 %
0064 : 00000000000000000000011111100100;  % 0x000007e4  0.030818095430731773 %
0065 : 00000000000000000000010101111010;  % 0x0000057a  0.021392913535237312 %
0066 : 11111111111111111111101110110011;  % 0xfffffbb3  -0.016798261553049088 %
0067 : 00000000000000000000111000101110;  % 0x00000e2e  0.05539460480213165 %
0068 : 11111111111111111110111101100111;  % 0xffffef67  -0.06484007835388184 %
0069 : 00000000000000000000110000001011;  % 0x00000c0b  0.047044023871421814 %
006a : 11111111111111111111100010111000;  % 0xfffff8b8  -0.028446650132536888 %
006b : 00000000000000000001100100101111;  % 0x0000192f  0.0983753576874733 %
006c : 11111111111111111111111101111000;  % 0xffffff78  -0.002077660756185651 %
006d : 11111111111111111111010101010000;  % 0xfffff550  -0.041755642741918564 %
006e : 11111111111111111111011110100010;  % 0xfffff7a2  -0.032678499817848206 %
006f : 00000000000000000001000110010011;  % 0x00001193  0.06865649670362473 %
0070 : 00000000000000000000001001010101;  % 0x00000255  0.009106874465942383 %
0071 : 00000000000000000000001111010110;  % 0x000003d6  0.014990406110882759 %
0072 : 00000000000000000000101000000000;  % 0x00000a00  0.03906285762786865 %
0073 : 11111111111111111111011101100011;  % 0xfffff763  -0.0336480587720871 %
0074 : 11111111111111111111111110101011;  % 0xffffffab  -0.0012973793782293797 %
0075 : 00000000000000000000101101100111;  % 0x00000b67  0.04453721642494202 %
0076 : 00000000000000000001101110001000;  % 0x00001b88  0.10754735767841339 %
0077 : 00000000000000000001000000010000;  % 0x00001010  0.06274005025625229 %
0078 : 11111111111111111111111111111010;  % 0xfffffffa  -9.603338548913598e-05 %
0079 : 00000000000000000000010011000010;  % 0x000004c2  0.018585994839668274 %
007a : 00000000000000000001110100001110;  % 0x00001d0e  0.11350242048501968 %
007b : 00000000000000000000011100000001;  % 0x00000701  0.027366379275918007 %
007c : 11111111111111111111101001110111;  % 0xfffffa77  -0.021624932065606117 %
007d : 11111111111111111111010010110001;  % 0xfffff4b1  -0.04417850449681282 %
007e : 00000000000000000000000110110000;  % 0x000001b0  0.0065881176851689816 %
007f : 00000000000000000000001111101101;  % 0x000003ed  0.015336146578192711 %
0080 : 00000000000000000000011011010011;  % 0x000006d3  0.02664993517100811 %
0081 : 00000000000000000001010010001100;  % 0x0000148c  0.08025896549224854 %
0082 : 11111111111111111111011001010010;  % 0xfffff652  -0.03781485557556152 %
0083 : 00000000000000000000101010001010;  % 0x00000a8a  0.041170865297317505 %
0084 : 00000000000000000001001010001000;  % 0x00001288  0.07238804548978806 %
0085 : 00000000000000000000110110100001;  % 0x00000da1  0.0532376766204834 %
0086 : 11111111111111111111110010100001;  % 0xfffffca1  -0.013161696493625641 %
0087 : 00000000000000000000111000111110;  % 0x00000e3e  0.05562729761004448 %
0088 : 11111111111111111110111010100111;  % 0xffffeea7  -0.06776534765958786 %
0089 : 00000000000000000000100111011000;  % 0x000009d8  0.03845879063010216 %
008a : 11111111111111111110111100011100;  % 0xffffef1c  -0.0659724622964859 %
008b : 11111111111111111110110010011000;  % 0xffffec98  -0.07581327855587006 %
008c : 00000000000000000000111111111000;  % 0x00000ff8  0.06238517910242081 %
008d : 00000000000000000001010101100011;  % 0x00001563  0.08353694528341293 %
008e : 11111111111111111111100001001001;  % 0xfffff849  -0.03014042042195797 %
008f : 11111111111111111111111010101101;  % 0xfffffead  -0.005167830269783735 %
0090 : 00000000000000000000001110111101;  % 0x000003bd  0.014595086686313152 %
0091 : 11111111111111111111000100101000;  % 0xfffff128  -0.057978492230176926 %
0092 : 11111111111111111111110110111001;  % 0xfffffdb9  -0.008890622295439243 %
0093 : 00000000000000000000100111001110;  % 0x000009ce  0.0382993221282959 %
0094 : 00000000000000000001000111010110;  % 0x000011d6  0.06966422498226166 %
0095 : 00000000000000000000001000100011;  % 0x00000223  0.008351572789251804 %
0096 : 00000000000000000000011010100001;  % 0x000006a1  0.025899946689605713 %
0097 : 11111111111111111110101110111101;  % 0xffffebbd  -0.07914630323648453 %
0098 : 11111111111111111111101100100010;  % 0xfffffb22  -0.01900550164282322 %
0099 : 00000000000000000000011000110100;  % 0x00000634  0.024231864139437675 %
009a : 11111111111111111111111001100110;  % 0xfffffe66  -0.006249194033443928 %
009b : 00000000000000000000100011101000;  % 0x000008e8  0.034789927303791046 %
009c : 11111111111111111111101010101010;  % 0xfffffaaa  -0.020843928679823875 %
009d : 00000000000000000000100001011010;  % 0x0000085a  0.032627228647470474 %
009e : 00000000000000000000111110110011;  % 0x00000fb3  0.0613204762339592 %
009f : 00000000000000000000110010101101;  % 0x00000cad  0.04951944947242737 %
00a0 : 00000000000000000000010000110110;  % 0x00000436  0.016446348279714584 %
00a1 : 11111111111111111111111111111001;  % 0xfffffff9  -0.00010165666026296094 %
00a2 : 00000000000000000000001111110010;  % 0x000003f2  0.015405513346195221 %
00a3 : 00000000000000000000100111110000;  % 0x000009f0  0.03881603106856346 %
00a4 : 11111111111111111111101010010101;  % 0xfffffa95  -0.021167326718568802 %
00a5 : 00000000000000000000100000000010;  % 0x00000802  0.03128766268491745 %
00a6 : 00000000000000000000010111011011;  % 0x000005db  0.02286643721163273 %
00a7 : 11111111111111111111010100100011;  % 0xfffff523  -0.04242793843150139 %
00a8 : 00000000000000000000101110110110;  % 0x00000bb6  0.0457494780421257 %
00a9 : 11111111111111111110101101101110;  % 0xffffeb6e  -0.0803464949131012 %
00aa : 00000000000000000001001111100101;  % 0x000013e5  0.07771407812833786 %
00ab : 11111111111111111111000100100111;  % 0xfffff127  -0.05800286680459976 %
00ac : 11111111111111111111011001011000;  % 0xfffff658  -0.03771591931581497 %
00ad : 11111111111111111111011001111100;  % 0xfffff67c  -0.037164345383644104 %
00ae : 00000000000000000000010110011101;  % 0x0000059d  0.021923698484897614 %
00af : 11111111111111111110111110111010;  % 0xffffefba  -0.0635686069726944 %
00b0 : 00000000000000000000001110110100;  % 0x000003b4  0.01446386519819498 %
00b1 : 11111111111111111110110000100000;  % 0xffffec20  -0.0776425302028656 %
00b2 : 11111111111111111111001000001011;  % 0xfffff20b  -0.05452694371342659 %
00b3 : 11111111111111111111001010000111;  % 0xfffff287  -0.0526273250579834 %
00b4 : 11111111111111111111000011110101;  % 0xfffff0f5  -0.05875504016876221 %
00b5 : 11111111111111111110011110001110;  % 0xffffe78e  -0.09549565613269806 %
00b6 : 11111111111111111111001001010100;  % 0xfffff254  -0.05341140180826187 %
00b7 : 11111111111111111111100100111100;  % 0xfffff93c  -0.026425112038850784 %
00b8 : 11111111111111111111111110010011;  % 0xffffff93  -0.0016630569007247686 %
00b9 : 11111111111111111111100111101001;  % 0xfffff9e9  -0.023782137781381607 %
00ba : 11111111111111111110100011010100;  % 0xffffe8d4  -0.09051046520471573 %
00bb : 11111111111111111111010100001110;  % 0xfffff50e  -0.04275679960846901 %
00bc : 11111111111111111111111000010011;  % 0xfffffe13  -0.00752406707033515 %
00bd : 11111111111111111111010001000101;  % 0xfffff445  -0.04582659900188446 %
00be : 11111111111111111111110110010110;  % 0xfffffd96  -0.009423764422535896 %
00bf : 11111111111111111111110110010000;  % 0xfffffd90  -0.009518587030470371 %
00c0 : 11111111111111111110111010001101;  % 0xffffee8d  -0.06816185265779495 %
00c1 : 11111111111111111111010100010101;  % 0xfffff515  -0.04265390336513519 %
00c2 : 11111111111111111111100101001000;  % 0xfffff948  -0.026238251477479935 %
00c3 : 00000000000000000001001101100010;  % 0x00001362  0.0757194384932518 %
00c4 : 00000000000000000000100000110001;  % 0x00000831  0.031993016600608826 %
00c5 : 11111111111111111111001101101011;  % 0xfffff36b  -0.04915440082550049 %
00c6 : 11111111111111111110100111001011;  % 0xffffe9cb  -0.08675054460763931 %
00c7 : 00000000000000000000110001100000;  % 0x00000c60  0.04834052175283432 %
00c8 : 11111111111111111111110001001001;  % 0xfffffc49  -0.01451473031193018 %
00c9 : 11111111111111111110110110011000;  % 0xffffed98  -0.07190664857625961 %
00ca : 11111111111111111110010100000010;  % 0xffffe502  -0.10544402152299881 %
00cb : 11111111111111111111101111011010;  % 0xfffffbda  -0.01620682328939438 %
00cc : 11111111111111111111100110101110;  % 0xfffff9ae  -0.024687105789780617 %
00cd : 11111111111111111111111110111110;  % 0xffffffbe  -0.0010050623677670956 %
00ce : 11111111111111111111101011001111;  % 0xfffffacf  -0.02027324214577675 %
00cf : 00000000000000000000011011000010;  % 0x000006c2  0.026403430849313736 %
00d0 : 11111111111111111110110001110001;  % 0xffffec71  -0.07640213519334793 %
00d1 : 11111111111111111110110111001011;  % 0xffffedcb  -0.07111898064613342 %
00d2 : 11111111111111111111010000010001;  % 0xfffff411  -0.046621453016996384 %
00d3 : 11111111111111111111100101010100;  % 0xfffff954  -0.026065606623888016 %
00d4 : 11111111111111111111010101010010;  % 0xfffff552  -0.041711095720529556 %
00d5 : 11111111111111111111100111010011;  % 0xfffff9d3  -0.02412674017250538 %
00d6 : 11111111111111111111100111011111;  % 0xfffff9df  -0.02394331805408001 %
00d7 : 11111111111111111111111000000001;  % 0xfffffe01  -0.007796450052410364 %
00d8 : 11111111111111111110010100000001;  % 0xffffe501  -0.10545212030410767 %
00d9 : 11111111111111111111001110010110;  % 0xfffff396  -0.048497363924980164 %
00da : 11111111111111111111110101100000;  % 0xfffffd60  -0.010248921811580658 %
00db : 11111111111111111110110110110111;  % 0xffffedb7  -0.07142898440361023 %
00dc : 11111111111111111111000110010101;  % 0xfffff195  -0.05632713437080383 %
00dd : 11111111111111111111000001011010;  % 0xfffff05a  -0.06113394349813461 %
00de : 00000000000000000000000011001110;  % 0x000000ce  0.0031381770968437195 %
00df : 11111111111111111111111001110001;  % 0xfffffe71  -0.006087047513574362 %
00e0 : 00000000000000000000001001010001;  % 0x00000251  0.009051205590367317 %
00e1 : 11111111111111111110101101101101;  % 0xffffeb6d  -0.08037414401769638 %
00e2 : 11111111111111111110111110010001;  % 0xffffef91  -0.06418987363576889 %
00e3 : 11111111111111111110110110011100;  % 0xffffed9c  -0.07183758914470673 %
00e4 : 11111111111111111111000000111111;  % 0xfffff03f  -0.061539556831121445 %
00e5 : 11111111111111111110110011111010;  % 0xffffecfa  -0.07430963218212128 %
00e6 : 11111111111111111110000111000100;  % 0xffffe1c4  -0.11810271441936493 %
00e7 : 11111111111111111110101110001000;  % 0xffffeb88  -0.07995631545782089 %
00e8 : 11111111111111111110010101000110;  % 0xffffe546  -0.10439500957727432 %
00e9 : 11111111111111111111001011101110;  % 0xfffff2ee  -0.05106114596128464 %
00ea : 11111111111111111110110100001110;  % 0xffffed0e  -0.07400321215391159 %
00eb : 11111111111111111111011010111111;  % 0xfffff6bf  -0.036141905933618546 %
00ec : 11111111111111111111001000001000;  % 0xfffff208  -0.05456026270985603 %
00ed : 11111111111111111111101110111100;  % 0xfffffbbc  -0.016654983162879944 %
00ee : 11111111111111111110100000010100;  % 0xffffe814  -0.0934375673532486 %
00ef : 11111111111111111110111111110001;  % 0xffffeff1  -0.0627240315079689 %
00f0 : 11111111111111111110111101111100;  % 0xffffef7c  -0.06450767070055008 %
00f1 : 11111111111111111111000111111101;  % 0xfffff1fd  -0.05473848059773445 %
00f2 : 11111111111111111110110101010110;  % 0xffffed56  -0.07291131466627121 %
00f3 : 11111111111111111110111101001110;  % 0xffffef4e  -0.06521846354007721 %
00f4 : 11111111111111111111111111111000;  % 0xfffffff8  -0.00011644219921436161 %
00f5 : 11111111111111111111101000111011;  % 0xfffffa3b  -0.022534752264618874 %
00f6 : 11111111111111111111010110001010;  % 0xfffff58a  -0.04086516425013542 %
00f7 : 11111111111111111110100011001010;  % 0xffffe8ca  -0.09067393839359283 %
00f8 : 11111111111111111111001101110000;  % 0xfffff370  -0.049075353890657425 %
00f9 : 11111111111111111110000111000010;  % 0xffffe1c2  -0.11812980473041534 %
00fa : 11111111111111111110101010111101;  % 0xffffeabd  -0.08304779976606369 %
00fb : 11111111111111111111000000010100;  % 0xfffff014  -0.06219911202788353 %
00fc : 00000000000000000000000101100110;  % 0x00000166  0.0054572816006839275 %
00fd : 11111111111111111111101110101101;  % 0xfffffbad  -0.01689193770289421 %
00fe : 00000000000000000001000000011110;  % 0x0000101e  0.06295494735240936 %
00ff : 00000000000000000000001010001011;  % 0x0000028b  0.009929663501679897 %
0100 : 11111111111111111110001100101111;  % 0xffffe32f  -0.11257089674472809 %
0101 : 11111111111111111111100100111000;  % 0xfffff938  -0.026492124423384666 %
0102 : 11111111111111111111010001010111;  % 0xfffff457  -0.04555310681462288 %
0103 : 11111111111111111110110111110100;  % 0xffffedf4  -0.07048909366130829 %
0104 : 11111111111111111111101101000101;  % 0xfffffb45  -0.0184743981808424 %
0105 : 11111111111111111111010100110011;  % 0xfffff533  -0.04218675568699837 %
0106 : 11111111111111111111000101011000;  % 0xfffff158  -0.057256270200014114 %
0107 : 11111111111111111110111111010001;  % 0xffffefd1  -0.06322451680898666 %
0108 : 11111111111111111111011111111000;  % 0xfffff7f8  -0.031371958553791046 %
0109 : 11111111111111111111000000000100;  % 0xfffff004  -0.06243208050727844 %
010a : 11111111111111111111001101001011;  % 0xfffff34b  -0.049630023539066315 %
010b : 11111111111111111111000000100110;  % 0xfffff026  -0.061921216547489166 %
010c : 11111111111111111111010101010101;  % 0xfffff555  -0.04167508706450462 %
010d : 11111111111111111110111100000001;  % 0xffffef01  -0.06638816744089127 %
010e : 11111111111111111111001010100101;  % 0xfffff2a5  -0.052175749093294144 %
010f : 11111111111111111111011100110000;  % 0xfffff730  -0.034427497535943985 %
0110 : 11111111111111111111010010001011;  % 0xfffff48b  -0.04475463926792145 %
0111 : 11111111111111111111001011101011;  % 0xfffff2eb  -0.05109976977109909 %
0112 : 00000000000000000000000000010011;  % 0x00000013  0.00029025247204117477 %
0113 : 11111111111111111110100000011100;  % 0xffffe81c  -0.09332405775785446 %
0114 : 11111111111111111101010010011110;  % 0xffffd49e  -0.16947035491466522 %
0115 : 11111111111111111101010100100100;  % 0xffffd524  -0.16741394996643066 %
0116 : 11111111111111111111101110100101;  % 0xfffffba5  -0.017015919089317322 %
0117 : 11111111111111111110111111001000;  % 0xffffefc8  -0.06335356831550598 %
0118 : 00000000000000000001000100110100;  % 0x00001134  0.06720567494630814 %
0119 : 00000000000000000000000100010010;  % 0x00000112  0.004176850896328688 %
011a : 11111111111111111110101001000110;  % 0xffffea46  -0.084862120449543 %
011b : 11111111111111111111011001110011;  % 0xfffff673  -0.037315163761377335 %
011c : 11111111111111111110010000100101;  % 0xffffe425  -0.10880663245916367 %
011d : 11111111111111111110110001000111;  % 0xffffec47  -0.07704810053110123 %
011e : 11111111111111111111100000001110;  % 0xfffff80e  -0.03103547915816307 %
011f : 11111111111111111111100000111000;  % 0xfffff838  -0.030403124168515205 %
0120 : 11111111111111111110111010100111;  % 0xffffeea7  -0.06777028739452362 %
0121 : 11111111111111111111111000011111;  % 0xfffffe1f  -0.0073329689912498 %
0122 : 00000000000000000000011000001000;  % 0x00000608  0.023563431575894356 %
0123 : 11111111111111111111010111101110;  % 0xfffff5ee  -0.03934183344244957 %
0124 : 11111111111111111111101110110110;  % 0xfffffbb6  -0.016752401366829872 %
0125 : 11111111111111111110001010000101;  % 0xffffe285  -0.11515098065137863 %
0126 : 11111111111111111101101100101001;  % 0xffffdb29  -0.14390650391578674 %
0127 : 11111111111111111111001101001000;  % 0xfffff348  -0.04968704655766487 %
0128 : 11111111111111111110100011110010;  % 0xffffe8f2  -0.09005386382341385 %
0129 : 11111111111111111111100101100001;  % 0xfffff961  -0.025860274210572243 %
012a : 11111111111111111110111001111100;  % 0xffffee7c  -0.06842034310102463 %
012b : 11111111111111111110111111000111;  % 0xffffefc7  -0.0633651614189148 %
012c : 11111111111111111111100000110100;  % 0xfffff834  -0.030455203726887703 %
012d : 11111111111111111111100110111001;  % 0xfffff9b9  -0.02452303282916546 %
012e : 11111111111111111110101010100000;  % 0xffffeaa0  -0.08350323140621185 %
012f : 11111111111111111111001000101000;  % 0xfffff228  -0.05407465249300003 %
0130 : 11111111111111111100110010101011;  % 0xffffccab  -0.20051588118076324 %
0131 : 11111111111111111101111011001100;  % 0xffffdecc  -0.12969337403774261 %
0132 : 11111111111111111111100001001001;  % 0xfffff849  -0.03014240227639675 %
0133 : 11111111111111111111001010101101;  % 0xfffff2ad  -0.052047133445739746 %
0134 : 00000000000000000000000010111010;  % 0x000000ba  0.0028339307755231857 %
0135 : 00000000000000000000111110111110;  % 0x00000fbe  0.06148795410990715 %
0136 : 11111111111111111110001111010000;  % 0xffffe3d0  -0.11011198163032532 %
0137 : 11111111111111111110001011000111;  % 0xffffe2c7  -0.11415015161037445 %
0138 : 00000000000000000000000000110101;  % 0x00000035  0.0008020359091460705 %
0139 : 11111111111111111111111110111111;  % 0xffffffbf  -0.0009972760453820229 %
013a : 11111111111111111111000000001010;  % 0xfffff00a  -0.062341950833797455 %
013b : 11111111111111111111101010001111;  % 0xfffffa8f  -0.021260226145386696 %
013c : 00000000000000000000001101001011;  % 0x0000034b  0.012859013862907887 %
013d : 11111111111111111111100110110010;  % 0xfffff9b2  -0.024626707658171654 %
013e : 11111111111111111111001000011110;  % 0xfffff21e  -0.054232675582170486 %
013f : 11111111111111111111100101100111;  % 0xfffff967  -0.025770403444767 %
0140 : 11111111111111111111110010100011;  % 0xfffffca3  -0.013132607564330101 %
0141 : 11111111111111111110110111011101;  % 0xffffeddd  -0.07084991037845612 %
0142 : 11111111111111111110110110010100;  % 0xffffed94  -0.07195582240819931 %
0143 : 11111111111111111110111111001101;  % 0xffffefcd  -0.0632796660065651 %
0144 : 00000000000000000001000111000011;  % 0x000011c3  0.06938184052705765 %
0145 : 11111111111111111110110111011110;  % 0xffffedde  -0.07082368433475494 %
0146 : 00000000000000000000001110110100;  % 0x000003b4  0.014470075257122517 %
0147 : 11111111111111111111011001000110;  % 0xfffff646  -0.037987519055604935 %
0148 : 11111111111111111111000101111100;  % 0xfffff17c  -0.0566943883895874 %
0149 : 11111111111111111110111001110111;  % 0xffffee77  -0.06849344074726105 %
014a : 11111111111111111110111001111111;  % 0xffffee7f  -0.06837835162878036 %
014b : 11111111111111111111101110001110;  % 0xfffffb8e  -0.017362268641591072 %
014c : 11111111111111111111000011011001;  % 0xfffff0d9  -0.05919630080461502 %
014d : 11111111111111111110010010011000;  % 0xffffe498  -0.10705156624317169 %
014e : 11111111111111111111111100011000;  % 0xffffff18  -0.00354148936457932 %
014f : 00000000000000000000111111010101;  % 0x00000fd5  0.06185034662485123 %
0150 : 00000000000000000000110111010001;  % 0x00000dd1  0.053975533694028854 %
0151 : 11111111111111111111101010010011;  % 0xfffffa93  -0.021187664940953255 %
0152 : 00000000000000000000011111110000;  % 0x000007f0  0.03100581467151642 %
0153 : 11111111111111111111000000010111;  % 0xfffff017  -0.062148742377758026 %
0154 : 11111111111111111110111100011100;  % 0xffffef1c  -0.06598187237977982 %
0155 : 11111111111111111111110010101000;  % 0xfffffca8  -0.01306301448494196 %
0156 : 00000000000000000000100000001001;  % 0x00000809  0.031392574310302734 %
0157 : 00000000000000000000011000101011;  % 0x0000062b  0.024094510823488235 %
0158 : 00000000000000000000111010101101;  % 0x00000ead  0.05733354017138481 %
0159 : 00000000000000000001011010001000;  % 0x00001688  0.08801960945129395 %
015a : 00000000000000000001000000001100;  % 0x0000100c  0.0626876950263977 %
015b : 00000000000000000001010111001000;  % 0x000015c8  0.08508038520812988 %
015c : 00000000000000000001100110100001;  % 0x000019a1  0.1001153364777565 %
015d : 00000000000000000001001010111101;  % 0x000012bd  0.07320159673690796 %
015e : 00000000000000000000011001010011;  % 0x00000653  0.024705657735466957 %
015f : 00000000000000000000110000111101;  % 0x00000c3d  0.047799285501241684 %
0160 : 11111111111111111111101110101110;  % 0xfffffbae  -0.01687895879149437 %
0161 : 00000000000000000000010001011111;  % 0x0000045f  0.01707865297794342 %
0162 : 00000000000000000000010000010010;  % 0x00000412  0.015897348523139954 %
0163 : 11111111111111111111110011001001;  % 0xfffffcc9  -0.012562261894345284 %
0164 : 11111111111111111111011100000111;  % 0xfffff707  -0.0350564643740654 %
0165 : 00000000000000000000011110111010;  % 0x000007ba  0.03017503023147583 %
0166 : 11111111111111111111111010010000;  % 0xfffffe90  -0.0056142802350223064 %
0167 : 00000000000000000001010111000111;  % 0x000015c7  0.08506156504154205 %
0168 : 11111111111111111111101101010110;  % 0xfffffb56  -0.018225323408842087 %
0169 : 11111111111111111111100100010110;  % 0xfffff916  -0.027009593322873116 %
016a : 11111111111111111101111001000010;  % 0xffffde42  -0.1318054497241974 %
016b : 00000000000000000000110000111101;  % 0x00000c3d  0.047798722982406616 %
016c : 00000000000000000000000110001000;  % 0x00000188  0.005984068848192692 %
016d : 11111111111111111111011111011001;  % 0xfffff7d9  -0.031848154962062836 %
016e : 00000000000000000000110111110100;  % 0x00000df4  0.05450727045536041 %
016f : 11111111111111111111111001100010;  % 0xfffffe62  -0.0063145095482468605 %
0170 : 11111111111111111111101101001101;  % 0xfffffb4d  -0.01836380921304226 %
0171 : 11111111111111111111111001110110;  % 0xfffffe76  -0.00600559264421463 %
0172 : 00000000000000000000111111001001;  % 0x00000fc9  0.06165878847241402 %
0173 : 00000000000000000000110011111001;  % 0x00000cf9  0.05067453905940056 %
0174 : 00000000000000000001010110101100;  % 0x000015ac  0.08465320616960526 %
0175 : 00000000000000000000111100011110;  % 0x00000f1e  0.05905701592564583 %
0176 : 00000000000000000010010110001001;  % 0x00002589  0.14662010967731476 %
0177 : 00000000000000000000111111011111;  % 0x00000fdf  0.0619928203523159 %
0178 : 00000000000000000001011001111111;  % 0x0000167f  0.08787837624549866 %
0179 : 00000000000000000001110000001100;  % 0x00001c0c  0.10956338793039322 %
017a : 00000000000000000001010101100111;  % 0x00001567  0.0836058035492897 %
017b : 00000000000000000000110000000000;  % 0x00000c00  0.0468720942735672 %
017c : 00000000000000000001001000010110;  % 0x00001216  0.07065322995185852 %
017d : 00000000000000000000100101111110;  % 0x0000097e  0.03708409145474434 %
017e : 00000000000000000000010101000110;  % 0x00000546  0.020601479336619377 %
017f : 00000000000000000000111011010011;  % 0x00000ed3  0.05791086331009865 %
0180 : 11111111111111111111101110100001;  % 0xfffffba1  -0.017078034579753876 %
0181 : 00000000000000000000101000001111;  % 0x00000a0f  0.0392887257039547 %
0182 : 00000000000000000000111111011111;  % 0x00000fdf  0.06200004741549492 %
0183 : 00000000000000000000011001100001;  % 0x00000661  0.02492302469909191 %
0184 : 00000000000000000001011100111001;  % 0x00001739  0.09072006493806839 %
0185 : 11111111111111111111101001110000;  % 0xfffffa70  -0.021722499281167984 %
0186 : 11111111111111111110011001000010;  % 0xffffe642  -0.10055706650018692 %
0187 : 00000000000000000000110111011111;  % 0x00000ddf  0.05418512597680092 %
0188 : 11111111111111111111101011001010;  % 0xfffffaca  -0.020356573164463043 %
0189 : 11111111111111111111010100011100;  % 0xfffff51c  -0.04254649952054024 %
018a : 00000000000000000000101011011001;  % 0x00000ad9  0.042374223470687866 %
018b : 00000000000000000000000011001101;  % 0x000000cd  0.00313327694311738 %
018c : 00000000000000000000000000001110;  % 0x0000000e  0.00021060013386886567 %
018d : 00000000000000000001010100000001;  % 0x00001501  0.08205294609069824 %
018e : 00000000000000000001111010010000;  % 0x00001e90  0.11938691139221191 %
018f : 00000000000000000001011011001000;  % 0x000016c8  0.08898360282182693 %
0190 : 00000000000000000001011101111110;  % 0x0000177e  0.09176145493984222 %
0191 : 00000000000000000001010011000101;  % 0x000014c5  0.08113458007574081 %
0192 : 00000000000000000001010001000111;  % 0x00001447  0.07920379936695099 %
0193 : 00000000000000000001001111011111;  % 0x000013df  0.07761738449335098 %
0194 : 00000000000000000000101111010110;  % 0x00000bd6  0.046239133924245834 %
0195 : 00000000000000000001101010110101;  % 0x00001ab5  0.10431870818138123 %
0196 : 00000000000000000001001000111101;  % 0x0000123d  0.07124211639165878 %
0197 : 00000000000000000001100000111100;  % 0x0000183c  0.09466801583766937 %
0198 : 00000000000000000001001000011100;  % 0x0000121c  0.07074468582868576 %
0199 : 00000000000000000001000111100011;  % 0x000011e3  0.06986243277788162 %
019a : 00000000000000000000011101001100;  % 0x0000074c  0.028507255017757416 %
019b : 11111111111111111111110100011000;  % 0xfffffd18  -0.011354008689522743 %
019c : 11111111111111111111101011000100;  % 0xfffffac4  -0.02044505625963211 %
019d : 00000000000000000000000010100010;  % 0x000000a2  0.002472988795489073 %
019e : 00000000000000000000001010110011;  % 0x000002b3  0.010549217462539673 %
019f : 00000000000000000001000111001011;  % 0x000011cb  0.06950506567955017 %
01a0 : 00000000000000000000110110100101;  % 0x00000da5  0.053301334381103516 %
01a1 : 11111111111111111111000010110111;  % 0xfffff0b7  -0.059701722115278244 %
01a2 : 00000000000000000000111001011011;  % 0x00000e5b  0.05608105659484863 %
01a3 : 11111111111111111110111000110111;  % 0xffffee37  -0.0694776102900505 %
01a4 : 00000000000000000000111100000110;  % 0x00000f06  0.05868534743785858 %
01a5 : 00000000000000000000110000000000;  % 0x00000c00  0.04688124358654022 %
01a6 : 00000000000000000000000000001100;  % 0x0000000c  0.00018471360090188682 %
01a7 : 00000000000000000000111101001101;  % 0x00000f4d  0.059766337275505066 %
01a8 : 11111111111111111110110110100101;  % 0xffffeda5  -0.07169467210769653 %
01a9 : 00000000000000000000111111010100;  % 0x00000fd4  0.06182864308357239 %
01aa : 00000000000000000000111101100010;  % 0x00000f62  0.06009429320693016 %
01ab : 00000000000000000010000110010000;  % 0x00002190  0.1311020851135254 %
01ac : 00000000000000000000110111101110;  % 0x00000dee  0.05442044511437416 %
01ad : 00000000000000000000100010100000;  % 0x000008a0  0.033688150346279144 %
01ae : 00000000000000000001000011001110;  % 0x000010ce  0.06564334779977798 %
01af : 00000000000000000001101010011010;  % 0x00001a9a  0.10391569882631302 %
01b0 : 00000000000000000000110100001010;  % 0x00000d0a  0.05093901604413986 %
01b1 : 00000000000000000010001110010100;  % 0x00002394  0.13897919654846191 %
01b2 : 00000000000000000010010110001111;  % 0x0000258f  0.14671796560287476 %
01b3 : 00000000000000000000011101001101;  % 0x0000074d  0.028519047424197197 %
01b4 : 00000000000000000010011100100010;  % 0x00002722  0.15287010371685028 %
01b5 : 00000000000000000000110001010011;  % 0x00000c53  0.048137057572603226 %
01b6 : 00000000000000000000000000110000;  % 0x00000030  0.0007255799137055874 %
01b7 : 00000000000000000000010111110000;  % 0x000005f0  0.023188631981611252 %
01b8 : 00000000000000000000011011001110;  % 0x000006ce  0.026579301804304123 %
01b9 : 11111111111111111110111111100111;  % 0xffffefe7  -0.06288766860961914 %
01ba : 00000000000000000000011110000001;  % 0x00000781  0.029315337538719177 %
01bb : 00000000000000000001000101110011;  % 0x00001173  0.06815357506275177 %
01bc : 11111111111111111111010011101010;  % 0xfffff4ea  -0.043299637734889984 %
01bd : 00000000000000000010000011000111;  % 0x000020c7  0.1280345767736435 %
01be : 00000000000000000001000000001011;  % 0x0000100b  0.06266570091247559 %
01bf : 00000000000000000000001001111100;  % 0x0000027c  0.00970748532563448 %
01c0 : 00000000000000000001001001110011;  % 0x00001273  0.07206805795431137 %
01c1 : 11111111111111111111101000001010;  % 0xfffffa0a  -0.023278601467609406 %
01c2 : 00000000000000000000010100000010;  % 0x00000502  0.019564347341656685 %
01c3 : 11111111111111111111101001101001;  % 0xfffffa69  -0.021828461438417435 %
01c4 : 11111111111111111111000101100000;  % 0xfffff160  -0.057133425027132034 %
01c5 : 00000000000000000001010000011111;  % 0x0000141f  0.0785917192697525 %
01c6 : 00000000000000000001011110111111;  % 0x000017bf  0.09275166690349579 %
01c7 : 00000000000000000001010111101001;  % 0x000015e9  0.08559004217386246 %
01c8 : 00000000000000000000101011001000;  % 0x00000ac8  0.042115382850170135 %
01c9 : 00000000000000000001010010001101;  % 0x0000148d  0.08027780055999756 %
01ca : 11111111111111111111110000101111;  % 0xfffffc2f  -0.014910658821463585 %
01cb : 00000000000000000001111011011101;  % 0x00001edd  0.12055554240942001 %
01cc : 00000000000000000000110001111111;  % 0x00000c7f  0.04881598800420761 %
01cd : 00000000000000000010010011110101;  % 0x000024f5  0.14436034858226776 %
01ce : 00000000000000000001101110110100;  % 0x00001bb4  0.10821519792079926 %
01cf : 00000000000000000001011010011011;  % 0x0000169b  0.08830136060714722 %
01d0 : 00000000000000000001111111101110;  % 0x00001fee  0.12472943961620331 %
01d1 : 00000000000000000000011011101000;  % 0x000006e8  0.026973143219947815 %
01d2 : 11111111111111111111111111101100;  % 0xffffffec  -0.0003056477289646864 %
01d3 : 11111111111111111111110010111100;  % 0xfffffcbc  -0.012750854715704918 %
01d4 : 11111111111111111111100010111111;  % 0xfffff8bf  -0.028335684910416603 %
01d5 : 00000000000000000001011111011010;  % 0x000017da  0.09316928684711456 %
01d6 : 11111111111111111111111011011111;  % 0xfffffedf  -0.004411196801811457 %
01d7 : 11111111111111111111010010100010;  % 0xfffff4a2  -0.044398851692676544 %
01d8 : 00000000000000000000011000010110;  % 0x00000616  0.02377473935484886 %
01d9 : 11111111111111111111110110110110;  % 0xfffffdb6  -0.008940122090280056 %
01da : 11111111111111111111000001111010;  % 0xfffff07a  -0.060631707310676575 %
01db : 11111111111111111111000110101000;  % 0xfffff1a8  -0.056035567075014114 %
01dc : 00000000000000000000001000011100;  % 0x0000021c  0.00823451578617096 %
01dd : 00000000000000000000000001001010;  % 0x0000004a  0.0011360382195562124 %
01de : 11111111111111111111110110000101;  % 0xfffffd85  -0.009688492864370346 %
01df : 11111111111111111111110110010100;  % 0xfffffd94  -0.00946221873164177 %
01e0 : 11111111111111111111010110111101;  % 0xfffff5bd  -0.04008089378476143 %
01e1 : 11111111111111111111000100111011;  % 0xfffff13b  -0.05769173428416252 %
01e2 : 00000000000000000000100011011111;  % 0x000008df  0.03464638814330101 %
01e3 : 00000000000000000001000111101111;  % 0x000011ef  0.07005937397480011 %
01e4 : 00000000000000000000111001001101;  % 0x00000e4d  0.05586709827184677 %
01e5 : 11111111111111111111111111111001;  % 0xfffffff9  -0.00011084930156357586 %
01e6 : 00000000000000000010000100100010;  % 0x00002122  0.12941841781139374 %
01e7 : 00000000000000000000110011100101;  % 0x00000ce5  0.050366293638944626 %
01e8 : 00000000000000000000101110001111;  % 0x00000b8f  0.04515814781188965 %
01e9 : 00000000000000000001000001100111;  % 0x00001067  0.06407707184553146 %
01ea : 00000000000000000001101011100000;  % 0x00001ae0  0.10497452318668365 %
01eb : 00000000000000000001011000010100;  % 0x00001614  0.08623597770929337 %
01ec : 00000000000000000000100000101011;  % 0x0000082b  0.031905848532915115 %
01ed : 00000000000000000000100101110100;  % 0x00000974  0.036932479590177536 %
01ee : 00000000000000000000100000101101;  % 0x0000082d  0.031934045255184174 %
01ef : 00000000000000000000010110110000;  % 0x000005b0  0.022216882556676865 %
01f0 : 00000000000000000000010010001110;  % 0x0000048e  0.0177959892898798 %
01f1 : 00000000000000000000110101000110;  % 0x00000d46  0.05184867978096008 %
01f2 : 11111111111111111111100111110011;  % 0xfffff9f3  -0.0236296895891428 %
01f3 : 00000000000000000000000011000011;  % 0x000000c3  0.0029812008142471313 %
01f4 : 11111111111111111111100010010000;  % 0xfffff890  -0.02905845083296299 %
01f5 : 00000000000000000000110101011110;  % 0x00000d5e  0.0522162988781929 %
01f6 : 00000000000000000000001101101001;  % 0x00000369  0.013327589258551598 %
01f7 : 00000000000000000000000000000100;  % 0x00000004  6.571705307578668e-05 %
01f8 : 11111111111111111111000000010001;  % 0xfffff011  -0.0622367225587368 %
01f9 : 11111111111111111111111100101100;  % 0xffffff2c  -0.0032373140566051006 %
01fa : 11111111111111111111110011001000;  % 0xfffffcc8  -0.012570388615131378 %
01fb : 00000000000000000000110010110110;  % 0x00000cb6  0.04964744672179222 %
01fc : 00000000000000000000000101101000;  % 0x00000168  0.005491642281413078 %
01fd : 11111111111111111110111011001000;  % 0xffffeec8  -0.0672648623585701 %
01fe : 00000000000000000000001100011011;  % 0x0000031b  0.01213387493044138 %
01ff : 11111111111111111111001100010010;  % 0xfffff312  -0.05051419511437416 %
0200 : 00000000000000000000010111010100;  % 0x000005d4  0.022763321176171303 %
0201 : 00000000000000000000101110011011;  % 0x00000b9b  0.04533825069665909 %
0202 : 11111111111111111111110101111100;  % 0xfffffd7c  -0.009828662499785423 %
0203 : 11111111111111111111000011011100;  % 0xfffff0dc  -0.05913802608847618 %
0204 : 11111111111111111111111110101000;  % 0xffffffa8  -0.001350351725704968 %
0205 : 00000000000000000001001010101010;  % 0x000012aa  0.0729031190276146 %
0206 : 00000000000000000001000111010110;  % 0x000011d6  0.06967400759458542 %
0207 : 11111111111111111111100101111101;  % 0xfffff97d  -0.025439854711294174 %
0208 : 00000000000000000000010110101010;  % 0x000005aa  0.022122174501419067 %
0209 : 11111111111111111111111101001011;  % 0xffffff4b  -0.0027669300325214863 %
020a : 00000000000000000000100001010110;  % 0x00000856  0.032566361129283905 %
020b : 00000000000000000000111010011100;  % 0x00000e9c  0.05707458034157753 %
020c : 00000000000000000000010010000010;  % 0x00000482  0.01761006936430931 %
020d : 00000000000000000000000000011110;  % 0x0000001e  0.0004514383035711944 %
020e : 11111111111111111111010011010010;  % 0xfffff4d2  -0.043672554194927216 %
020f : 11111111111111111111110001101000;  % 0xfffffc68  -0.014043270610272884 %
0210 : 11111111111111111111111010111110;  % 0xfffffebe  -0.004907034803181887 %
0211 : 00000000000000000000001010110111;  % 0x000002b7  0.010601160116493702 %
0212 : 00000000000000000000110110101110;  % 0x00000dae  0.05343402177095413 %
0213 : 00000000000000000000010001010011;  % 0x00000453  0.016897913068532944 %
0214 : 00000000000000000000011101001000;  % 0x00000748  0.028440579771995544 %
0215 : 11111111111111111111100111011101;  % 0xfffff9dd  -0.023973073810338974 %
0216 : 00000000000000000000100000010001;  % 0x00000811  0.03150274604558945 %
0217 : 11111111111111111110101100010101;  % 0xffffeb15  -0.0817110612988472 %
0218 : 11111111111111111111011110010011;  % 0xfffff793  -0.032909855246543884 %
0219 : 11111111111111111111100101001011;  % 0xfffff94b  -0.026197947561740875 %
021a : 11111111111111111111101101100011;  % 0xfffffb63  -0.01802307367324829 %
021b : 00000000000000000000001000101100;  % 0x0000022c  0.008491113781929016 %
021c : 11111111111111111111010110101000;  % 0xfffff5a8  -0.04040516912937164 %
021d : 11111111111111111110101000000011;  % 0xffffea03  -0.08589549362659454 %
021e : 11111111111111111111110001001110;  % 0xfffffc4e  -0.014439464546740055 %
021f : 00000000000000000000000111010110;  % 0x000001d6  0.007171703968197107 %
0220 : 11111111111111111111100001011101;  % 0xfffff85d  -0.02982350066304207 %
0221 : 11111111111111111110111110001111;  % 0xffffef8f  -0.06421680748462677 %
0222 : 00000000000000000000000110011001;  % 0x00000199  0.006244948133826256 %
0223 : 00000000000000000000101100000000;  % 0x00000b00  0.042963601648807526 %
0224 : 00000000000000000001001011111011;  % 0x000012fb  0.07414231449365616 %
0225 : 00000000000000000000100100111110;  % 0x0000093e  0.036109715700149536 %
0226 : 00000000000000000000000100011010;  % 0x0000011a  0.004307494033128023 %
0227 : 00000000000000000000001110101111;  % 0x000003af  0.014393046498298645 %
0228 : 00000000000000000000011001101111;  % 0x0000066f  0.0251320730894804 %
0229 : 00000000000000000010000011111010;  % 0x000020fa  0.12882201373577118 %
022a : 00000000000000000001001000101111;  % 0x0000122f  0.07102752476930618 %
022b : 11111111111111111111101000110010;  % 0xfffffa32  -0.022669784724712372 %
022c : 00000000000000000001001100000100;  % 0x00001304  0.07427801191806793 %
022d : 00000000000000000001001001111001;  % 0x00001279  0.0721544697880745 %
022e : 00000000000000000000000011000110;  % 0x000000c6  0.003023821860551834 %
022f : 11111111111111111111010011101111;  % 0xfffff4ef  -0.04322433099150658 %
0230 : 00000000000000000000110001000000;  % 0x00000c40  0.04784468561410904 %
0231 : 11111111111111111110100101111001;  % 0xffffe979  -0.08799023926258087 %
0232 : 11111111111111111111010101000000;  % 0xfffff540  -0.041986070573329926 %
0233 : 11111111111111111111100101000000;  % 0xfffff940  -0.026363007724285126 %
0234 : 11111111111111111111001010001101;  % 0xfffff28d  -0.052537765353918076 %
0235 : 00000000000000000000100100101111;  % 0x0000092f  0.035867247730493546 %
0236 : 11111111111111111110011111001010;  % 0xffffe7ca  -0.09457958489656448 %
0237 : 11111111111111111111000100010011;  % 0xfffff113  -0.05829698592424393 %
0238 : 11111111111111111110101100111101;  % 0xffffeb3d  -0.08110497146844864 %
0239 : 11111111111111111111111000010111;  % 0xfffffe17  -0.007459244225174189 %
023a : 11111111111111111110111100001100;  % 0xffffef0c  -0.06622900813817978 %
023b : 11111111111111111111001010110000;  % 0xfffff2b0  -0.052004650235176086 %
023c : 11111111111111111111101011010001;  % 0xfffffad1  -0.02024262398481369 %
023d : 11111111111111111111010011011111;  % 0xfffff4df  -0.04346660152077675 %
023e : 00000000000000000001001000101001;  % 0x00001229  0.07094292342662811 %
023f : 00000000000000000000100011100001;  % 0x000008e1  0.034675661474466324 %
0240 : 00000000000000000001010111110001;  % 0x000015f1  0.08570122718811035 %
0241 : 00000000000000000001001111001110;  % 0x000013ce  0.07736121118068695 %
0242 : 00000000000000000001011001000010;  % 0x00001642  0.08694270253181458 %
0243 : 00000000000000000000101111000101;  % 0x00000bc5  0.04596807435154915 %
0244 : 00000000000000000010001110001001;  % 0x00002389  0.138808473944664 %
0245 : 00000000000000000000011010011100;  % 0x0000069c  0.02581189014017582 %
0246 : 11111111111111111111011110011001;  % 0xfffff799  -0.03281964361667633 %
0247 : 00000000000000000000101010100001;  % 0x00000aa1  0.04151833802461624 %
0248 : 11111111111111111111110000110000;  % 0xfffffc30  -0.014889951795339584 %
0249 : 00000000000000000001010000001010;  % 0x0000140a  0.07828344404697418 %
024a : 00000000000000000000101100110011;  % 0x00000b33  0.04375079646706581 %
024b : 00000000000000000001011000010010;  % 0x00001612  0.08621029555797577 %
024c : 11111111111111111110111000010101;  % 0xffffee15  -0.06999479234218597 %
024d : 11111111111111111111000000011011;  % 0xfffff01b  -0.062092624604701996 %
024e : 00000000000000000000111011010110;  % 0x00000ed6  0.05794554576277733 %
024f : 00000000000000000000101011100010;  % 0x00000ae2  0.0425046943128109 %
0250 : 11111111111111111110110010101101;  % 0xffffecad  -0.07548113167285919 %
0251 : 11111111111111111110110110100000;  % 0xffffeda0  -0.07177291065454483 %
0252 : 11111111111111111111011000100111;  % 0xfffff627  -0.03846897929906845 %
0253 : 00000000000000000000001101000001;  % 0x00000341  0.012709802016615868 %
0254 : 00000000000000000000010010101001;  % 0x000004a9  0.018205631524324417 %
0255 : 11111111111111111111101110010010;  % 0xfffffb92  -0.01729682646691799 %
0256 : 00000000000000000000111011011111;  % 0x00000edf  0.05809161067008972 %
0257 : 00000000000000000000001100110100;  % 0x00000334  0.012512339279055595 %
0258 : 00000000000000000001010010011011;  % 0x0000149b  0.08048851042985916 %
0259 : 00000000000000000000010001001001;  % 0x00000449  0.016735361889004707 %
025a : 11111111111111111111111111000110;  % 0xffffffc6  -0.0008808217826299369 %
025b : 00000000000000000000100010011111;  % 0x0000089f  0.0336720310151577 %
025c : 11111111111111111111110010111011;  % 0xfffffcbb  -0.012765166349709034 %
025d : 00000000000000000000100001001110;  % 0x0000084e  0.03243371844291687 %
025e : 00000000000000000000011100010101;  % 0x00000715  0.027661923319101334 %
025f : 00000000000000000000001110110101;  % 0x000003b5  0.014478281140327454 %
0260 : 11111111111111111111011000011001;  % 0xfffff619  -0.03868663311004639 %
0261 : 00000000000000000000011100000000;  % 0x00000700  0.027346251532435417 %
0262 : 00000000000000000000010111111100;  % 0x000005fc  0.02337753213942051 %
0263 : 11111111111111111111100001010010;  % 0xfffff852  -0.030001945793628693 %
0264 : 00000000000000000000011000101101;  % 0x0000062d  0.024118300527334213 %
0265 : 11111111111111111110101010001010;  % 0xffffea8a  -0.08383478969335556 %
0266 : 00000000000000000000011110000011;  % 0x00000783  0.029335778206586838 %
0267 : 11111111111111111111111000011010;  % 0xfffffe1a  -0.007415197789669037 %
0268 : 00000000000000000001001000110100;  % 0x00001234  0.07109910994768143 %
0269 : 00000000000000000001000001000111;  % 0x00001047  0.06359010189771652 %
026a : 11111111111111111111001100011010;  % 0xfffff31a  -0.05039140582084656 %
026b : 11111111111111111111011100011101;  % 0xfffff71d  -0.034720007330179214 %
026c : 11111111111111111111000011010110;  % 0xfffff0d6  -0.05923733487725258 %
026d : 11111111111111111111111011011011;  % 0xfffffedb  -0.004465335514396429 %
026e : 11111111111111111110100111010000;  % 0xffffe9d0  -0.0866636112332344 %
026f : 11111111111111111111110001000010;  % 0xfffffc42  -0.014612372033298016 %
0270 : 11111111111111111111101000111010;  % 0xfffffa3a  -0.0225522443652153 %
0271 : 00000000000000000000000111000101;  % 0x000001c5  0.00690461928024888 %
0272 : 11111111111111111111101001011111;  % 0xfffffa5f  -0.02198098786175251 %
0273 : 11111111111111111111110011011101;  % 0xfffffcdd  -0.012256392277777195 %
0274 : 11111111111111111111100000110110;  % 0xfffff836  -0.030427750200033188 %
0275 : 00000000000000000000011101000101;  % 0x00000745  0.028399178758263588 %
0276 : 11111111111111111110110001010011;  % 0xffffec53  -0.07686527073383331 %
0277 : 11111111111111111111010011000100;  % 0xfffff4c4  -0.04389125853776932 %
0278 : 11111111111111111111011111000100;  % 0xfffff7c4  -0.03217197582125664 %
0279 : 11111111111111111111110111100000;  % 0xfffffde0  -0.008306008763611317 %
027a : 11111111111111111111011010010100;  % 0xfffff694  -0.036803748458623886 %
027b : 11111111111111111111111111100001;  % 0xffffffe1  -0.0004732297675218433 %
027c : 11111111111111111111110100000011;  % 0xfffffd03  -0.011668083257973194 %
027d : 00000000000000000001010101011110;  % 0x0000155e  0.08345890045166016 %
027e : 00000000000000000000000000101110;  % 0x0000002e  0.0007029267144389451 %
027f : 11111111111111111111110110001001;  % 0xfffffd89  -0.009631011635065079 %
0280 : 00000000000000000000110101010010;  % 0x00000d52  0.052034758031368256 %
0281 : 11111111111111111111010100111011;  % 0xfffff53b  -0.042064838111400604 %
0282 : 11111111111111111111111100000111;  % 0xffffff07  -0.003806883003562689 %
0283 : 11111111111111111111001101100001;  % 0xfffff361  -0.04930653050541878 %
0284 : 00000000000000000001010111010111;  % 0x000015d7  0.08531884104013443 %
0285 : 00000000000000000000011100110111;  % 0x00000737  0.02818581461906433 %
0286 : 00000000000000000000001011001010;  % 0x000002ca  0.010901599191129208 %
0287 : 00000000000000000000100011110001;  % 0x000008f1  0.03492293506860733 %
0288 : 00000000000000000000100110100001;  % 0x000009a1  0.0376056544482708 %
0289 : 00000000000000000000001010110010;  % 0x000002b2  0.010525909252464771 %
028a : 11111111111111111111100010000111;  % 0xfffff887  -0.029191922396421432 %
028b : 11111111111111111111101011010001;  % 0xfffffad1  -0.020241715013980865 %
028c : 00000000000000000000000001010100;  % 0x00000054  0.0012796033406630158 %
028d : 11111111111111111111010110000111;  % 0xfffff587  -0.04091319814324379 %
028e : 11111111111111111110101101011000;  % 0xffffeb58  -0.08068934828042984 %
028f : 11111111111111111110001111011101;  % 0xffffe3dd  -0.109911248087883 %
0290 : 11111111111111111111100111110101;  % 0xfffff9f5  -0.02360263094305992 %
0291 : 11111111111111111110000001011101;  % 0xffffe05d  -0.12357465922832489 %
0292 : 11111111111111111111101001011100;  % 0xfffffa5c  -0.022038303315639496 %
0293 : 11111111111111111110100111110110;  % 0xffffe9f6  -0.08609465509653091 %
0294 : 11111111111111111111010111111001;  % 0xfffff5f9  -0.03917594254016876 %
0295 : 11111111111111111111000110100011;  % 0xfffff1a3  -0.05611231178045273 %
0296 : 00000000000000000000110000110101;  % 0x00000c35  0.047687459737062454 %
0297 : 00000000000000000000111010101011;  % 0x00000eab  0.057302869856357574 %
0298 : 00000000000000000001001011010101;  % 0x000012d5  0.07355589419603348 %
0299 : 00000000000000000000011100111000;  % 0x00000738  0.028196174651384354 %
029a : 11111111111111111111111000111010;  % 0xfffffe3a  -0.006920637562870979 %
029b : 11111111111111111111101001110001;  % 0xfffffa71  -0.021718265488743782 %
029c : 00000000000000000000110001101110;  % 0x00000c6e  0.048559557646512985 %
029d : 11111111111111111111100000001010;  % 0xfffff80a  -0.03109310194849968 %
029e : 00000000000000000000000110110100;  % 0x000001b4  0.0066537680104374886 %
029f : 00000000000000000000101011100010;  % 0x00000ae2  0.04251537472009659 %
02a0 : 00000000000000000000000010011100;  % 0x0000009c  0.002379000186920166 %
02a1 : 11111111111111111111011000110111;  % 0xfffff637  -0.038225382566452026 %
02a2 : 11111111111111111110110101100001;  % 0xffffed61  -0.07274100184440613 %
02a3 : 11111111111111111111100100011011;  % 0xfffff91b  -0.026936566457152367 %
02a4 : 00000000000000000000001100001010;  % 0x0000030a  0.011878193356096745 %
02a5 : 11111111111111111111111010101110;  % 0xfffffeae  -0.005163754336535931 %
02a6 : 11111111111111111110010111111101;  % 0xffffe5fd  -0.10160650312900543 %
02a7 : 11111111111111111111000000100111;  % 0xfffff027  -0.06190772354602814 %
02a8 : 00000000000000000000010011011010;  % 0x000004da  0.01894417032599449 %
02a9 : 11111111111111111110111011001101;  % 0xffffeecd  -0.06718789786100388 %
02aa : 00000000000000000000110011010011;  % 0x00000cd3  0.05008991062641144 %
02ab : 11111111111111111111000001010001;  % 0xfffff051  -0.061264000833034515 %
02ac : 11111111111111111110101101001110;  % 0xffffeb4e  -0.08083878457546234 %
02ad : 11111111111111111110010111111100;  % 0xffffe5fc  -0.10162144899368286 %
02ae : 11111111111111111110100111101011;  % 0xffffe9eb  -0.08625651895999908 %
02af : 11111111111111111111010001001011;  % 0xfffff44b  -0.04573219269514084 %
02b0 : 11111111111111111110101101110101;  % 0xffffeb75  -0.08024925738573074 %
02b1 : 11111111111111111110110100110100;  % 0xffffed34  -0.07341834902763367 %
02b2 : 11111111111111111111100110000010;  % 0xfffff982  -0.025361236184835434 %
02b3 : 11111111111111111111111100000101;  % 0xffffff05  -0.0038334184791892767 %
02b4 : 00000000000000000001111101111111;  % 0x00001f7f  0.12302421778440475 %
02b5 : 00000000000000000001101010101010;  % 0x00001aaa  0.10415227711200714 %
02b6 : 11111111111111111111110111000110;  % 0xfffffdc6  -0.008703930303454399 %
02b7 : 00000000000000000001010011100011;  % 0x000014e3  0.08159257471561432 %
02b8 : 00000000000000000000100111100011;  % 0x000009e3  0.03861313313245773 %
02b9 : 11111111111111111111010100010110;  % 0xfffff516  -0.04263198748230934 %
02ba : 11111111111111111111101111101000;  % 0xfffffbe8  -0.01599765382707119 %
02bb : 11111111111111111111111101010100;  % 0xffffff54  -0.0026173219084739685 %
02bc : 11111111111111111111001110100100;  % 0xfffff3a4  -0.04828615114092827 %
02bd : 11111111111111111110101111001001;  % 0xffffebc9  -0.07896848022937775 %
02be : 00000000000000000001001111111111;  % 0x000013ff  0.07810984551906586 %
02bf : 00000000000000000001010111010100;  % 0x000015d4  0.08526957035064697 %
02c0 : 11111111111111111110110011101000;  % 0xffffece8  -0.0745910033583641 %
02c1 : 00000000000000000000110001001110;  % 0x00000c4e  0.04806352034211159 %
02c2 : 11111111111111111111011101110110;  % 0xfffff776  -0.033358413726091385 %
02c3 : 00000000000000000000111100101110;  % 0x00000f2e  0.059299882501363754 %
02c4 : 00000000000000000000110110111101;  % 0x00000dbd  0.053661298006772995 %
02c5 : 11111111111111111111011110111000;  % 0xfffff7b8  -0.032343193888664246 %
02c6 : 00000000000000000000100001010010;  % 0x00000852  0.03250082954764366 %
02c7 : 00000000000000000000010010001110;  % 0x0000048e  0.01779807358980179 %
02c8 : 11111111111111111110111100000010;  % 0xffffef02  -0.06636905670166016 %
02c9 : 00000000000000000000101000011111;  % 0x00000a1f  0.03954003006219864 %
02ca : 11111111111111111111100101101010;  % 0xfffff96a  -0.025725843384861946 %
02cb : 00000000000000000000010001010100;  % 0x00000454  0.0169072225689888 %
02cc : 11111111111111111111010101111101;  % 0xfffff57d  -0.04106168821454048 %
02cd : 00000000000000000000100110110001;  % 0x000009b1  0.037857845425605774 %
02ce : 11111111111111111111110010100001;  % 0xfffffca1  -0.013171222992241383 %
02cf : 11111111111111111111101011101100;  % 0xfffffaec  -0.01984057016670704 %
02d0 : 11111111111111111111010100100100;  % 0xfffff524  -0.0424228198826313 %
02d1 : 11111111111111111111110000011011;  % 0xfffffc1b  -0.015205430798232555 %
02d2 : 00000000000000000000010101100011;  % 0x00000563  0.021045176312327385 %
02d3 : 11111111111111111111011010001011;  % 0xfffff68b  -0.03694738820195198 %
02d4 : 00000000000000000000101111000011;  % 0x00000bc3  0.045941222459077835 %
02d5 : 11111111111111111111100110001011;  % 0xfffff98b  -0.025219904258847237 %
02d6 : 00000000000000000000010010110111;  % 0x000004b7  0.018419751897454262 %
02d7 : 11111111111111111111101011110101;  % 0xfffffaf5  -0.01969749480485916 %
02d8 : 00000000000000000001010111000010;  % 0x000015c2  0.08499624580144882 %
02d9 : 11111111111111111111010100101111;  % 0xfffff52f  -0.042259108275175095 %
02da : 11111111111111111110101010111001;  % 0xffffeab9  -0.08312196284532547 %
02db : 00000000000000000000010000110110;  % 0x00000436  0.01644587516784668 %
02dc : 11111111111111111111110010001101;  % 0xfffffc8d  -0.013476185500621796 %
02dd : 11111111111111111111110010110000;  % 0xfffffcb0  -0.012943473644554615 %
02de : 11111111111111111111000010000100;  % 0xfffff084  -0.06048261374235153 %
02df : 11111111111111111111000111010010;  % 0xfffff1d2  -0.05538896098732948 %
02e0 : 00000000000000000000011001010000;  % 0x00000650  0.024654874578118324 %
02e1 : 11111111111111111111110101101011;  % 0xfffffd6b  -0.010083249770104885 %
02e2 : 11111111111111111111100101011001;  % 0xfffff959  -0.025987155735492706 %
02e3 : 00000000000000000000111110011010;  % 0x00000f9a  0.060942746698856354 %
02e4 : 00000000000000000000101000110101;  % 0x00000a35  0.03986412659287453 %
02e5 : 11111111111111111111100010001001;  % 0xfffff889  -0.029162783175706863 %
02e6 : 11111111111111111111111011000110;  % 0xfffffec6  -0.004788725636899471 %
02e7 : 00000000000000000000100100010011;  % 0x00000913  0.03544462472200394 %
02e8 : 00000000000000000000001001111100;  % 0x0000027c  0.009711223654448986 %
02e9 : 11111111111111111111110000111010;  % 0xfffffc3a  -0.014736163429915905 %
02ea : 11111111111111111111110101010110;  % 0xfffffd56  -0.010410314425826073 %
02eb : 11111111111111111111100000111100;  % 0xfffff83c  -0.03033624403178692 %
02ec : 11111111111111111111001001000111;  % 0xfffff247  -0.053601864725351334 %
02ed : 00000000000000000001000101011101;  % 0x0000115d  0.06782472878694534 %
02ee : 00000000000000000001010011100101;  % 0x000014e5  0.08162558823823929 %
02ef : 11111111111111111111011101011100;  % 0xfffff75c  -0.033756647258996964 %
02f0 : 00000000000000000000001011101010;  % 0x000002ea  0.01137731596827507 %
02f1 : 00000000000000000001010000000110;  % 0x00001406  0.0782238095998764 %
02f2 : 11111111111111111111101111101001;  % 0xfffffbe9  -0.015969447791576385 %
02f3 : 11111111111111111111100111111100;  % 0xfffff9fc  -0.02349092811346054 %
02f4 : 11111111111111111111110001100000;  % 0xfffffc60  -0.014162182807922363 %
02f5 : 00000000000000000000001110011000;  % 0x00000398  0.014033563435077667 %
02f6 : 00000000000000000000100111110001;  % 0x000009f1  0.038829781115055084 %
02f7 : 00000000000000000000100110100000;  % 0x000009a0  0.03760361671447754 %
02f8 : 00000000000000000000111100010011;  % 0x00000f13  0.05887628719210625 %
02f9 : 11111111111111111111101011110011;  % 0xfffffaf3  -0.019736062735319138 %
02fa : 00000000000000000000111111001001;  % 0x00000fc9  0.06166517361998558 %
02fb : 00000000000000000000000000101000;  % 0x00000028  0.0006168913678266108 %
02fc : 11111111111111111111011010010010;  % 0xfffff692  -0.03683125600218773 %
02fd : 00000000000000000000001011110110;  % 0x000002f6  0.011561074294149876 %
02fe : 11111111111111111110110101000100;  % 0xffffed44  -0.07318415492773056 %
02ff : 11111111111111111110110010100001;  % 0xffffeca1  -0.07567580044269562 %
0300 : 00000000000000000000100100000000;  % 0x00000900  0.03515427187085152 %
0301 : 00000000000000000000100001000000;  % 0x00000840  0.032220978289842606 %
0302 : 11111111111111111111011100101101;  % 0xfffff72d  -0.03447418659925461 %
0303 : 11111111111111111111101110110010;  % 0xfffffbb2  -0.016819028183817863 %
0304 : 11111111111111111111101100011110;  % 0xfffffb1e  -0.019074391573667526 %
0305 : 00000000000000000000110011101001;  % 0x00000ce9  0.050426941365003586 %
0306 : 00000000000000000000110111000100;  % 0x00000dc4  0.05377316474914551 %
0307 : 00000000000000000000000000101111;  % 0x0000002f  0.0007191820768639445 %
0308 : 00000000000000000000111010101001;  % 0x00000ea9  0.057260021567344666 %
0309 : 11111111111111111111110110101100;  % 0xfffffdac  -0.009095248766243458 %
030a : 00000000000000000001000000101000;  % 0x00001028  0.06311046332120895 %
030b : 11111111111111111111100111101001;  % 0xfffff9e9  -0.02379569783806801 %
030c : 11111111111111111111111000110010;  % 0xfffffe32  -0.007054656744003296 %
030d : 11111111111111111111110001000010;  % 0xfffffc42  -0.014613047242164612 %
030e : 00000000000000000000111010000000;  % 0x00000e80  0.056639887392520905 %
030f : 11111111111111111111010101010101;  % 0xfffff555  -0.04167301207780838 %
END;
