DEPTH = 10;
WIDTH = 32;
ADDRESS_RADIX = HEX;
DATA_RADIX = BIN;
CONTENT
BEGIN
0000 : 11111111111111111111001111101101;  % 0xfffff3ed  -0.04716652 %
0001 : 00000000000000000000110000100101;  % 0x00000c25  0.04744006 %
0002 : 00000000000000000000110110001101;  % 0x00000d8d  0.05293656 %
0003 : 00000000000000000000000101000101;  % 0x00000145  0.00495819 %
0004 : 11111111111111111110111100100100;  % 0xffffef24  -0.065857686 %
0005 : 11111111111111111110111111100110;  % 0xffffefe6  -0.06289406 %
0006 : 11111111111111111110111101000110;  % 0xffffef46  -0.06533254 %
0007 : 11111111111111111111001110010000;  % 0xfffff390  -0.048591606 %
0008 : 11111111111111111111001000000000;  % 0xfffff200  -0.054693654 %
0009 : 11111111111111111110111110000100;  % 0xffffef84  -0.06439026 %
END;
