DEPTH = 10;
WIDTH = 32;
ADDRESS_RADIX = HEX;
DATA_RADIX = BIN;
CONTENT
BEGIN
0000 : 11111111111111111101001100001111;  % 0xffffd30f  -0.175555020570755 %
0001 : 11111111111111110111011000111000;  % 0xffff7638  -0.5382083058357239 %
0002 : 11111111111111111011100110111010;  % 0xffffb9ba  -0.27450671792030334 %
0003 : 11111111111111111010011011100011;  % 0xffffa6e3  -0.3481002449989319 %
0004 : 11111111111111111100101111111100;  % 0xffffcbfc  -0.20318590104579926 %
0005 : 00000000000000000000000110101101;  % 0x000001ad  0.006542656570672989 %
0006 : 11111111111111111110110110010110;  % 0xffffed96  -0.07192889600992203 %
0007 : 00000000000000000111111001110001;  % 0x00007e71  0.49391108751296997 %
0008 : 00000000000000000111101100011010;  % 0x00007b1a  0.48087039589881897 %
0009 : 00000000000000001001100010101101;  % 0x000098ad  0.5963972210884094 %
END;
