DEPTH = 10;
WIDTH = 32;
ADDRESS_RADIX = HEX;
DATA_RADIX = BIN;
CONTENT
BEGIN
0000 : 00000000000000000000100001111110;  % 0x0000087e  0.033171073 %
0001 : 00000000000000000000000011000001;  % 0x000000c1  0.0029464662 %
0002 : 00000000000000000000010101011110;  % 0x0000055e  0.020959742 %
0003 : 00000000000000000000111100100011;  % 0x00000f23  0.059133835 %
0004 : 11111111111111111110110101010101;  % 0xffffed55  -0.07292142 %
0005 : 00000000000000000000011010011011;  % 0x0000069b  0.025799893 %
0006 : 11111111111111111110111111001001;  % 0xffffefc9  -0.06334059 %
0007 : 11111111111111111111110111011111;  % 0xfffffddf  -0.008317523 %
0008 : 11111111111111111110101110010000;  % 0xffffeb90  -0.07983825 %
0009 : 00000000000000000000010010001100;  % 0x0000048c  0.017754436 %
END;
