00000000000000000000000101000101
00000000000000000000110100110101
00000000000000000000111100100011
11111111111111111111110001001111
11111111111111111111010011000010
00000000000000000000101000000001
11111111111111111110110000010011
00000000000000000000101110001111
00000000000000000000011101110011
11111111111111111110111101110010
11111111111111111111101111000011
00000000000000000000101010110110
00000000000000000000110101100001
11111111111111111111110110110001
11111111111111111111110010001011
00000000000000000001011000101100
11111111111111111111100101011110
11111111111111111110110101101110
00000000000000000001001010111010
11111111111111111111000000000110
11111111111111111111001111001100
00000000000000000000110101001110
00000000000000000001001000100101
00000000000000000001010110000011
00000000000000000000010110011100
11111111111111111111001000011011
00000000000000000000010011001101
11111111111111111110110110000011
00000000000000000000100011111011
00000000000000000000001101111011
00000000000000000000110101001010
11111111111111111110101010111110
00000000000000000001000010011111
11111111111111111111111100100001
11111111111111111111101000101100
11111111111111111111011011010000
11111111111111111111100001000101
00000000000000000000010011010100
11111111111111111110101110101001
11111111111111111111000011000011
00000000000000000000111010001111
11111111111111111111111111001110
00000000000000000000000011101111
00000000000000000000010000111011
00000000000000000001000001000100
11111111111111111111110100001101
00000000000000000000111100010101
11111111111111111110111101000111
00000000000000000001000100001000
00000000000000000001010101010110
00000000000000000000110101001111
11111111111111111111100011010111
11111111111111111111101101000111
00000000000000000000100000111100
11111111111111111111000110101110
00000000000000000000010000010100
00000000000000000000001001011100
11111111111111111110110011011001
00000000000000000001000010011100
11111111111111111111001000111011
00000000000000000001000000011100
11111111111111111111011110110010
00000000000000000000100110011111
00000000000000000000001100101101
11111111111111111111010001000011
11111111111111111111100011010101
11111111111111111111010010010011
11111111111111111110111101101011
00000000000000000000000001111011
00000000000000000000101001110000
11111111111111111110110001011011
11111111111111111111110001001111
11111111111111111110111111111100
00000000000000000000101101000100
11111111111111111111001110100100
11111111111111111111001000010111
00000000000000000001011000011011
11111111111111111111101101101011
00000000000000000000111111111001
00000000000000000000101100001110
11111111111111111111000011110010
11111111111111111111011101101100
00000000000000000000010111110001
11111111111111111111010101000001
00000000000000000000000100011001
00000000000000000001000101101001
00000000000000000000101001000100
11111111111111111111011011001100
11111111111111111111010011000001
00000000000000000001011010001111
00000000000000000001011111110101
11111111111111111111000110100010
11111111111111111111111010100010
00000000000000000000001100100000
00000000000000000001011001111011
11111111111111111111101111001011
00000000000000000010000011000101
00000000000000000000110100001010
00000000000000000001101000110000
00000000000000000000000001101101
00000000000000000001010110101010
00000000000000000001000001100011
00000000000000000001101000001011
00000000000000000000101010101000
11111111111111111111111110000100
00000000000000000001000101101110
11111111111111111111011010101101
11111111111111111110110111011101
00000000000000000000110110011100
00000000000000000001001011010100
00000000000000000000000001011111
00000000000000000000010011011000
00000000000000000001011000000001
11111111111111111111010011011001
11111111111111111110111000011101
11111111111111111111011010101100
11111111111111111111100110000010
11111111111111111111110010000001
11111111111111111111011010010111
00000000000000000000111001101010
00000000000000000000110011111110
00000000000000000001010001011110
00000000000000000010111000110000
00000000000000000010000101010011
00000000000000000000101011101000
00000000000000000000000101111110
00000000000000000001000000011111
00000000000000000010011010011111
00000000000000000001110100110110
00000000000000000001000010001100
00000000000000000000110100101000
00000000000000000000010110010110
00000000000000000000101101100100
11111111111111111111110010001111
00000000000000000000101010011100
00000000000000000000010011110101
00000000000000000001010111101010
00000000000000000001100110000101
11111111111111111111101100110011
11111111111111111111010010110101
00000000000000000000110100000110
00000000000000000001001010101101
11111111111111111110111000110010
00000000000000000000111100110111
00000000000000000001001101110010
11111111111111111111111111110011
11111111111111111111100100101101
00000000000000000001110111101100
00000000000000000000010000011001
00000000000000000000100110110011
00000000000000000000100000010101
00000000000000000001011011111001
11111111111111111111111101100110
00000000000000000000100001001010
00000000000000000000000100010000
00000000000000000000011011001100
00000000000000000000000011011100
00000000000000000000110010101100
00000000000000000000111110101000
00000000000000000000110100101101
00000000000000000000110110110001
11111111111111111111111101111110
11111111111111111110110001110100
11111111111111111111101111110011
11111111111111111111000100000010
00000000000000000001010010001111
11111111111111111111100110111011
00000000000000000000110111001101
11111111111111111111110111101011
11111111111111111111111101000000
11111111111111111110110101010010
00000000000000000000000111110110
00000000000000000000101000010111
11111111111111111110111111110011
00000000000000000000101000000001
11111111111111111111100111111011
00000000000000000000010000101011
00000000000000000000001011110110
11111111111111111111110010111000
11111111111111111111111011101101
00000000000000000000011101111100
00000000000000000000001101000110
00000000000000000000100011000100
00000000000000000000001110001000
00000000000000000001011111001000
00000000000000000001001010000101
00000000000000000000000101001101
00000000000000000000110010111001
11111111111111111111111000110001
00000000000000000000101001110011
11111111111111111111001110000110
11111111111111111111101010110000
11111111111111111111101010100010
00000000000000000000100010100001
00000000000000000001001100001111
00000000000000000001011001010001
11111111111111111111100110101011
11111111111111111110110010100010
11111111111111111111111011100001
00000000000000000000000111010010
11111111111111111111100011011000
00000000000000000000100100101000
00000000000000000000010111100111
11111111111111111111000101000100
00000000000000000000110110011011
11111111111111111111110110100111
00000000000000000000101110010001
11111111111111111111101001010111
11111111111111111111111101000001
11111111111111111111111111000110
11111111111111111111110000101010
00000000000000000000010101000011
11111111111111111111100101001101
11111111111111111111110101011100
00000000000000000000001011010001
00000000000000000000001110111111
11111111111111111111101101010111
11111111111111111111110110011101
00000000000000000000010110100011
11111111111111111110000111100001
00000000000000000000101010001111
11111111111111111111111000101010
11111111111111111111001001110000
00000000000000000000101010001111
00000000000000000000101000100000
11111111111111111111010001110110
00000000000000000000111001001011
00000000000000000000000000000011
11111111111111111111011011111000
00000000000000000000001101010011
11111111111111111111100110111110
11111111111111111110111100100000
00000000000000000000101010011000
11111111111111111111110001111101
11111111111111111111111111111111
11111111111111111111110110100010
11111111111111111111011001001111
11111111111111111111011010111110
11111111111111111111100110100001
11111111111111111111010011011100
00000000000000000000111110010010
11111111111111111111100001011001
00000000000000000000001011010101
11111111111111111111101110001111
11111111111111111111011100001110
00000000000000000000011000000000
11111111111111111111101100001000
11111111111111111110101001101110
00000000000000000000110000100100
11111111111111111111110011100100
00000000000000000000001100011010
11111111111111111111001010010100
11111111111111111111011101111010
00000000000000000001001111000010
00000000000000000000111000111111
11111111111111111111001010111011
00000000000000000001010000111110
00000000000000000000001111000100
00000000000000000000001011011000
11111111111111111111111010000100
00000000000000000000001000111101
11111111111111111111100001100001
00000000000000000000100000001101
11111111111111111111110011100000
00000000000000000000000110000010
11111111111111111111101011001000
11111111111111111110011100110001
11111111111111111111011111010101
11111111111111111111101011001111
11111111111111111111111111111110
00000000000000000000100010010001
00000000000000000000100000111011
00000000000000000000101111000111
00000000000000000001011100110001
00000000000000000000110110000011
00000000000000000001111100000111
00000000000000000010000000101100
00000000000000000010001001011110
00000000000000000000111111011111
11111111111111111111000010101011
11111111111111111111001101011101
11111111111111111111000000001101
11111111111111111111101010011100
11111111111111111111000110100001
00000000000000000000101011100100
11111111111111111111110111011100
11111111111111111110101100000101
00000000000000000000001001111001
11111111111111111111100011101001
11111111111111111111101001111010
11111111111111111111101010001110
11111111111111111111100110101111
00000000000000000000000110111001
11111111111111111110101000111101
11111111111111111111001000011000
11111111111111111101011111001000
00000000000000000000000000001100
11111111111111111111111001010011
00000000000000000001010000100011
00000000000000000000110000100101
00000000000000000001000100001110
00000000000000000001000110110100
00000000000000000001011101000100
00000000000000000010100000010111
00000000000000000011010001101001
00000000000000000001100010001100
00000000000000000001010011101001
11111111111111111111010010101001
11111111111111111110110000100010
11111111111111111111001010100111
11111111111111111111011010100001
00000000000000000000011011001000
00000000000000000000101011010111
11111111111111111111000011010000
00000000000000000000010010110100
11111111111111111101111101010110
11111111111111111111111011101000
00000000000000000000001011101111
11111111111111111110111011011110
00000000000000000000101011100101
11111111111111111111110111000110
00000000000000000000001111111110
11111111111111111111110000111110
11111111111111111111100111001111
11111111111111111111111011100001
00000000000000000001000111101001
11111111111111111111111111110010
00000000000000000001010010111011
11111111111111111111111101001001
11111111111111111111101000011111
00000000000000000000001000010000
00000000000000000000000100111110
00000000000000000010000011100111
00000000000000000000001011000011
00000000000000000001110000110001
00000000000000000000110001000101
00000000000000000000100111110101
11111111111111111111100110011110
00000000000000000000101101101001
11111111111111111110000111100001
00000000000000000000100101000110
11111111111111111110111110101101
11111111111111111111010110001101
11111111111111111111011111001011
11111111111111111111000011001110
11111111111111111111110000110110
00000000000000000001000101110011
00000000000000000000111000011101
00000000000000000001111000101111
00000000000000000001110110011010
00000000000000000000100000110000
11111111111111111111010001001000
11111111111111111110111010000010
00000000000000000000010011001000
11111111111111111111111101101001
00000000000000000000101100110110
11111111111111111111101000101000
11111111111111111111100000001111
11111111111111111110010111100010
11111111111111111111000001101000
00000000000000000000111000010001
00000000000000000000011100010001
00000000000000000000000001111001
11111111111111111111111110011101
11111111111111111111100100000100
00000000000000000001001011001001
11111111111111111110010100000101
11111111111111111111100011111001
11111111111111111111000010110101
11111111111111111111000101100110
00000000000000000000001000001000
00000000000000000000110111010100
00000000000000000000110111001001
00000000000000000001101101001000
00000000000000000001001110110100
00000000000000000001111001101011
00000000000000000010011101001001
00000000000000000010000111000010
00000000000000000001000110010110
11111111111111111111011010110011
00000000000000000000100100110001
11111111111111111111010010101100
00000000000000000001001000111101
00000000000000000000010100101110
00000000000000000000010001110110
11111111111111111111100111010111
11111111111111111111100101010100
00000000000000000000111010101111
00000000000000000000001100000001
11111111111111111110111011000001
00000000000000000000010100001001
00000000000000000001000011100010
11111111111111111111000011010101
00000000000000000000011001100010
11111111111111111110110100011011
11111111111111111110101110010001
11111111111111111111111101100100
11111111111111111111001100010010
00000000000000000001110011010000
00000000000000000001001111101100
00000000000000000000111100100101
00000000000000000000010000001001
00000000000000000001101010001111
00000000000000000000110000100111
00000000000000000001100100101100
00000000000000000000110010100111
00000000000000000001001101101000
00000000000000000000001001011100
11111111111111111111110111111111
00000000000000000001100001000011
00000000000000000000001100000000
11111111111111111110100101010101
11111111111111111110100010100010
11111111111111111111011101000001
11111111111111111101100111001111
11111111111111111110011100100100
11111111111111111111100000001100
00000000000000000000010011001100
11111111111111111110110011100001
00000000000000000000111000101010
11111111111111111111111001101101
00000000000000000000011111001011
00000000000000000000000001000110
11111111111111111111101001001001
11111111111111111111100110011010
11111111111111111111010010010111
00000000000000000001011011101101
00000000000000000001001111100000
00000000000000000000100010110100
00000000000000000001000011110001
00000000000000000000110000000000
00000000000000000000001011101010
00000000000000000000101001111011
00000000000000000001101000110010
00000000000000000000110000011001
00000000000000000000011111010101
00000000000000000000111100001011
11111111111111111111110101010110
00000000000000000001001001000001
11111111111111111111110111000001
11111111111111111111100000000010
11111111111111111111011110110110
11111111111111111111000110001000
00000000000000000000101110100011
00000000000000000000011100001110
00000000000000000000100110101111
00000000000000000000001010100101
11111111111111111110111000111000
00000000000000000000111001010101
11111111111111111110101110101011
00000000000000000000111000011000
00000000000000000000100001101101
00000000000000000000111010000111
00000000000000000000111000101111
00000000000000000000001010101100
11111111111111111110111010011011
11111111111111111111101010101011
00000000000000000000010101110110
11111111111111111110110000101001
00000000000000000000001101001111
00000000000000000000101000001100
00000000000000000001011011100001
00000000000000000000001000110100
00000000000000000000010101011010
00000000000000000000111011101110
00000000000000000000111010011011
11111111111111111111110100010101
11111111111111111111110011110011
11111111111111111111001110110100
00000000000000000000011110001000
11111111111111111111011110100011
00000000000000000000111100011100
00000000000000000000001001110010
00000000000000000001010010101000
11111111111111111111010010000110
00000000000000000001010110100000
00000000000000000000101111101110
11111111111111111110111111001100
11111111111111111111111111101111
00000000000000000001001001111101
11111111111111111111110110101101
11111111111111111111010000011101
00000000000000000000010101001111
00000000000000000001010010110100
00000000000000000000000000111111
11111111111111111111110010010010
00000000000000000000000100111111
00000000000000000000011101110100
11111111111111111110111001100110
11111111111111111111110100011101
11111111111111111111010111100100
00000000000000000000001100010110
00000000000000000000001000110100
00000000000000000001000111101101
00000000000000000000011110111001
00000000000000000001011011011110
11111111111111111111111000100100
00000000000000000001101100111000
00000000000000000000011111111011
00000000000000000000100010100100
11111111111111111111001111111111
11111111111111111111001010011101
11111111111111111111000001001101
00000000000000000000001000111010
11111111111111111110101010110101
11111111111111111111000011001111
00000000000000000000111000010111
11111111111111111111101110000011
00000000000000000001101110101111
00000000000000000000110011010101
00000000000000000011000100010000
11111111111111111111110100100000
00000000000000000000001011100000
11111111111111111111000100110010
11111111111111111111100010010100
11111111111111111110001011000000
11111111111111111110101001111111
11111111111111111110000111101011
11111111111111111111010010100110
00000000000000000000000100100001
00000000000000000000111101101001
00000000000000000001001111100100
11111111111111111111111110101011
00000000000000000000010010111001
00000000000000000001010011100101
00000000000000000000000101010011
00000000000000000000110101000000
00000000000000000001111111001110
11111111111111111111101110100101
00000000000000000000100101111110
11111111111111111110101001101001
11111111111111111111010011101100
11111111111111111111101001010011
00000000000000000000111001100111
00000000000000000001001011011100
00000000000000000001000101011011
00000000000000000001010100000010
00000000000000000001110101110011
00000000000000000001011000001101
11111111111111111111010111000000
11111111111111111111110001111110
11111111111111111110100010000100
11111111111111111110011000011111
11111111111111111110001000010010
11111111111111111110100110100101
11111111111111111110000011010011
11111111111111111111001110100010
11111111111111111111000111010101
00000000000000000000011000101111
00000000000000000000100010111110
00000000000000000000111010011001
00000000000000000001000000101111
00000000000000000001100101110010
00000000000000000010010001100100
00000000000000000010010001111101
00000000000000000000011111111000
00000000000000000000001101111000
00000000000000000000111101001011
00000000000000000001001000111101
11111111111111111111101010101001
11111111111111111111111110100100
00000000000000000000011101001100
00000000000000000000111001101010
00000000000000000000101001101000
00000000000000000001011110000000
00000000000000000010100011101010
00000000000000000000101100111010
00000000000000000000101011010111
00000000000000000000000100110011
11111111111111111111101110001101
00000000000000000000000001001100
11111111111111111110000100111011
11111111111111111110101001111011
11111111111111111111110100000101
11111111111111111111011100001100
11111111111111111111111101001101
00000000000000000000010110011100
00000000000000000001001101010101
00000000000000000001110010110001
00000000000000000000010011111101
00000000000000000001100111100010
00000000000000000001110010111110
00000000000000000001000000101111
00000000000000000001001001000011
00000000000000000000100101101000
11111111111111111110110011100011
11111111111111111111110110110010
00000000000000000000111001010000
11111111111111111110110110111011
11111111111111111110111101011110
00000000000000000000100100010010
11111111111111111111010011111101
11111111111111111111111010000010
00000000000000000000001010010000
00000000000000000000000000011111
00000000000000000000001000010101
11111111111111111111111000010010
11111111111111111111110001111011
11111111111111111111011001000111
00000000000000000000011001110111
00000000000000000000011011111000
11111111111111111111110000101101
11111111111111111111010110111010
11111111111111111111111000001011
11111111111111111111111001000000
11111111111111111111001011011001
11111111111111111111101101001111
00000000000000000000001001100101
11111111111111111111110101101001
00000000000000000000111100111111
00000000000000000000101000011000
11111111111111111111110001101011
00000000000000000000100110011010
11111111111111111111011101011100
00000000000000000000000001101010
11111111111111111111110100100111
00000000000000000000001111110010
00000000000000000000101011101101
00000000000000000001000010000100
00000000000000000001101001010001
00000000000000000001100001000001
11111111111111111101110011010111
11111111111111111110110000011100
00000000000000000000100111001111
00000000000000000000001101010011
00000000000000000000001101010101
00000000000000000000010111001001
00000000000000000001001110001010
00000000000000000000101010000011
00000000000000000000101111101000
00000000000000000000000011110110
11111111111111111111110101001000
11111111111111111111001111010100
00000000000000000000001110010101
00000000000000000000011101011101
11111111111111111111111111001000
00000000000000000001000000100111
00000000000000000000011011000000
00000000000000000000101001000010
11111111111111111111101101011010
11111111111111111111000001001011
00000000000000000001010111110001
11111111111111111111001100100101
00000000000000000000001010100011
11111111111111111110101001010001
00000000000000000001010001001101
00000000000000000001011100111100
00000000000000000000101001000000
00000000000000000000010011110111
11111111111111111111011011010101
00000000000000000000010100010000
11111111111111111110111100010110
00000000000000000001000111010001
11111111111111111111011010101000
00000000000000000001010000100000
11111111111111111111101111011010
11111111111111111111010111011101
00000000000000000001000110001001
11111111111111111111110000011010
00000000000000000000100111110010
00000000000000000000001000101001
11111111111111111111100001001110
00000000000000000001100000000100
00000000000000000000011011011010
00000000000000000000100110010100
11111111111111111111011110111100
00000000000000000000110010011101
00000000000000000001010010000101
00000000000000000000111000100010
00000000000000000001000000110010
11111111111111111111001111110000
11111111111111111111000001100101
11111111111111111110100111111000
11111111111111111110110100001010
11111111111111111110111101010101
11111111111111111111110001000110
00000000000000000000110000111100
11111111111111111111100111010100
00000000000000000000000011101011
00000000000000000001000010100000
00000000000000000010000010010000
00000000000000000001010001001100
00000000000000000001000010011000
00000000000000000001000100010000
00000000000000000001010010101000
00000000000000000000101010110000
00000000000000000000111111101011
00000000000000000000000100100000
00000000000000000000110111000101
00000000000000000000000101100100
00000000000000000000011110111011
00000000000000000000000110001010
00000000000000000001100000110001
00000000000000000000100110001001
11111111111111111111101000001001
00000000000000000001010101101010
00000000000000000000000000110001
00000000000000000000000101101001
11111111111111111111000010000000
11111111111111111110101111111000
11111111111111111111100101010000
11111111111111111111100110111111
11111111111111111111111001010111
11111111111111111110110000010011
00000000000000000001001000011101
00000000000000000001000010110010
11111111111111111111100010000011
00000000000000000001010101010011
00000000000000000000001100111110
00000000000000000000010101011110
00000000000000000001001010010000
00000000000000000001101101110011
00000000000000000001000011100010
00000000000000000001110000011000
00000000000000000001000110111110
00000000000000000001110000110100
00000000000000000010011001011001
00000000000000000000100000011101
00000000000000000001101000000001
00000000000000000000111011111101
00000000000000000001011001100100
00000000000000000000111000110010
11111111111111111111010000010111
11111111111111111111100011111101
00000000000000000000010101010011
11111111111111111110101100101010
00000000000000000000011111011011
11111111111111111111101100011111
11111111111111111111110001110111
11111111111111111111011011001011
00000000000000000000010101101110
11111111111111111110101111101011
11111111111111111111010111010011
11111111111111111111010011001101
00000000000000000000111010011101
11111111111111111111001000111111
00000000000000000001100101101010
11111111111111111111100100000001
11111111111111111111111000100101
11111111111111111111011001011110
11111111111111111111111100010110
00000000000000000000110110100000
00000000000000000000011001010011
00000000000000000000010010000100
11111111111111111111111101101101
00000000000000000000011011010101
11111111111111111111100001111100
00000000000000000000111110111010
11111111111111111111101000110001
00000000000000000001001001101100
00000000000000000000110000101011
00000000000000000000000101010001
11111111111111111111011000000010
00000000000000000001010100110101
11111111111111111111001100110100
11111111111111111111000000011110
11111111111111111110110011101010
00000000000000000000010011011011
11111111111111111111001101011111
00000000000000000001000100101111
11111111111111111111100111001001
00000000000000000000001101011011
00000000000000000000000111010100
11111111111111111111101010000011
00000000000000000000101011110111
11111111111111111111100010100001
00000000000000000000001000010111
11111111111111111111100110110000
11111111111111111111100000111110
11111111111111111111101101001011
00000000000000000001000111011000
00000000000000000000011100000001
00000000000000000000100001101011
11111111111111111110100000001101
11111111111111111110111110100100
11111111111111111111101100010001
11111111111111111111110010101001
00000000000000000000010111000101
00000000000000000000010100001101
00000000000000000000100001111011
11111111111111111111110010011111
11111111111111111110101101011101
11111111111111111111001001101110
11111111111111111110101111101110
