DEPTH = 10;
WIDTH = 32;
ADDRESS_RADIX = HEX;
DATA_RADIX = BIN;
CONTENT
BEGIN
0000 : 11111111111111111100101111000110;  % 0xffffcbc6  -0.20401113 %
0001 : 00000000000000000111101100011010;  % 0x00007b1a  0.4808704 %
0002 : 11111111111111111110010100101000;  % 0xffffe528  -0.10485198 %
0003 : 11111111111111111111001010001100;  % 0xfffff28c  -0.052554473 %
0004 : 00000000000000000100000000110000;  % 0x00004030  0.25073123 %
0005 : 11111111111111111110010101001110;  % 0xffffe54e  -0.10427899 %
0006 : 11111111111111111101010101110101;  % 0xffffd575  -0.16618648 %
0007 : 11111111111111111111111010000100;  % 0xfffffe84  -0.0058044246 %
0008 : 00000000000000001010010110100100;  % 0x0000a5a4  0.6470321 %
0009 : 00000000000000000000011010001101;  % 0x0000068d  0.02559095 %
END;
