DEPTH = 10;
WIDTH = 32;
ADDRESS_RADIX = HEX;
DATA_RADIX = BIN;
CONTENT
BEGIN
0000 : 00000000000000000001000110011000;  % 0x00001198  0.06872603297233582 %
0001 : 11111111111111111111010011000010;  % 0xfffff4c2  -0.04391223564743996 %
0002 : 11111111111111111000011101111000;  % 0xffff8778  -0.47081810235977173 %
0003 : 00000000000000000001111000110000;  % 0x00001e30  0.11791906505823135 %
0004 : 00000000000000001011111000001111;  % 0x0000be0f  0.7424214482307434 %
0005 : 11111111111111111011011011011010;  % 0xffffb6da  -0.28574228286743164 %
0006 : 00000000000000000010000111111010;  % 0x000021fa  0.13271711766719818 %
0007 : 11111111111111111011000111001111;  % 0xffffb1cf  -0.30542969703674316 %
0008 : 11111111111111111100101111000110;  % 0xffffcbc6  -0.20401112735271454 %
0009 : 11111111111111111100001101011100;  % 0xffffc35c  -0.23688171803951263 %
END;
