11111111111111111111001110010000
00000000000000000001010110001001
11111111111111111111110111011111
00000000000000000000011011011100
00000000000000000001001011011111
11111111111111111110101011011111
11111111111111111110100111011101
00000000000000000001001110100100
11111111111111111110111111011100
00000000000000000000010110010110
00000000000000000000110001101001
11111111111111111111001101001010
11111111111111111111101000110000
11111111111111111111100110111111
00000000000000000000011000000100
11111111111111111111101111010010
00000000000000000001010001100101
00000000000000000000010101000000
00000000000000000000010011100001
00000000000000000000111100010001
00000000000000000000011000101011
00000000000000000000000101101011
00000000000000000000111001010011
11111111111111111110101010111011
11111111111111111111010100010011
11111111111111111111111010101000
11111111111111111111001111001001
11111111111111111110111011001011
00000000000000000000000010011011
00000000000000000000000010101101
11111111111111111111100110000111
11111111111111111111010100110010
11111111111111111111001111100001
11111111111111111111110100001001
11111111111111111110100111111011
11111111111111111111101101000010
00000000000000000000101110110100
00000000000000000001001010110010
00000000000000000000010101011010
11111111111111111110100101110111
11111111111111111111110010000000
11111111111111111110100111111011
11111111111111111111001000100011
00000000000000000000001010001110
11111111111111111111111001111011
11111111111111111111101000101000
00000000000000000000000111100011
00000000000000000000000110100010
00000000000000000000110010000001
00000000000000000000000101100010
11111111111111111111000110000000
00000000000000000000000100010100
00000000000000000000101010000010
00000000000000000000011111010011
00000000000000000000011110010011
11111111111111111111011111110110
11111111111111111111001101001100
00000000000000000000011000011101
00000000000000000000100000010010
00000000000000000000010101101011
11111111111111111111010110001000
11111111111111111111101000111000
00000000000000000000100010011011
11111111111111111111001101011111
00000000000000000000010111101100
00000000000000000000111000111111
00000000000000000001001001001000
11111111111111111110100101110001
11111111111111111111010101101000
11111111111111111111011100000011
11111111111111111111101011111011
00000000000000000000110110101010
00000000000000000001000000001110
00000000000000000001000100100001
00000000000000000000010001001101
11111111111111111111111100000000
00000000000000000000011011111110
00000000000000000001000111000100
11111111111111111110110100111000
11111111111111111111111010001100
11111111111111111111011110011010
11111111111111111110110010000000
00000000000000000001010110111011
11111111111111111111110001111100
11111111111111111111111011111000
11111111111111111111101100111000
00000000000000000001001110110011
11111111111111111111111100001000
00000000000000000001010001110110
00000000000000000000011000100101
00000000000000000000000110010001
11111111111111111111101001100110
11111111111111111110101011111111
11111111111111111110110101111110
11111111111111111110110001011110
11111111111111111110101010100101
00000000000000000000100001101000
11111111111111111110100101101110
00000000000000000000010001100110
11111111111111111111001111010010
11111111111111111111011101011100
00000000000000000000010101011011
11111111111111111111100000000011
00000000000000000000000110000000
11111111111111111111100101101001
11111111111111111111000001011101
00000000000000000000111100101001
00000000000000000000001010000011
11111111111111111111011001010001
00000000000000000001000110010100
00000000000000000001000111100011
11111111111111111110101101010100
00000000000000000000001111011001
11111111111111111110111000001010
11111111111111111111100101010011
00000000000000000001000011111011
11111111111111111110110101011000
00000000000000000001001100110010
11111111111111111111110011011101
00000000000000000000010101101000
11111111111111111110101111100011
00000000000000000000100110110000
11111111111111111111111010110000
11111111111111111111101000110101
00000000000000000000010010011111
00000000000000000000000111111101
00000000000000000000011101011110
11111111111111111111001110011111
11111111111111111111111111010001
00000000000000000000010100110010
11111111111111111111111101110111
11111111111111111111110001011000
00000000000000000001011111011000
00000000000000000000111001110100
11111111111111111111111010101101
00000000000000000000000111010010
00000000000000000000001110010100
00000000000000000000010001000001
11111111111111111111001010010001
00000000000000000000001001001110
11111111111111111111110111110010
00000000000000000000110110110110
11111111111111111111011100011111
11111111111111111111010010111010
11111111111111111110111011110101
11111111111111111111011101101000
00000000000000000000001100110110
00000000000000000000110011011010
00000000000000000000100011000000
00000000000000000000001011010000
00000000000000000000001111101010
11111111111111111111101011000101
11111111111111111111110011010101
11111111111111111111001111101110
11111111111111111110101000110001
11111111111111111110110100010101
11111111111111111101111000011110
00000000000000000000010000010100
00000000000000000000001110010011
00000000000000000000010110111010
00000000000000000001100110111010
00000000000000000001100000011110
00000000000000000000101100111111
00000000000000000000000000101000
11111111111111111111010001000100
11111111111111111111100001010111
11111111111111111110110111110100
00000000000000000001000010101110
00000000000000000001000100111001
00000000000000000000001011111000
11111111111111111111000010000100
11111111111111111111001100000001
00000000000000000000010011110100
00000000000000000000011001100000
11111111111111111111111111010111
00000000000000000001110101111011
00000000000000000000001010000000
00000000000000000000110010000000
00000000000000000000001011000010
11111111111111111111010111111010
11111111111111111111100100111000
11111111111111111111000011000111
11111111111111111111100000110100
11111111111111111110010010111100
11111111111111111110010111010000
11111111111111111111011010011010
11111111111111111111110000110110
00000000000000000000011110110100
11111111111111111111100010011011
00000000000000000001001011100000
00000000000000000000110111110101
00000000000000000001011111110011
00000000000000000000101011110110
11111111111111111111101111010110
00000000000000000000010010010100
11111111111111111111001011010101
00000000000000000000011110110110
00000000000000000000000101100101
11111111111111111111001111011000
00000000000000000001011100100000
00000000000000000000001000010100
00000000000000000001011010010101
11111111111111111111100010011101
00000000000000000000100111101010
00000000000000000000001110100111
00000000000000000001100011111011
11111111111111111111100000000100
11111111111111111111010011000101
11111111111111111111111011101110
11111111111111111110111011101001
11111111111111111110000100000110
11111111111111111110011111010000
11111111111111111101011110101010
11111111111111111111100100111010
11111111111111111111101110111000
00000000000000000000010101001111
00000000000000000000001110101000
11111111111111111111000010101100
11111111111111111111100001101100
00000000000000000000101111001100
00000000000000000001010010111001
00000000000000000000011001001110
11111111111111111111100010000110
11111111111111111111000001100001
11111111111111111110101100001001
00000000000000000001001001011111
00000000000000000000110001010000
00000000000000000001001110111000
00000000000000000000010000111101
00000000000000000000100010101010
11111111111111111111101010001010
00000000000000000001000001111011
00000000000000000001011011001110
11111111111111111111110000100011
00000000000000000000101011001000
00000000000000000001001111100110
00000000000000000000010100000111
11111111111111111110110101111111
11111111111111111110101011111011
11111111111111111101101101000010
11111111111111111111000110000100
11111111111111111111011010000111
00000000000000000000011101011100
11111111111111111111101001101101
11111111111111111111111110100011
00000000000000000001001100110101
00000000000000000000010111011111
00000000000000000000001001000011
00000000000000000001101010000000
00000000000000000000101011011000
00000000000000000000100101100010
11111111111111111111000110011001
11111111111111111110101001010110
00000000000000000000000001010010
11111111111111111111000001100100
00000000000000000000110110011000
00000000000000000000100101100111
00000000000000000001111110110010
00000000000000000000001000100010
11111111111111111111101000111010
00000000000000000000111100100100
00000000000000000001100000001110
00000000000000000000100101010110
00000000000000000001001001110001
00000000000000000000110001100101
11111111111111111111111110111111
11111111111111111101101111011011
11111111111111111110100011001111
11111111111111111111010010110100
00000000000000000001001011010111
00000000000000000001000001000001
00000000000000000001010001101110
00000000000000000000000011110101
00000000000000000001011010111000
00000000000000000000110010000101
00000000000000000001111111010000
00000000000000000001100111000110
11111111111111111111111011110001
11111111111111111110101111111011
00000000000000000000001100000111
00000000000000000000001110011101
11111111111111111111110011010111
00000000000000000000010011000001
00000000000000000001000011101001
00000000000000000001101001110000
11111111111111111111011000011000
11111111111111111111011011101010
00000000000000000000110101010101
00000000000000000000011110001010
00000000000000000000001011110111
11111111111111111111111111001010
00000000000000000001011011000001
00000000000000000001010101101100
00000000000000000001000001110010
11111111111111111110011001111000
11111111111111111110000110010111
00000000000000000001010011001000
00000000000000000001001010111010
00000000000000000001011100001111
11111111111111111111110101110011
00000000000000000010000100000001
00000000000000000001110110101110
00000000000000000001100101001000
00000000000000000000010011011101
11111111111111111111110001000010
00000000000000000000000111100101
11111111111111111110111111000010
11111111111111111111010010100000
00000000000000000000000111001111
00000000000000000000110111101011
00000000000000000000010100011000
11111111111111111111101000101101
00000000000000000001000001110010
00000000000000000001010000111101
11111111111111111111100110001111
11111111111111111111110011100101
11111111111111111110110010001110
00000000000000000010000001101111
00000000000000000000101110010101
00000000000000000001111000001100
00000000000000000010100010111001
00000000000000000000011101010000
11111111111111111101110101110010
11111111111111111110101010101000
00000000000000000000011011110100
00000000000000000000100111001010
00000000000000000001110101110100
00000000000000000001001011010011
11111111111111111110111000110000
11111111111111111110110101001101
11111111111111111111111100000000
11111111111111111111100100100110
11111111111111111111000101110101
00000000000000000000110100001010
00000000000000000000011111111011
11111111111111111110101001111001
11111111111111111111110001010010
00000000000000000000010100101110
11111111111111111111010101001010
00000000000000000000000010101010
11111111111111111111010001111001
00000000000000000000001101001100
00000000000000000000011010010001
00000000000000000001001000100101
00000000000000000000111110100010
00000000000000000000110001110111
00000000000000000000111001000111
00000000000000000001110001000011
00000000000000000011001010101101
11111111111111111111101001111100
11111111111111111101111100110111
11111111111111111111000110011100
11111111111111111111111111010011
00000000000000000000101110011110
11111111111111111111001001101010
00000000000000000000010111010010
00000000000000000000011001100011
11111111111111111111111111110100
11111111111111111111111100001100
11111111111111111101111011100010
11111111111111111110011000000001
00000000000000000000011110011010
11111111111111111111111001100010
11111111111111111111011001110111
11111111111111111111001100111010
00000000000000000000111110110010
11111111111111111111111101000101
11111111111111111110110101010000
00000000000000000000101110001101
11111111111111111111110110010011
00000000000000000000010001100011
11111111111111111111011010011111
00000000000000000000101000011010
00000000000000000001000010101010
00000000000000000000110010111011
00000000000000000001110111110100
00000000000000000001101011101110
11111111111111111110111011001011
11111111111111111110000111001001
11111111111111111110011010110101
11111111111111111111111110010010
00000000000000000000010111011101
00000000000000000000101111101100
11111111111111111110110101100110
00000000000000000000001001000100
00000000000000000000001001111001
11111111111111111110111111011010
11111111111111111111100100110001
00000000000000000000010110001010
11111111111111111111111100011011
00000000000000000000011110101110
11111111111111111110110010010110
00000000000000000001001001111110
00000000000000000000110111001111
00000000000000000000111110110001
11111111111111111110110011001011
11111111111111111111001011000100
00000000000000000000010010100000
00000000000000000000011101010111
00000000000000000000100110101011
00000000000000000000100010001011
11111111111111111111110111111110
00000000000000000001011010101100
00000000000000000000010100011111
11111111111111111111001101111010
11111111111111111110110010000111
00000000000000000000110000110011
11111111111111111111000100001100
11111111111111111111100010010111
00000000000000000000101011010111
00000000000000000000011101101100
00000000000000000001010110111101
11111111111111111111111100100111
11111111111111111111010110000110
00000000000000000000001101101001
11111111111111111111110101010010
11111111111111111111011001110001
00000000000000000000110100110000
11111111111111111111001011000011
11111111111111111110110010101101
00000000000000000001000011011110
11111111111111111111111100110111
00000000000000000001001110101010
00000000000000000000100010001110
11111111111111111111101101000000
11111111111111111111101001111101
11111111111111111111100011000100
00000000000000000000011000111011
11111111111111111111111010111111
00000000000000000000100001110011
00000000000000000000110011001001
11111111111111111110010010001111
11111111111111111110110010110100
11111111111111111110111110010010
00000000000000000000001100100001
00000000000000000000011000100110
11111111111111111111100110110111
00000000000000000001001000011010
00000000000000000000011001100101
11111111111111111111111011000011
11111111111111111111011110010010
00000000000000000000001100111101
11111111111111111111100001010101
11111111111111111110101011110000
00000000000000000000000100000011
00000000000000000000011111000111
11111111111111111111011110000001
11111111111111111110111100011011
00000000000000000000110110010001
11111111111111111111001011000100
11111111111111111111111100000100
00000000000000000001001000001011
11111111111111111111011100000101
11111111111111111111100000010010
00000000000000000000011000000100
11111111111111111110110011011001
00000000000000000000000111111110
11111111111111111111110011110111
11111111111111111101101011010010
11111111111111111101110001101010
00000000000000000000001000100110
11111111111111111111011010001100
00000000000000000000011001000110
00000000000000000000000001000001
11111111111111111111101110011001
00000000000000000000001010000100
11111111111111111111101101000110
00000000000000000000111100000000
11111111111111111111101001000001
00000000000000000000111101010110
00000000000000000001010011001011
11111111111111111111111011101101
11111111111111111110110010100101
00000000000000000000011100111000
11111111111111111111101000011100
00000000000000000000001011100101
00000000000000000000000111101000
00000000000000000000110110000011
00000000000000000000010110111000
11111111111111111110100111001000
11111111111111111111001100101000
00000000000000000000001101001100
00000000000000000000001000101100
00000000000000000000001010100000
11111111111111111110001011000111
11111111111111111111011100101011
11111111111111111110101011001001
11111111111111111110110110011110
11111111111111111111010000000010
11111111111111111111001011110011
00000000000000000000111000100000
00000000000000000000101100111000
00000000000000000000011110011101
00000000000000000000111010000100
00000000000000000000001100001000
11111111111111111111100011011001
00000000000000000000001101001000
00000000000000000000010010010001
11111111111111111111000011100100
00000000000000000001010011101001
11111111111111111110110000111100
00000000000000000001001010100111
11111111111111111111010000111101
11111111111111111110100100000010
11111111111111111111110101100110
00000000000000000001010111101001
11111111111111111111100011101110
11111111111111111110110111011000
00000000000000000001010011110001
11111111111111111111101100000000
00000000000000000001011000001111
00000000000000000000100010100010
00000000000000000001000001001101
11111111111111111110100001110011
11111111111111111111000101000101
11111111111111111110011000100101
11111111111111111111100110011101
11111111111111111111001111110001
00000000000000000000110001001110
00000000000000000001000100000110
00000000000000000000010110111010
00000000000000000001000101000111
00000000000000000000110010101000
00000000000000000000000101101101
00000000000000000001001111010011
00000000000000000000101100010100
11111111111111111111100011000011
00000000000000000001000000001100
11111111111111111111000110011000
11111111111111111111101100000010
00000000000000000000110101010001
11111111111111111111001010001110
11111111111111111111001001110000
00000000000000000001010001111101
11111111111111111111110100111110
00000000000000000000100110001001
00000000000000000000011000010011
00000000000000000000001011010010
11111111111111111111011001001110
11111111111111111111001101101001
00000000000000000000010111110001
11111111111111111110110100010010
11111111111111111110011101111100
11111111111111111110110111000000
11111111111111111110110110110010
11111111111111111110101101001111
00000000000000000000010100010000
11111111111111111111110101100000
00000000000000000000000011111101
00000000000000000000010111100010
11111111111111111111100001100010
11111111111111111110110111010110
00000000000000000000010011101000
00000000000000000000000001010000
11111111111111111110010101010010
11111111111111111111111000101110
00000000000000000000000001110111
00000000000000000000011110111001
00000000000000000000011111000110
00000000000000000000010000100101
00000000000000000000101010101101
00000000000000000001010000101011
11111111111111111111001010110101
11111111111111111111001000011101
00000000000000000000110101111111
00000000000000000000001001110010
00000000000000000000100111001100
11111111111111111111001000110000
00000000000000000000010011111011
11111111111111111101101001110111
11111111111111111111101000111110
11111111111111111111101010101011
00000000000000000000010000110011
11111111111111111110000110000101
11111111111111111111100000001100
00000000000000000000010011010000
11111111111111111111001100100111
11111111111111111111110111011011
11111111111111111111110001010101
00000000000000000001000110111111
11111111111111111110010011000110
00000000000000000000100111110110
00000000000000000000011101110110
00000000000000000000011010000000
11111111111111111110110100110110
11111111111111111111010110011111
11111111111111111110110110010100
00000000000000000000111001101111
11111111111111111111000101101001
11111111111111111111011110100011
11111111111111111110101101101100
00000000000000000000110111001110
00000000000000000000011101001110
11111111111111111110011110011111
11111111111111111111101100001001
11111111111111111101111000011000
11111111111111111110100100000010
00000000000000000000001001100101
11111111111111111110110100111111
00000000000000000000010110001101
00000000000000000000011100010100
11111111111111111111111101011011
11111111111111111110011101111000
11111111111111111111000110110110
11111111111111111111111010001101
00000000000000000000000111110001
00000000000000000000110001011000
11111111111111111111011110011111
00000000000000000001111110011000
11111111111111111111101010100001
00000000000000000000010010111011
00000000000000000000100001001011
00000000000000000000101000111010
00000000000000000000101111001111
11111111111111111111100011110101
11111111111111111111110110001100
00000000000000000000011001000011
11111111111111111111101000110000
11111111111111111110110001100001
00000000000000000001000111010000
11111111111111111111010011110100
11111111111111111110101101011111
00000000000000000000000111000111
11111111111111111111010111110011
11111111111111111111001100011100
11111111111111111111111001010000
11111111111111111111010010001100
00000000000000000000010010011100
00000000000000000000000101111101
11111111111111111111010111010000
00000000000000000000111110001010
00000000000000000000000111111010
11111111111111111111001011101100
11111111111111111111010011110000
00000000000000000001000001010111
00000000000000000001111001010111
00000000000000000000001110001110
11111111111111111111010110100000
00000000000000000000000001010001
11111111111111111110111110100101
00000000000000000001001011100000
11111111111111111111000000011111
00000000000000000000111001001000
00000000000000000001000100000110
11111111111111111111000111011101
11111111111111111111110111011100
11111111111111111111100101110101
00000000000000000000110000110010
11111111111111111111000001001100
11111111111111111111011000100111
11111111111111111110111000111111
00000000000000000000010100101110
00000000000000000000001010101101
00000000000000000001000100101101
00000000000000000000010100000110
11111111111111111111110001110100
00000000000000000000101110001101
00000000000000000000101110110001
00000000000000000000001011011110
00000000000000000001001011100110
00000000000000000000011000001011
00000000000000000000100101101011
00000000000000000000100110001101
11111111111111111111111011101110
00000000000000000000010000111110
11111111111111111111010100000110
00000000000000000000101011111011
11111111111111111111011000011000
11111111111111111110111101000101
11111111111111111111101101010011
11111111111111111111000010000001
00000000000000000000111000110101
11111111111111111111000010011110
00000000000000000000110001110101
11111111111111111111100000000000
11111111111111111110110000101000
00000000000000000001010111001001
00000000000000000001000000001001
00000000000000000001000011011011
11111111111111111111011010101000
00000000000000000000001000111010
00000000000000000000101101001010
00000000000000000000010001000000
00000000000000000001001010100000
11111111111111111111111101100100
11111111111111111111110011000010
00000000000000000000000000010100
11111111111111111111100010111100
00000000000000000001010011100001
11111111111111111111100101011111
11111111111111111111111010011111
00000000000000000000100110110000
00000000000000000000001100011111
11111111111111111111010011111110
11111111111111111111110110111000
11111111111111111110110101100110
11111111111111111111010001000101
11111111111111111110111110001100
11111111111111111111010010111111
00000000000000000000000000110001
00000000000000000000000111000111
11111111111111111110110111000100
00000000000000000000001100100111
00000000000000000000110101101000
11111111111111111111110011011100
11111111111111111110110110100001
11111111111111111111111011010001
00000000000000000001011100101010
00000000000000000000111111011100
00000000000000000000010110000011
11111111111111111111101010001011
00000000000000000001010011011101
00000000000000000001111011110010
00000000000000000001011111100000
00000000000000000000100011001101
00000000000000000000100010011110
00000000000000000000111101100000
00000000000000000000011110010000
11111111111111111111100010000101
11111111111111111111100110101110
11111111111111111111101100110001
11111111111111111111010000100010
00000000000000000000111110010010
11111111111111111111100010000111
00000000000000000000010110111101
11111111111111111111001101110111
00000000000000000000110111010010
11111111111111111111101100101010
00000000000000000001001010011110
00000000000000000000011001110111
00000000000000000000111111110000
11111111111111111110101101101000
00000000000000000001000011111100
11111111111111111111000110011100
11111111111111111111011011011101
11111111111111111111001010101101
11111111111111111111010111001010
00000000000000000000000101000001
11111111111111111111010101000001
11111111111111111110110111001011
11111111111111111110110001111101
00000000000000000000001100000011
11111111111111111111100110010000
00000000000000000000001010100101
00000000000000000000000101000110
11111111111111111110110010010101
11111111111111111111101101111110
00000000000000000000011010010110
11111111111111111110010111010100
00000000000000000000001110011111
00000000000000000000101100001100
00000000000000000000000000000010
11111111111111111111011010111000
00000000000000000000001010000111
11111111111111111111010110001100
00000000000000000000000111010100
00000000000000000000011110010101
11111111111111111111001001110101
00000000000000000000101000110110
00000000000000000000110100011110
11111111111111111111011101110011
11111111111111111111000010100001
00000000000000000000101001010001
00000000000000000000111010000001
11111111111111111111110110100110
11111111111111111111101100110111
00000000000000000000100010001000
00000000000000000000010011101001
11111111111111111110110000100001
00000000000000000000001111111110
00000000000000000000110110000111
11111111111111111111011001010110
11111111111111111111000001001111
11111111111111111111111101010001
11111111111111111110110001110111
11111111111111111111000110010111
11111111111111111111010101111011
11111111111111111111100011111010
00000000000000000001000111110001
00000000000000000001000001000100
11111111111111111111110101000010
00000000000000000000000101010110
00000000000000000000001101010100
00000000000000000000011111100011
