11111111111111111110111110000100
11111111111111111111001101111111
00000000000000000000010010001100
00000000000000000000111100101111
11111111111111111111000011100011
00000000000000000000000001011000
11111111111111111110101111011010
00000000000000000000111101101111
00000000000000000000110101011111
11111111111111111110110111110001
00000000000000000000101011100101
00000000000000000000101111111101
00000000000000000001001011110100
11111111111111111111000101001010
00000000000000000000001100011100
11111111111111111111010100110000
11111111111111111111111111110101
11111111111111111111000010001010
00000000000000000000010101011111
11111111111111111111100100011111
11111111111111111111101011110001
11111111111111111111111010001000
11111111111111111111101111111010
00000000000000000001000110111111
00000000000000000000110011111101
11111111111111111111010011100111
11111111111111111111111001110111
11111111111111111110111001100000
11111111111111111110111101100111
00000000000000000000100111000100
00000000000000000000000000011001
11111111111111111111001101011001
00000000000000000000011011100000
00000000000000000000011110000010
11111111111111111111101000110101
11111111111111111111110010000011
00000000000000000000011110100110
11111111111111111111100111111001
00000000000000000000001010011111
00000000000000000000101100011111
00000000000000000000100000000110
00000000000000000000011010010111
00000000000000000000011101111101
00000000000000000000001110111011
00000000000000000000000111100111
11111111111111111111011100010111
11111111111111111111000110111010
00000000000000000000110001011100
11111111111111111111001111111110
11111111111111111111100101011001
00000000000000000000111100110011
00000000000000000000100101000001
00000000000000000000001011111111
00000000000000000001010110001101
00000000000000000000100000010110
00000000000000000000010011011010
00000000000000000001001101010111
00000000000000000000100000111111
11111111111111111110111001110110
00000000000000000001011000001110
11111111111111111111110011001110
11111111111111111111111111011101
11111111111111111111011011101011
00000000000000000000010111001010
00000000000000000000111111100110
00000000000000000001010010010001
00000000000000000000101101101000
00000000000000000000001100010001
11111111111111111111101011111110
00000000000000000000100100110110
00000000000000000000111001010110
00000000000000000000101101111000
00000000000000000000011111101000
11111111111111111111010110101101
11111111111111111111011111000101
11111111111111111111001110010001
11111111111111111110110010100001
00000000000000000000101001110000
00000000000000000000001001001100
11111111111111111110111101110100
00000000000000000000110101010110
00000000000000000000010110011001
11111111111111111111111110110111
00000000000000000000000010001000
00000000000000000000101111101011
00000000000000000001000010010001
11111111111111111111100110001000
11111111111111111111100011101101
00000000000000000000000101100010
11111111111111111111010100110011
11111111111111111111010101000000
11111111111111111110110110100000
00000000000000000000111101000001
11111111111111111111111001110100
11111111111111111111100111010000
11111111111111111111101110110001
00000000000000000001011110001110
00000000000000000001010111110101
00000000000000000000111110010000
00000000000000000001000110010111
00000000000000000001010110101001
00000000000000000000000111101001
11111111111111111111010010011101
11111111111111111111111100101111
00000000000000000000100001000111
11111111111111111111101010000110
11111111111111111111011001100001
11111111111111111111000001110011
00000000000000000000101101101111
00000000000000000001010100111001
00000000000000000001010001100110
00000000000000000001010001000110
11111111111111111110110001101100
11111111111111111111111111101010
00000000000000000000011110111100
11111111111111111110111111000001
11111111111111111110111110111001
00000000000000000001001010100010
00000000000000000000110011101000
00000000000000000001000111010101
00000000000000000000011111111110
00000000000000000000011001110011
00000000000000000000111011110100
00000000000000000001010111001111
00000000000000000000101111101110
00000000000000000000010111111011
00000000000000000000101011010100
00000000000000000000110111111010
00000000000000000000100100101101
11111111111111111111100011110100
00000000000000000000011010000001
00000000000000000000010000001101
00000000000000000000010101110110
11111111111111111111101101010011
11111111111111111111110111011111
11111111111111111111000000011011
11111111111111111111010101000110
00000000000000000000010011111101
11111111111111111111001000001001
11111111111111111111001011000101
11111111111111111111011100001111
11111111111111111111110001001100
11111111111111111111101011010001
00000000000000000000000111010111
00000000000000000000011100010101
00000000000000000000110111111010
00000000000000000001111010001110
00000000000000000010001000100010
11111111111111111111100001011100
11111111111111111111101010111100
11111111111111111111100011101100
11111111111111111111100100001011
11111111111111111110111000011010
00000000000000000000011000111011
11111111111111111111011110010010
00000000000000000000101101101100
11111111111111111111100101010010
11111111111111111111100110001111
11111111111111111111110101100010
00000000000000000000100011100111
00000000000000000000010010101001
11111111111111111111110111101110
00000000000000000000010110101010
11111111111111111111101100000100
11111111111111111110111010110110
11111111111111111111110100101101
11111111111111111111000101100101
11111111111111111111001110001000
11111111111111111110101001000010
11111111111111111110110100001010
11111111111111111111010100111010
11111111111111111111010001001110
00000000000000000001011011101000
00000000000000000001101001100011
00000000000000000000101001101011
11111111111111111111011011000110
00000000000000000000111011011111
00000000000000000000000010000110
00000000000000000000011100100111
00000000000000000000101100010111
00000000000000000000001101000000
11111111111111111111101110001011
11111111111111111111111110101101
11111111111111111111100010000001
00000000000000000000101001001111
11111111111111111111101100001111
00000000000000000000001101110101
11111111111111111111011010001001
11111111111111111111010001101100
00000000000000000000110101010111
11111111111111111111011010010100
00000000000000000000000001001101
11111111111111111111000000011010
00000000000000000000100001011101
00000000000000000000010000111101
11111111111111111111110001101001
11111111111111111111000101010011
11111111111111111111011001001110
11111111111111111111011100100110
11111111111111111111000011011011
00000000000000000001010111001011
00000000000000000000011011100100
11111111111111111111100110000010
00000000000000000000101000001010
11111111111111111110111111110001
00000000000000000000000111011000
00000000000000000000100011110100
11111111111111111111010001001010
11111111111111111111111010111100
00000000000000000000000111110010
00000000000000000000011111101000
11111111111111111110111100111101
00000000000000000000010100001000
00000000000000000000001010101011
11111111111111111111101111101000
00000000000000000000101111001000
00000000000000000001000111110110
11111111111111111111101111000100
00000000000000000000001010000011
11111111111111111111110000110110
11111111111111111101111001000011
11111111111111111111001001010010
00000000000000000000101010111000
00000000000000000000010011110010
00000000000000000000001000110101
11111111111111111111000111000001
00000000000000000000001100011011
00000000000000000000011111001111
00000000000000000001111100110110
00000000000000000000110111001100
11111111111111111111011000101110
00000000000000000000010100011001
11111111111111111111011010110111
11111111111111111111011100110010
11111111111111111111000111100111
11111111111111111111001101100000
00000000000000000000000001000100
00000000000000000000011001101100
11111111111111111111010110110001
00000000000000000001010110101111
11111111111111111111011101110100
00000000000000000001010101011111
00000000000000000000101010001111
11111111111111111111111111110010
11111111111111111111010110111010
00000000000000000000001101001001
11111111111111111111111100001010
11111111111111111101010111010111
11111111111111111110000000011011
00000000000000000000010011000001
00000000000000000000111010100001
00000000000000000000000110001001
11111111111111111111000011000001
11111111111111111111110000110110
00000000000000000001010100110100
00000000000000000000000110100000
00000000000000000000100110000100
00000000000000000000100010100110
00000000000000000001000100100110
00000000000000000000011111011001
00000000000000000000011101001111
11111111111111111110101100010101
11111111111111111111011100001110
11111111111111111110110101101100
11111111111111111110100111001100
11111111111111111111100001110010
11111111111111111111111101010101
00000000000000000001111001100010
00000000000000000001001101101111
11111111111111111111110000111110
00000000000000000000011010010110
11111111111111111111101100110010
00000000000000000000111010001001
11111111111111111111101000011111
11111111111111111110001010101110
11111111111111111110001010100001
11111111111111111101111101000000
11111111111111111111000011110010
00000000000000000000101110001101
11111111111111111111110110100001
11111111111111111111001100110001
00000000000000000001001101110010
00000000000000000000110011110000
11111111111111111111111001101110
00000000000000000000011001111101
11111111111111111111010101101100
11111111111111111110110011110011
11111111111111111111010000100100
11111111111111111111001111110010
11111111111111111110011111111100
11111111111111111110110000001100
11111111111111111101111100011110
11111111111111111110110000101110
11111111111111111111110000101001
00000000000000000000011001000010
00000000000000000001011000010110
00000000000000000000111011000110
00000000000000000000111000000000
11111111111111111111100011000111
11111111111111111111111100100111
11111111111111111111110000101110
11111111111111111110110011010001
11111111111111111111010111010111
11111111111111111101100110000011
11111111111111111111010001011001
11111111111111111111000110011000
00000000000000000000010101101101
00000000000000000000111000000001
00000000000000000001000110011100
00000000000000000000110001001110
11111111111111111111011101100001
00000000000000000000101100011101
11111111111111111111110000011010
11111111111111111110101011010011
11111111111111111110001010001001
11111111111111111110101110010111
11111111111111111100111101011000
11111111111111111101001111100000
11111111111111111101101011000100
00000000000000000000100001001110
11111111111111111111111101110010
00000000000000000000100010100001
00000000000000000000100100101110
00000000000000000000111011001101
00000000000000000000000001011110
00000000000000000000000111101000
11111111111111111110111110001110
11111111111111111111011001101101
00000000000000000000100110110101
11111111111111111111101101111111
11111111111111111111001001000100
11111111111111111111100001100000
00000000000000000000010010001001
11111111111111111111001110100100
00000000000000000001001011010111
11111111111111111110101101111110
00000000000000000000001010000101
00000000000000000001010110100110
00000000000000000000111111100111
00000000000000000001001100010001
00000000000000000000011010010100
11111111111111111111011111010011
11111111111111111111011100110110
11111111111111111110101011111111
11111111111111111111010101100101
00000000000000000000101000110000
00000000000000000001001000101110
11111111111111111111111010100111
00000000000000000000111001111100
00000000000000000000001000110101
00000000000000000010100011101000
00000000000000000001000010000001
00000000000000000000101101001001
00000000000000000000010101010010
00000000000000000000111000011010
11111111111111111111010010101010
11111111111111111101110101000101
11111111111111111101100010000011
11111111111111111111011001010101
11111111111111111110111100000111
11111111111111111110011110000011
00000000000000000000010101000011
11111111111111111111100010101001
11111111111111111110110000011100
00000000000000000001010000100000
00000000000000000000001101101101
11111111111111111111100100100100
00000000000000000001010011001010
11111111111111111111001010001101
00000000000000000000010100001101
11111111111111111111000011001001
00000000000000000000000100111000
11111111111111111111111010011011
00000000000000000000111000010111
00000000000000000000010011010110
11111111111111111111100111111000
00000000000000000000101100001000
00000000000000000001010010001001
00000000000000000010011010001000
00000000000000000000100111111101
00000000000000000000111010000001
00000000000000000000011000100011
00000000000000000000110110011000
11111111111111111111010110000101
11111111111111111111010100011111
11111111111111111111101111000000
11111111111111111101101111110010
11111111111111111110101110100111
00000000000000000000111100100101
11111111111111111110110000000110
11111111111111111110110111110010
00000000000000000001000100010101
11111111111111111111000000000011
00000000000000000000000100011010
11111111111111111110111000011100
00000000000000000000110001011111
00000000000000000001011100011100
11111111111111111111011111101011
11111111111111111110110111000100
11111111111111111110011011001110
00000000000000000000110101111111
00000000000000000000000000101000
00000000000000000000001011101011
11111111111111111110100001101110
00000000000000000000101001010011
00000000000000000000101011101110
00000000000000000010001111001101
00000000000000000000101000111000
00000000000000000000011011110101
00000000000000000000001011110011
11111111111111111111111010011011
11111111111111111111010010111010
00000000000000000000110000000001
00000000000000000001000010110101
11111111111111111111001001010001
11111111111111111110111110111111
00000000000000000000100010001100
11111111111111111111001011111010
11111111111111111110110010111001
11111111111111111111100100100010
00000000000000000000000101110100
11111111111111111111101111100100
11111111111111111111111111011000
11111111111111111111100011000011
00000000000000000000011001010000
00000000000000000001000010100100
00000000000000000000011110111010
00000000000000000000001001101010
00000000000000000000010010110100
11111111111111111111010111011000
00000000000000000000000111110000
11111111111111111111011100011111
00000000000000000001000100011000
00000000000000000000110100101000
00000000000000000010001101011000
00000000000000000000101100111010
00000000000000000001001011000110
11111111111111111111111001010110
00000000000000000000000000010111
00000000000000000001110011101000
00000000000000000000000101110101
00000000000000000000011000001011
00000000000000000000100111011100
00000000000000000000101011000101
11111111111111111111111110010011
11111111111111111111001111001110
00000000000000000000011111011000
11111111111111111111101100000110
11111111111111111110101000010010
00000000000000000000000100101000
11111111111111111110110100000100
00000000000000000000100101011001
00000000000000000000011011111000
11111111111111111111010010110100
11111111111111111111100111100001
11111111111111111110100000100011
11111111111111111111000110110110
11111111111111111111101000110100
11111111111111111111101001001100
00000000000000000000000101110011
11111111111111111111111101011000
00000000000000000010011011010101
00000000000000000001010010001100
11111111111111111111101001000110
11111111111111111110111101100100
11111111111111111111011101100011
00000000000000000000111100000111
00000000000000000000001010010001
00000000000000000000011011011101
00000000000000000001000011110010
00000000000000000000110101001101
11111111111111111111100111001110
11111111111111111111111101011010
11111111111111111110101100100100
00000000000000000000001001110101
00000000000000000000010110101010
11111111111111111110110010100100
11111111111111111110110110010001
00000000000000000000010011110110
00000000000000000000111110010101
00000000000000000000010100010101
11111111111111111111110110100001
00000000000000000000010011001110
11111111111111111111010001110000
11111111111111111101111100011011
11111111111111111110011101000010
11111111111111111101110111010110
11111111111111111100101110111010
11111111111111111110100111110001
11111111111111111111111000011100
00000000000000000000100101010010
00000000000000000000000001000011
11111111111111111111111100001010
00000000000000000000011110111100
11111111111111111111101111100100
00000000000000000001100110101010
00000000000000000000000010100011
00000000000000000000100010110010
00000000000000000001010101011110
00000000000000000000010011100001
11111111111111111111101111101010
11111111111111111110010110000011
00000000000000000001000111101011
11111111111111111110101100001011
00000000000000000000101111010001
00000000000000000000110001010010
11111111111111111111111011100000
00000000000000000001011100001110
00000000000000000001101001110111
00000000000000000000010111111000
11111111111111111110100101111001
11111111111111111111111000110000
11111111111111111111000000010111
11111111111111111101101010111001
11111111111111111101101011110111
11111111111111111101011011111111
11111111111111111101001010001000
11111111111111111111000111000011
00000000000000000000000001010111
11111111111111111111011111110000
11111111111111111111101100100011
00000000000000000000000111011010
00000000000000000000011001100100
00000000000000000000001110010000
00000000000000000000001010101011
00000000000000000001010001011001
00000000000000000000000101110110
11111111111111111111011010000010
11111111111111111111111010010111
11111111111111111111010010001000
11111111111111111111000000111000
00000000000000000001001110101111
11111111111111111111100011110101
00000000000000000001000001000000
00000000000000000000001100100010
00000000000000000010000100001100
11111111111111111111101001011111
00000000000000000000000100000111
00000000000000000000000001110111
11111111111111111111101110101001
11111111111111111111100010110111
11111111111111111111101101011100
11111111111111111111010001010011
11111111111111111110110011100101
11111111111111111110110011001101
11111111111111111111000111001101
11111111111111111111100010001001
00000000000000000000010111011111
00000000000000000001110011000101
00000000000000000000100101110111
00000000000000000000010010110010
11111111111111111111111001111010
00000000000000000000011111100101
00000000000000000001010011100101
11111111111111111111100101110001
00000000000000000000110001111101
11111111111111111111011010010001
11111111111111111111110110000010
00000000000000000001011010100000
11111111111111111110101011000011
11111111111111111110110101110001
00000000000000000000010111001101
00000000000000000000011001110100
00000000000000000000001110000101
00000000000000000000000001111100
00000000000000000000000111011111
11111111111111111111110110011100
00000000000000000000100000011001
00000000000000000000011111101000
00000000000000000000100010100011
11111111111111111111111101011000
11111111111111111111100101100010
11111111111111111110111110110010
11111111111111111111111100101010
11111111111111111111101100010010
11111111111111111111111111110101
00000000000000000000101101010011
00000000000000000000110100100111
00000000000000000001011001001001
00000000000000000000010101000101
00000000000000000000110000111011
11111111111111111111001101000110
11111111111111111111001111010011
11111111111111111110011000100010
11111111111111111110110111011110
00000000000000000000010001010101
11111111111111111111100101101111
11111111111111111111110010011011
11111111111111111111111011111110
00000000000000000000101000111110
11111111111111111111110111111101
00000000000000000001110111000100
11111111111111111111101111111010
00000000000000000000011101111111
00000000000000000000011011010101
00000000000000000000101011001101
00000000000000000000000010010111
11111111111111111111001101011001
00000000000000000000111110111010
11111111111111111111111111110000
11111111111111111111011100000000
11111111111111111111011011100111
00000000000000000000000110111010
00000000000000000000010100110111
00000000000000000000011010101001
00000000000000000000000001001011
00000000000000000000100111011010
11111111111111111111111001000001
00000000000000000000101101100110
00000000000000000000101111101111
11111111111111111110110010100000
11111111111111111111111111100110
11111111111111111110101101111001
00000000000000000001001111110110
11111111111111111110101110101101
11111111111111111111110011000100
11111111111111111111010000110110
00000000000000000000100100110010
11111111111111111111011010110001
11111111111111111111100110101001
00000000000000000001101010010111
00000000000000000010000100011100
00000000000000000001000001111110
11111111111111111111011101010011
00000000000000000000100110111011
00000000000000000000010101101111
11111111111111111110111111110010
11111111111111111111111110100100
11111111111111111111000001101110
11111111111111111110111100111100
11111111111111111111011100010011
00000000000000000000010010011011
11111111111111111111110101000001
11111111111111111111111001010010
00000000000000000001011111000110
11111111111111111111011101000101
00000000000000000000010010010011
11111111111111111111001010111010
11111111111111111111001101011000
11111111111111111111001101100001
11111111111111111111100101011011
11111111111111111110110011111100
00000000000000000000100001011110
11111111111111111110101010111100
11111111111111111111101001001111
11111111111111111111110100000001
00000000000000000000001000011000
11111111111111111111000100110000
00000000000000000001010110101111
00000000000000000000101000110111
00000000000000000001111010010100
00000000000000000001000001011110
11111111111111111111111111000011
00000000000000000000010001000001
00000000000000000000101010110001
11111111111111111111100011010111
00000000000000000000000011100001
00000000000000000000001001000111
11111111111111111111010010011001
00000000000000000000000100001100
11111111111111111111111010011011
00000000000000000000100101100100
00000000000000000000111100100110
00000000000000000000101101100100
11111111111111111111011000111110
11111111111111111111011101011001
11111111111111111110010100000110
11111111111111111111010010000011
00000000000000000000010000000101
00000000000000000000001111000111
00000000000000000001010110100101
00000000000000000000100100110111
11111111111111111110101001011111
00000000000000000000101000001010
00000000000000000001000011101110
00000000000000000000101010010100
00000000000000000000111000111011
00000000000000000001100000100000
00000000000000000001010100100001
00000000000000000001011001111000
00000000000000000000000011000010
00000000000000000000110100001111
00000000000000000000011001011001
00000000000000000000010010010110
11111111111111111111110001110001
00000000000000000000001101001011
00000000000000000000000100110010
11111111111111111111100110101010
11111111111111111110111110110000
11111111111111111111100100111101
11111111111111111111010000010101
11111111111111111111100101111011
11111111111111111111100010111000
11111111111111111111101100111110
11111111111111111111001001000011
00000000000000000000000010011000
00000000000000000000100111001000
11111111111111111111101100001111
11111111111111111111010000111000
00000000000000000001010101010010
11111111111111111110110000111001
00000000000000000001000000110001
00000000000000000001001011011011
00000000000000000000000100110010
11111111111111111111100110110100
11111111111111111111010111000001
00000000000000000001110011010001
00000000000000000000111100000101
00000000000000000001110100101101
00000000000000000001010101100000
00000000000000000000110100010100
11111111111111111111100101100010
00000000000000000000101110110101
11111111111111111111110010110001
00000000000000000000001011011111
11111111111111111111110011011111
11111111111111111110000011011010
11111111111111111111111111100110
11111111111111111111111010000100
11111111111111111110101001110000
00000000000000000000101111110010
11111111111111111111110110001110
00000000000000000001001101110010
11111111111111111111011110111001
11111111111111111111011110010100
00000000000000000000101000011111
11111111111111111110110001010011
11111111111111111111100001000100
11111111111111111111001110111010
11111111111111111110110101010011
00000000000000000000001001100101
11111111111111111111000100010000
11111111111111111111000111101000
00000000000000000000000001010011
00000000000000000001001000011000
00000000000000000001001010000000
11111111111111111111011111010001
00000000000000000000110111011101
11111111111111111110101111011100
11111111111111111110110011100100
11111111111111111111101101110100
11111111111111111111110100100100
00000000000000000000010111111010
00000000000000000000000010001110
00000000000000000000101001110101
00000000000000000000111101101010
00000000000000000000000100011011
00000000000000000000000011100100
11111111111111111110110001011111
00000000000000000000110111100011
11111111111111111111110010111100
11111111111111111110110101110110
00000000000000000001010111011000
00000000000000000000100001101010
00000000000000000001011000111101
00000000000000000001010011110001
11111111111111111111000100000001
00000000000000000000111011001110
00000000000000000000101001001001
00000000000000000001010110001111
00000000000000000001010111110100
11111111111111111111111100010111
00000000000000000000010101111000
11111111111111111111110010000100
11111111111111111111101111010001
11111111111111111111110011010110
11111111111111111111101100101000
00000000000000000001001000101011
11111111111111111110111111101110
11111111111111111110111011100011
11111111111111111111001100010100
11111111111111111111111110010111
00000000000000000000110110111110
11111111111111111111000001101011
11111111111111111111000001100110
11111111111111111111111110111011
00000000000000000000000110011110
11111111111111111111010011001010
11111111111111111111010001111011
00000000000000000000011010010000
11111111111111111111011101111011
11111111111111111111001010110101
00000000000000000000000101000100
00000000000000000000101101110000
