DEPTH = 784;
WIDTH = 32;
ADDRESS_RADIX = HEX;
DATA_RADIX = BIN;
CONTENT
BEGIN
0000 : 11111111111111111110111100100100;  % 0xffffef24  -0.06585768610239029 %
0001 : 11111111111111111111111000111100;  % 0xfffffe3c  -0.006897926330566406 %
0002 : 11111111111111111110110101010101;  % 0xffffed55  -0.07292141765356064 %
0003 : 11111111111111111111000010100000;  % 0xfffff0a0  -0.060058437287807465 %
0004 : 00000000000000000000010101010110;  % 0x00000556  0.020837441086769104 %
0005 : 11111111111111111110111110011110;  % 0xffffef9e  -0.06399663537740707 %
0006 : 11111111111111111111001000110100;  % 0xfffff234  -0.05390077829360962 %
0007 : 11111111111111111111010100010111;  % 0xfffff517  -0.04262520372867584 %
0008 : 11111111111111111110110011000101;  % 0xffffecc5  -0.07511938363313675 %
0009 : 00000000000000000000000011000001;  % 0x000000c1  0.0029428601264953613 %
000a : 00000000000000000001001010010111;  % 0x00001297  0.07261142879724503 %
000b : 11111111111111111111010000000001;  % 0xfffff401  -0.04686249420046806 %
000c : 00000000000000000001010100001001;  % 0x00001509  0.08216838538646698 %
000d : 00000000000000000001011000101101;  % 0x0000162d  0.08663135766983032 %
000e : 00000000000000000000011001000000;  % 0x00000640  0.02442038059234619 %
000f : 00000000000000000001010110111101;  % 0x000015bd  0.08491253107786179 %
0010 : 11111111111111111111110010000110;  % 0xfffffc86  -0.013582825660705566 %
0011 : 00000000000000000000101111010100;  % 0x00000bd4  0.04620615392923355 %
0012 : 11111111111111111111101100100101;  % 0xfffffb25  -0.018963083624839783 %
0013 : 11111111111111111111010000010110;  % 0xfffff416  -0.04653725028038025 %
0014 : 11111111111111111111011001001011;  % 0xfffff64b  -0.0379130095243454 %
0015 : 00000000000000000001010110011101;  % 0x0000159d  0.08442070335149765 %
0016 : 11111111111111111111001000101110;  % 0xfffff22e  -0.05399159714579582 %
0017 : 11111111111111111111000001110100;  % 0xfffff074  -0.060733236372470856 %
0018 : 00000000000000000000110011100010;  % 0x00000ce2  0.05031953006982803 %
0019 : 00000000000000000000000101100100;  % 0x00000164  0.005425654351711273 %
001a : 00000000000000000000011111011101;  % 0x000007dd  0.030720174312591553 %
001b : 00000000000000000001001100110001;  % 0x00001331  0.07495994120836258 %
001c : 00000000000000000000100100001011;  % 0x0000090b  0.03532613068819046 %
001d : 11111111111111111111100001111100;  % 0xfffff87c  -0.029363855719566345 %
001e : 11111111111111111111000000101011;  % 0xfffff02b  -0.06184903532266617 %
001f : 11111111111111111111100110011111;  % 0xfffff99f  -0.024921320378780365 %
0020 : 00000000000000000001000111011001;  % 0x000011d9  0.06972204148769379 %
0021 : 00000000000000000000000100101110;  % 0x0000012e  0.004615575075149536 %
0022 : 11111111111111111111000001110011;  % 0xfffff073  -0.06075073778629303 %
0023 : 11111111111111111111011110001001;  % 0xfffff789  -0.033071838319301605 %
0024 : 11111111111111111111111110101001;  % 0xffffffa9  -0.0013240178814157844 %
0025 : 00000000000000000001000001001111;  % 0x0000104f  0.063701331615448 %
0026 : 00000000000000000000101000010101;  % 0x00000a15  0.03938579186797142 %
0027 : 00000000000000000000111110010101;  % 0x00000f95  0.06087018921971321 %
0028 : 00000000000000000001000100101011;  % 0x0000112b  0.06705927103757858 %
0029 : 00000000000000000000111010010010;  % 0x00000e92  0.056910548359155655 %
002a : 00000000000000000000101010000001;  % 0x00000a81  0.04102673381567001 %
002b : 00000000000000000000111100111110;  % 0x00000f3e  0.059539418667554855 %
002c : 00000000000000000000111101000101;  % 0x00000f45  0.05963975563645363 %
002d : 00000000000000000000011101100001;  % 0x00000761  0.028826171532273293 %
002e : 11111111111111111110111110101001;  % 0xffffefa9  -0.06382866948843002 %
002f : 11111111111111111111011001011110;  % 0xfffff65e  -0.03762790560722351 %
0030 : 00000000000000000000001101001000;  % 0x00000348  0.01281005423516035 %
0031 : 00000000000000000000010111111101;  % 0x000005fd  0.02339433878660202 %
0032 : 00000000000000000000111000100110;  % 0x00000e26  0.05527029186487198 %
0033 : 00000000000000000001010000110001;  % 0x00001431  0.0788668617606163 %
0034 : 00000000000000000000111111101010;  % 0x00000fea  0.0621584877371788 %
0035 : 00000000000000000001010011100010;  % 0x000014e2  0.08157920092344284 %
0036 : 11111111111111111111111100011010;  % 0xffffff1a  -0.003506094217300415 %
0037 : 00000000000000000000000010001101;  % 0x0000008d  0.00215902179479599 %
0038 : 11111111111111111110110101111011;  % 0xffffed7b  -0.07234630733728409 %
0039 : 00000000000000000000011000011110;  % 0x0000061e  0.023889832198619843 %
003a : 00000000000000000000111111100010;  % 0x00000fe2  0.06203829497098923 %
003b : 00000000000000000000110100010010;  % 0x00000d12  0.051058750599622726 %
003c : 11111111111111111111000110011011;  % 0xfffff19b  -0.05622204393148422 %
003d : 00000000000000000000010110110100;  % 0x000005b4  0.022275658324360847 %
003e : 00000000000000000000101110001011;  % 0x00000b8b  0.04508480057120323 %
003f : 11111111111111111111010100010001;  % 0xfffff511  -0.04270473122596741 %
0040 : 11111111111111111111110100110010;  % 0xfffffd32  -0.010948624461889267 %
0041 : 11111111111111111110111001110000;  % 0xffffee70  -0.06860817968845367 %
0042 : 11111111111111111110101000001000;  % 0xffffea08  -0.08582179993391037 %
0043 : 11111111111111111110101000110111;  % 0xffffea37  -0.08510257303714752 %
0044 : 00000000000000000000011000101001;  % 0x00000629  0.024063995108008385 %
0045 : 11111111111111111111111010101011;  % 0xfffffeab  -0.00519880885258317 %
0046 : 11111111111111111111111011010000;  % 0xfffffed0  -0.004632950760424137 %
0047 : 11111111111111111111110101010011;  % 0xfffffd53  -0.010446806438267231 %
0048 : 11111111111111111111010110010000;  % 0xfffff590  -0.04076753184199333 %
0049 : 11111111111111111111100110011001;  % 0xfffff999  -0.025007039308547974 %
004a : 00000000000000000000011101110000;  % 0x00000770  0.029048850759863853 %
004b : 00000000000000000000001100010010;  % 0x00000312  0.011987099424004555 %
004c : 11111111111111111111101000110010;  % 0xfffffa32  -0.022673526778817177 %
004d : 00000000000000000000110111010010;  % 0x00000dd2  0.05397964268922806 %
004e : 11111111111111111110110111010011;  % 0xffffedd3  -0.0709923654794693 %
004f : 00000000000000000000100001100111;  % 0x00000867  0.0328197181224823 %
0050 : 11111111111111111111000000000111;  % 0xfffff007  -0.062395695596933365 %
0051 : 11111111111111111111011000110001;  % 0xfffff631  -0.03831472992897034 %
0052 : 11111111111111111110110110111111;  % 0xffffedbf  -0.0712975338101387 %
0053 : 11111111111111111110110100001100;  % 0xffffed0c  -0.0740341916680336 %
0054 : 11111111111111111111001011100010;  % 0xfffff2e2  -0.05123748630285263 %
0055 : 11111111111111111111000111101000;  % 0xfffff1e8  -0.05505894124507904 %
0056 : 00000000000000000000000011101101;  % 0x000000ed  0.003620843170210719 %
0057 : 00000000000000000001010101011011;  % 0x0000155b  0.08342204242944717 %
0058 : 11111111111111111111001001100101;  % 0xfffff265  -0.05313907936215401 %
0059 : 00000000000000000000000111111001;  % 0x000001f9  0.007711019366979599 %
005a : 11111111111111111111101010111001;  % 0xfffffab9  -0.020620767027139664 %
005b : 11111111111111111110100110101100;  % 0xffffe9ac  -0.08721998333930969 %
005c : 00000000000000000000110111010101;  % 0x00000dd5  0.054035816341638565 %
005d : 11111111111111111111010110011011;  % 0xfffff59b  -0.04060281440615654 %
005e : 11111111111111111111100101111111;  % 0xfffff97f  -0.025401953607797623 %
005f : 11111111111111111111000100000111;  % 0xfffff107  -0.05849221721291542 %
0060 : 00000000000000000000000101011011;  % 0x0000015b  0.00529205147176981 %
0061 : 00000000000000000000101100011111;  % 0x00000b1f  0.04344439506530762 %
0062 : 00000000000000000000010001001000;  % 0x00000448  0.016720863059163094 %
0063 : 00000000000000000000111011100101;  % 0x00000ee5  0.05818842723965645 %
0064 : 00000000000000000000001011111010;  % 0x000002fa  0.011624271050095558 %
0065 : 11111111111111111111000010100101;  % 0xfffff0a5  -0.05998474359512329 %
0066 : 00000000000000000000010010111111;  % 0x000004bf  0.01853887178003788 %
0067 : 11111111111111111111110010111111;  % 0xfffffcbf  -0.012708030641078949 %
0068 : 00000000000000000000011100100110;  % 0x00000726  0.027917899191379547 %
0069 : 00000000000000000000101000111000;  % 0x00000a38  0.03991619125008583 %
006a : 00000000000000000000111110110100;  % 0x00000fb4  0.06134563684463501 %
006b : 11111111111111111111101100111000;  % 0xfffffb38  -0.018670091405510902 %
006c : 00000000000000000001001101111111;  % 0x0000137f  0.0761570855975151 %
006d : 11111111111111111111101010010100;  % 0xfffffa94  -0.021178752183914185 %
006e : 11111111111111111110101110110010;  % 0xffffebb2  -0.07931829243898392 %
006f : 00000000000000000000011100101101;  % 0x0000072d  0.028032071888446808 %
0070 : 00000000000000000000100111000011;  % 0x000009c3  0.03813549131155014 %
0071 : 11111111111111111111010100101101;  % 0xfffff52d  -0.04228619113564491 %
0072 : 00000000000000000000110100000110;  % 0x00000d06  0.05087185278534889 %
0073 : 11111111111111111111001010011010;  % 0xfffff29a  -0.052337635308504105 %
0074 : 11111111111111111111111100000111;  % 0xffffff07  -0.003800763515755534 %
0075 : 11111111111111111111000111001111;  % 0xfffff1cf  -0.055438559502363205 %
0076 : 11111111111111111111100010010001;  % 0xfffff891  -0.029035983607172966 %
0077 : 00000000000000000000001101110010;  % 0x00000372  0.013463901355862617 %
0078 : 11111111111111111111101001001100;  % 0xfffffa4c  -0.022274762392044067 %
0079 : 00000000000000000000010100110100;  % 0x00000534  0.020320676267147064 %
007a : 00000000000000000000110010100000;  % 0x00000ca0  0.049320463091135025 %
007b : 00000000000000000000000001111100;  % 0x0000007c  0.001897194655612111 %
007c : 11111111111111111111101011011100;  % 0xfffffadc  -0.020079253241419792 %
007d : 11111111111111111111100100011111;  % 0xfffff91f  -0.02687171846628189 %
007e : 11111111111111111111011101100010;  % 0xfffff762  -0.03366599231958389 %
007f : 00000000000000000000100100100010;  % 0x00000922  0.035679642111063004 %
0080 : 11111111111111111111110011110011;  % 0xfffffcf3  -0.011910947039723396 %
0081 : 00000000000000000000100101100001;  % 0x00000961  0.0366390198469162 %
0082 : 11111111111111111111011000111100;  % 0xfffff63c  -0.03814280405640602 %
0083 : 11111111111111111111100101001010;  % 0xfffff94a  -0.026209088042378426 %
0084 : 00000000000000000000001011001010;  % 0x000002ca  0.010891870595514774 %
0085 : 11111111111111111111111001100111;  % 0xfffffe67  -0.006235262379050255 %
0086 : 11111111111111111111010011001100;  % 0xfffff4cc  -0.04375484958291054 %
0087 : 00000000000000000000101101000101;  % 0x00000b45  0.0440208837389946 %
0088 : 11111111111111111110101100110110;  % 0xffffeb36  -0.08120172470808029 %
0089 : 11111111111111111111101111100101;  % 0xfffffbe5  -0.016044188290834427 %
008a : 00000000000000000000101010001110;  % 0x00000a8e  0.04122753441333771 %
008b : 11111111111111111111110001010101;  % 0xfffffc55  -0.014329093508422375 %
008c : 11111111111111111111111010101110;  % 0xfffffeae  -0.00515226274728775 %
008d : 00000000000000000001000111101010;  % 0x000011ea  0.0699748769402504 %
008e : 00000000000000000000010100010011;  % 0x00000513  0.019824722781777382 %
008f : 00000000000000000001000101010001;  % 0x00001151  0.06763745844364166 %
0090 : 11111111111111111111000100110001;  % 0xfffff131  -0.05784669890999794 %
0091 : 00000000000000000000000110100110;  % 0x000001a6  0.006444517057389021 %
0092 : 11111111111111111110110000010101;  % 0xffffec15  -0.07780390977859497 %
0093 : 00000000000000000000010011111011;  % 0x000004fb  0.019460586830973625 %
0094 : 11111111111111111111000010101011;  % 0xfffff0ab  -0.05988755077123642 %
0095 : 11111111111111111111100100010110;  % 0xfffff916  -0.027002783492207527 %
0096 : 11111111111111111111101001010001;  % 0xfffffa51  -0.022196579724550247 %
0097 : 11111111111111111111110010111111;  % 0xfffffcbf  -0.01270708255469799 %
0098 : 11111111111111111111001111100001;  % 0xfffff3e1  -0.04734064266085625 %
0099 : 11111111111111111111101110100111;  % 0xfffffba7  -0.01698201149702072 %
009a : 00000000000000000000011111001001;  % 0x000007c9  0.030412008985877037 %
009b : 00000000000000000000000111100100;  % 0x000001e4  0.007392788305878639 %
009c : 00000000000000000000000100000010;  % 0x00000102  0.003942666109651327 %
009d : 00000000000000000001011101110111;  % 0x00001777  0.09166257083415985 %
009e : 00000000000000000000110010000101;  % 0x00000c85  0.04890349134802818 %
009f : 00000000000000000001000011011110;  % 0x000010de  0.06588535010814667 %
00a0 : 11111111111111111111000111111001;  % 0xfffff1f9  -0.05479300767183304 %
00a1 : 00000000000000000000100111000101;  % 0x000009c5  0.03815579041838646 %
00a2 : 11111111111111111111011100111101;  % 0xfffff73d  -0.03422053903341293 %
00a3 : 00000000000000000001000000100111;  % 0x00001027  0.06309089809656143 %
00a4 : 00000000000000000000011101001011;  % 0x0000074b  0.028482133522629738 %
00a5 : 11111111111111111111010101100110;  % 0xfffff566  -0.04141375422477722 %
00a6 : 00000000000000000000101010101011;  % 0x00000aab  0.041669510304927826 %
00a7 : 11111111111111111110111011110110;  % 0xffffeef6  -0.06656228750944138 %
00a8 : 00000000000000000000010010001010;  % 0x0000048a  0.017738021910190582 %
00a9 : 00000000000000000000111101000110;  % 0x00000f46  0.059665028005838394 %
00aa : 00000000000000000000000010010101;  % 0x00000095  0.0022808429785072803 %
00ab : 11111111111111111111010100010001;  % 0xfffff511  -0.04271053895354271 %
00ac : 00000000000000000000000011010010;  % 0x000000d2  0.0032002772204577923 %
00ad : 00000000000000000000110100000010;  % 0x00000d02  0.050811026245355606 %
00ae : 00000000000000000000100011100001;  % 0x000008e1  0.03467622771859169 %
00af : 11111111111111111111100111000010;  % 0xfffff9c2  -0.024385172873735428 %
00b0 : 00000000000000000000110000011100;  % 0x00000c1c  0.047299060970544815 %
00b1 : 00000000000000000000011001101101;  % 0x0000066d  0.025102362036705017 %
00b2 : 11111111111111111111000000000000;  % 0xfffff000  -0.06250131130218506 %
00b3 : 00000000000000000000101111000101;  % 0x00000bc5  0.04597387835383415 %
00b4 : 11111111111111111110010110000100;  % 0xffffe584  -0.10345308482646942 %
00b5 : 00000000000000000000000101100011;  % 0x00000163  0.005418728105723858 %
00b6 : 11111111111111111111011000111111;  % 0xfffff63f  -0.0381014421582222 %
00b7 : 11111111111111111111101111111000;  % 0xfffffbf8  -0.01574615389108658 %
00b8 : 00000000000000000000001010110110;  % 0x000002b6  0.010595775209367275 %
00b9 : 00000000000000000000110001101000;  % 0x00000c68  0.04846880957484245 %
00ba : 11111111111111111111111110011101;  % 0xffffff9d  -0.0015052128583192825 %
00bb : 11111111111111111111101110011101;  % 0xfffffb9d  -0.017142705619335175 %
00bc : 00000000000000000000001110100001;  % 0x000003a1  0.014174014329910278 %
00bd : 00000000000000000000001100101101;  % 0x0000032d  0.012401515617966652 %
00be : 00000000000000000001111001000101;  % 0x00001e45  0.11824370920658112 %
00bf : 00000000000000000000011111111100;  % 0x000007fc  0.031192976981401443 %
00c0 : 11111111111111111111011011000010;  % 0xfffff6c2  -0.03610239177942276 %
00c1 : 00000000000000000000011101111010;  % 0x0000077a  0.029205631464719772 %
00c2 : 00000000000000000000111110011101;  % 0x00000f9d  0.06099477410316467 %
00c3 : 00000000000000000000111000110100;  % 0x00000e34  0.0554790236055851 %
00c4 : 00000000000000000000110000001111;  % 0x00000c0f  0.04710480943322182 %
00c5 : 11111111111111111111010001000010;  % 0xfffff442  -0.0458613745868206 %
00c6 : 00000000000000000000111011100001;  % 0x00000ee1  0.058121927082538605 %
00c7 : 00000000000000000000010100010000;  % 0x00000510  0.019782667979598045 %
00c8 : 11111111111111111110111111010000;  % 0xffffefd0  -0.06323891133069992 %
00c9 : 00000000000000000001010001000110;  % 0x00001446  0.079196996986866 %
00ca : 00000000000000000001010000000011;  % 0x00001403  0.0781768262386322 %
00cb : 11111111111111111111010011111110;  % 0xfffff4fe  -0.04299318417906761 %
00cc : 11111111111111111110101000011010;  % 0xffffea1a  -0.08553493767976761 %
00cd : 00000000000000000000000110111110;  % 0x000001be  0.0068121193908154964 %
00ce : 00000000000000000000110101010100;  % 0x00000d54  0.05206405371427536 %
00cf : 11111111111111111111111000011000;  % 0xfffffe18  -0.007439533248543739 %
00d0 : 11111111111111111111000100101111;  % 0xfffff12f  -0.057877518236637115 %
00d1 : 11111111111111111111111011100001;  % 0xfffffee1  -0.004386769607663155 %
00d2 : 11111111111111111111011010111001;  % 0xfffff6b9  -0.03623742610216141 %
00d3 : 11111111111111111110010101111000;  % 0xffffe578  -0.10364081710577011 %
00d4 : 00000000000000000000001111100111;  % 0x000003e7  0.015244795940816402 %
00d5 : 00000000000000000000100011111010;  % 0x000008fa  0.03506043180823326 %
00d6 : 00000000000000000000110001000110;  % 0x00000c46  0.04793839156627655 %
00d7 : 11111111111111111111111110001110;  % 0xffffff8e  -0.0017412335146218538 %
00d8 : 11111111111111111111100010100100;  % 0xfffff8a4  -0.028743548318743706 %
00d9 : 00000000000000000000011110001001;  % 0x00000789  0.029432399198412895 %
00da : 00000000000000000001000110101000;  % 0x000011a8  0.06897079944610596 %
00db : 00000000000000000000111110110000;  % 0x00000fb0  0.06128523126244545 %
00dc : 00000000000000000001001000001111;  % 0x0000120f  0.07054593414068222 %
00dd : 11111111111111111111010111101010;  % 0xfffff5ea  -0.03939347341656685 %
00de : 11111111111111111111000000111011;  % 0xfffff03b  -0.061594732105731964 %
00df : 11111111111111111111000101001111;  % 0xfffff14f  -0.0573832243680954 %
00e0 : 11111111111111111111001001110010;  % 0xfffff272  -0.05294666066765785 %
00e1 : 00000000000000000000010011101111;  % 0x000004ef  0.019270114600658417 %
00e2 : 00000000000000000000000000100100;  % 0x00000024  0.0005502310814335942 %
00e3 : 00000000000000000001100010010110;  % 0x00001896  0.09603819996118546 %
00e4 : 11111111111111111111101100101101;  % 0xfffffb2d  -0.01885051652789116 %
00e5 : 11111111111111111111110101000001;  % 0xfffffd41  -0.010730091482400894 %
00e6 : 00000000000000000000100110001010;  % 0x0000098a  0.037259381264448166 %
00e7 : 00000000000000000000000011011000;  % 0x000000d8  0.0032907375134527683 %
00e8 : 00000000000000000000011111101000;  % 0x000007e8  0.030889621004462242 %
00e9 : 00000000000000000000111001111011;  % 0x00000e7b  0.05655772238969803 %
00ea : 00000000000000000000000111000100;  % 0x000001c4  0.006892820354551077 %
00eb : 11111111111111111111011010011011;  % 0xfffff69b  -0.036700423806905746 %
00ec : 00000000000000000000110101000111;  % 0x00000d47  0.05186310410499573 %
00ed : 11111111111111111111000001001100;  % 0xfffff04c  -0.06133725494146347 %
00ee : 00000000000000000000000000110001;  % 0x00000031  0.0007542343228124082 %
00ef : 00000000000000000000010001011001;  % 0x00000459  0.01698162965476513 %
00f0 : 00000000000000000001010101100000;  % 0x00001560  0.08349443227052689 %
00f1 : 00000000000000000000111001100110;  % 0x00000e66  0.05624745413661003 %
00f2 : 00000000000000000000011111110101;  % 0x000007f5  0.03108077682554722 %
00f3 : 00000000000000000000110000001000;  % 0x00000c08  0.0469900518655777 %
00f4 : 00000000000000000000110011000010;  % 0x00000cc2  0.04983140155673027 %
00f5 : 11111111111111111111011110010011;  % 0xfffff793  -0.03291258588433266 %
00f6 : 11111111111111111111111011100000;  % 0xfffffee0  -0.004391587805002928 %
00f7 : 00000000000000000000101000100011;  % 0x00000a23  0.039592206478118896 %
00f8 : 11111111111111111111011110011110;  % 0xfffff79e  -0.03274521231651306 %
00f9 : 00000000000000000000101111011010;  % 0x00000bda  0.046294599771499634 %
00fa : 11111111111111111111111110011101;  % 0xffffff9d  -0.0015084620099514723 %
00fb : 00000000000000000001000110000001;  % 0x00001181  0.06837247312068939 %
00fc : 00000000000000000000110101000000;  % 0x00000d40  0.05176082253456116 %
00fd : 11111111111111111111100011111110;  % 0xfffff8fe  -0.027367228642106056 %
00fe : 11111111111111111111000011111101;  % 0xfffff0fd  -0.05863285809755325 %
00ff : 00000000000000000001010001000100;  % 0x00001444  0.07916399836540222 %
0100 : 00000000000000000000001101100101;  % 0x00000365  0.013256731443107128 %
0101 : 00000000000000000000111100110000;  % 0x00000f30  0.05932842567563057 %
0102 : 11111111111111111111010001101011;  % 0xfffff46b  -0.04524374380707741 %
0103 : 11111111111111111111101101101110;  % 0xfffffb6e  -0.017847785726189613 %
0104 : 11111111111111111111000110011110;  % 0xfffff19e  -0.0561881884932518 %
0105 : 11111111111111111110110000100100;  % 0xffffec24  -0.07757187634706497 %
0106 : 00000000000000000001000011101110;  % 0x000010ee  0.06613387167453766 %
0107 : 11111111111111111110011010010011;  % 0xffffe693  -0.09931616485118866 %
0108 : 00000000000000000000001110011011;  % 0x0000039b  0.014086483977735043 %
0109 : 00000000000000000000010000011010;  % 0x0000041a  0.016021160408854485 %
010a : 11111111111111111110010001011011;  % 0xffffe45b  -0.10798076540231705 %
010b : 11111111111111111111000100100011;  % 0xfffff123  -0.05806288495659828 %
010c : 00000000000000000001010110010100;  % 0x00001594  0.08428686857223511 %
010d : 00000000000000000000011110110110;  % 0x000007b6  0.03011372871696949 %
010e : 00000000000000000000111100100001;  % 0x00000f21  0.05909760296344757 %
010f : 00000000000000000000011011100010;  % 0x000006e2  0.026890208944678307 %
0110 : 00000000000000000000001111110000;  % 0x000003f0  0.015373514965176582 %
0111 : 00000000000000000000010010011100;  % 0x0000049c  0.01801268197596073 %
0112 : 11111111111111111111000001010100;  % 0xfffff054  -0.06122206151485443 %
0113 : 00000000000000000000111000100000;  % 0x00000e20  0.0551711730659008 %
0114 : 11111111111111111111111101110001;  % 0xffffff71  -0.0021815847139805555 %
0115 : 11111111111111111110000100010001;  % 0xffffe111  -0.12083952128887177 %
0116 : 11111111111111111110111100010000;  % 0xffffef10  -0.06615537405014038 %
0117 : 11111111111111111111111110111101;  % 0xffffffbd  -0.0010172876063734293 %
0118 : 11111111111111111111100000000001;  % 0xfffff801  -0.031229373067617416 %
0119 : 11111111111111111111000110010011;  % 0xfffff193  -0.0563448928296566 %
011a : 11111111111111111111100101110100;  % 0xfffff974  -0.025575177744030952 %
011b : 11111111111111111110111010010101;  % 0xffffee95  -0.06803867965936661 %
011c : 11111111111111111111100100101101;  % 0xfffff92d  -0.026650505140423775 %
011d : 00000000000000000000010111010010;  % 0x000005d2  0.02273617498576641 %
011e : 11111111111111111111000011100101;  % 0xfffff0e5  -0.05901312828063965 %
011f : 11111111111111111111000101000110;  % 0xfffff146  -0.05752630531787872 %
0120 : 11111111111111111111011001000100;  % 0xfffff644  -0.03802868723869324 %
0121 : 11111111111111111111111011110100;  % 0xfffffef4  -0.00409205537289381 %
0122 : 11111111111111111111001010100110;  % 0xfffff2a6  -0.05214868485927582 %
0123 : 11111111111111111111110010011111;  % 0xfffffc9f  -0.013195290230214596 %
0124 : 11111111111111111111101100110011;  % 0xfffffb33  -0.018753446638584137 %
0125 : 00000000000000000000001010010110;  % 0x00000296  0.010098005644977093 %
0126 : 11111111111111111101101001001100;  % 0xffffda4c  -0.14728501439094543 %
0127 : 11111111111111111111101011110000;  % 0xfffffaf0  -0.019770784303545952 %
0128 : 00000000000000000000111000100001;  % 0x00000e21  0.055193040519952774 %
0129 : 00000000000000000000110000000000;  % 0x00000c00  0.04686981439590454 %
012a : 11111111111111111111110100101000;  % 0xfffffd28  -0.01110101118683815 %
012b : 00000000000000000000011100010010;  % 0x00000712  0.02761499583721161 %
012c : 00000000000000000000001100101000;  % 0x00000328  0.01233555469661951 %
012d : 00000000000000000000100011111000;  % 0x000008f8  0.0350390188395977 %
012e : 00000000000000000000100010001010;  % 0x0000088a  0.03336280956864357 %
012f : 11111111111111111110110010011111;  % 0xffffec9f  -0.07569974660873413 %
0130 : 11111111111111111110110001010011;  % 0xffffec53  -0.07685404270887375 %
0131 : 11111111111111111110000101111101;  % 0xffffe17d  -0.11918710917234421 %
0132 : 00000000000000000000100000001001;  % 0x00000809  0.03138890117406845 %
0133 : 11111111111111111110110011000101;  % 0xffffecc5  -0.0751228854060173 %
0134 : 00000000000000000001010111110000;  % 0x000015f0  0.08569682389497757 %
0135 : 00000000000000000000011100100101;  % 0x00000725  0.02791016362607479 %
0136 : 00000000000000000000111100110011;  % 0x00000f33  0.05936434119939804 %
0137 : 11111111111111111111101100011111;  % 0xfffffb1f  -0.019055623561143875 %
0138 : 11111111111111111111001000000100;  % 0xfffff204  -0.0546245314180851 %
0139 : 11111111111111111101111010001111;  % 0xffffde8f  -0.1306331604719162 %
013a : 11111111111111111110111110010111;  % 0xffffef97  -0.06409620493650436 %
013b : 00000000000000000000000101001100;  % 0x0000014c  0.005071467254310846 %
013c : 00000000000000000000011110111001;  % 0x000007b9  0.030166326090693474 %
013d : 11111111111111111111110100100011;  % 0xfffffd23  -0.011177626438438892 %
013e : 00000000000000000000010001010010;  % 0x00000452  0.0168708898127079 %
013f : 00000000000000000000000110100000;  % 0x000001a0  0.006341008003801107 %
0140 : 11111111111111111111010001100001;  % 0xfffff461  -0.04540230706334114 %
0141 : 11111111111111111111110011001100;  % 0xfffffccc  -0.012507285922765732 %
0142 : 11111111111111111101111000000100;  % 0xffffde04  -0.13275755941867828 %
0143 : 11111111111111111110010100000110;  % 0xffffe506  -0.10537593066692352 %
0144 : 00000000000000000000100011101100;  % 0x000008ec  0.03484556823968887 %
0145 : 11111111111111111110111100110001;  % 0xffffef31  -0.06565235555171967 %
0146 : 11111111111111111111000001111100;  % 0xfffff07c  -0.0606113001704216 %
0147 : 00000000000000000000000101110101;  % 0x00000175  0.005684349220246077 %
0148 : 00000000000000000000000100010110;  % 0x00000116  0.004243568517267704 %
0149 : 11111111111111111111011111010010;  % 0xfffff7d2  -0.031958624720573425 %
014a : 00000000000000000000100001110111;  % 0x00000877  0.03306720405817032 %
014b : 11111111111111111111011000101110;  % 0xfffff62e  -0.03835471719503403 %
014c : 11111111111111111111011011101011;  % 0xfffff6eb  -0.03547986224293709 %
014d : 00000000000000000000001100100011;  % 0x00000323  0.012254493311047554 %
014e : 11111111111111111111100111101110;  % 0xfffff9ee  -0.02371782809495926 %
014f : 11111111111111111111110000011010;  % 0xfffffc1a  -0.015234358608722687 %
0150 : 00000000000000000000001001101110;  % 0x0000026e  0.00948903989046812 %
0151 : 11111111111111111111111111101100;  % 0xffffffec  -0.00030468415934592485 %
0152 : 00000000000000000000101101111001;  % 0x00000b79  0.044809360057115555 %
0153 : 00000000000000000001001100111100;  % 0x0000133c  0.07513147592544556 %
0154 : 11111111111111111111001101001100;  % 0xfffff34c  -0.04962756112217903 %
0155 : 11111111111111111111111100110111;  % 0xffffff37  -0.003063027048483491 %
0156 : 00000000000000000000000111101011;  % 0x000001eb  0.007487492635846138 %
0157 : 11111111111111111110110111000111;  % 0xffffedc7  -0.07117496430873871 %
0158 : 11111111111111111111100011100100;  % 0xfffff8e4  -0.027765212580561638 %
0159 : 11111111111111111111110011010100;  % 0xfffffcd4  -0.01238891202956438 %
015a : 00000000000000000001000101100110;  % 0x00001166  0.06796988844871521 %
015b : 00000000000000000001011000110101;  % 0x00001635  0.08674600720405579 %
015c : 00000000000000000001101110010110;  % 0x00001b96  0.10775711387395859 %
015d : 11111111111111111111111110010100;  % 0xffffff94  -0.0016476871678605676 %
015e : 11111111111111111101011100010100;  % 0xffffd714  -0.1598561406135559 %
015f : 11111111111111111101111010000101;  % 0xffffde85  -0.1307794153690338 %
0160 : 11111111111111111111110101001110;  % 0xfffffd4e  -0.010530672036111355 %
0161 : 11111111111111111111100110111110;  % 0xfffff9be  -0.02444738708436489 %
0162 : 11111111111111111111100101100111;  % 0xfffff967  -0.02577400952577591 %
0163 : 11111111111111111111000110001010;  % 0xfffff18a  -0.05649469047784805 %
0164 : 11111111111111111111101001111011;  % 0xfffffa7b  -0.02156425639986992 %
0165 : 11111111111111111110011001101101;  % 0xffffe66d  -0.09990406781435013 %
0166 : 00000000000000000000001111111111;  % 0x000003ff  0.015615327283740044 %
0167 : 00000000000000000000001100100111;  % 0x00000327  0.012307707220315933 %
0168 : 11111111111111111111111101000101;  % 0xffffff45  -0.0028518117032945156 %
0169 : 00000000000000000000001001100100;  % 0x00000264  0.009334128350019455 %
016a : 11111111111111111111101000101100;  % 0xfffffa2c  -0.022762134671211243 %
016b : 11111111111111111111000001001000;  % 0xfffff048  -0.06140288710594177 %
016c : 00000000000000000000000001000111;  % 0x00000047  0.0010825768113136292 %
016d : 11111111111111111111111011110001;  % 0xfffffef1  -0.004131506662815809 %
016e : 11111111111111111111010100101110;  % 0xfffff52e  -0.04225965216755867 %
016f : 00000000000000000000101111001101;  % 0x00000bcd  0.04610171541571617 %
0170 : 11111111111111111110110110001111;  % 0xffffed8f  -0.072037473320961 %
0171 : 11111111111111111111001010111111;  % 0xfffff2bf  -0.05177970230579376 %
0172 : 00000000000000000001101001111110;  % 0x00001a7e  0.10347908735275269 %
0173 : 00000000000000000000111011101100;  % 0x00000eec  0.05829090252518654 %
0174 : 00000000000000000000110001110010;  % 0x00000c72  0.04861922189593315 %
0175 : 00000000000000000001010010011001;  % 0x00001499  0.08046291023492813 %
0176 : 00000000000000000001100010100011;  % 0x000018a3  0.09623471647500992 %
0177 : 00000000000000000001100100000111;  % 0x00001907  0.09776327013969421 %
0178 : 00000000000000000001011101000110;  % 0x00001746  0.09090767055749893 %
0179 : 11111111111111111111011010101011;  % 0xfffff6ab  -0.03645814210176468 %
017a : 11111111111111111110110000110110;  % 0xffffec36  -0.07730641216039658 %
017b : 11111111111111111110110100101101;  % 0xffffed2d  -0.07352793961763382 %
017c : 11111111111111111111000100000010;  % 0xfffff102  -0.05856484919786453 %
017d : 11111111111111111111011101001010;  % 0xfffff74a  -0.03403279930353165 %
017e : 00000000000000000000000010000000;  % 0x00000080  0.001958340872079134 %
017f : 11111111111111111111000110111101;  % 0xfffff1bd  -0.05571475997567177 %
0180 : 11111111111111111110011011111010;  % 0xffffe6fa  -0.09774527698755264 %
0181 : 11111111111111111111111110111000;  % 0xffffffb8  -0.0010989555157721043 %
0182 : 11111111111111111111110010100100;  % 0xfffffca4  -0.013119225390255451 %
0183 : 00000000000000000010000111001010;  % 0x000021ca  0.13198688626289368 %
0184 : 00000000000000000001011100110110;  % 0x00001736  0.09066741913557053 %
0185 : 00000000000000000000001100100111;  % 0x00000327  0.012316075153648853 %
0186 : 00000000000000000000110110111110;  % 0x00000dbe  0.05367659777402878 %
0187 : 11111111111111111110101011000111;  % 0xffffeac7  -0.08290326595306396 %
0188 : 11111111111111111110110110001101;  % 0xffffed8d  -0.0720684602856636 %
0189 : 00000000000000000001001111100010;  % 0x000013e2  0.07767068594694138 %
018a : 00000000000000000000000110111010;  % 0x000001ba  0.006741520017385483 %
018b : 00000000000000000000010110111000;  % 0x000005b8  0.02234647236764431 %
018c : 11111111111111111110101001000000;  % 0xffffea40  -0.08496170490980148 %
018d : 00000000000000000001001110111110;  % 0x000013be  0.07711590081453323 %
018e : 00000000000000000001111101100010;  % 0x00001f62  0.12258394807577133 %
018f : 00000000000000000010111101000110;  % 0x00002f46  0.18466170132160187 %
0190 : 00000000000000000001110010000101;  % 0x00001c85  0.1114015057682991 %
0191 : 00000000000000000001101110001100;  % 0x00001b8c  0.10759761929512024 %
0192 : 00000000000000000000011010101011;  % 0x000006ab  0.02605137787759304 %
0193 : 00000000000000000010010110111101;  % 0x000025bd  0.14741915464401245 %
0194 : 00000000000000000001011101000000;  % 0x00001740  0.09082183986902237 %
0195 : 00000000000000000000011000100000;  % 0x00000620  0.0239312332123518 %
0196 : 11111111111111111101100001001101;  % 0xffffd84d  -0.15507256984710693 %
0197 : 11111111111111111111001100100101;  % 0xfffff325  -0.05021752417087555 %
0198 : 11111111111111111111000000001110;  % 0xfffff00e  -0.06228814274072647 %
0199 : 00000000000000000001011110000100;  % 0x00001784  0.09185412526130676 %
019a : 11111111111111111111011111000100;  % 0xfffff7c4  -0.03215885907411575 %
019b : 11111111111111111111001100001101;  % 0xfffff30d  -0.050581373274326324 %
019c : 11111111111111111111100010111110;  % 0xfffff8be  -0.028352605178952217 %
019d : 00000000000000000000011100111001;  % 0x00000739  0.028208578005433083 %
019e : 11111111111111111111010011000100;  % 0xfffff4c4  -0.04388676583766937 %
019f : 00000000000000000000010100101100;  % 0x0000052c  0.020206784829497337 %
01a0 : 00000000000000000000110111000101;  % 0x00000dc5  0.053791146725416183 %
01a1 : 00000000000000000001100000101110;  % 0x0000182e  0.09444773942232132 %
01a2 : 11111111111111111111110100001011;  % 0xfffffd0b  -0.011557156220078468 %
01a3 : 00000000000000000001001110101101;  % 0x000013ad  0.07685410231351852 %
01a4 : 11111111111111111111100101011000;  % 0xfffff958  -0.02600301057100296 %
01a5 : 11111111111111111110101101110000;  % 0xffffeb70  -0.08032400906085968 %
01a6 : 00000000000000000001001100000110;  % 0x00001306  0.07430356740951538 %
01a7 : 11111111111111111111101101110100;  % 0xfffffb74  -0.017754804342985153 %
01a8 : 00000000000000000000111110100101;  % 0x00000fa5  0.06111724302172661 %
01a9 : 00000000000000000001101000111000;  % 0x00001a38  0.10241567343473434 %
01aa : 00000000000000000000111000111001;  % 0x00000e39  0.05555861070752144 %
01ab : 00000000000000000001100001000001;  % 0x00001841  0.09473540633916855 %
01ac : 00000000000000000001001100011110;  % 0x0000131e  0.07467550039291382 %
01ad : 00000000000000000001111010101110;  % 0x00001eae  0.11984100937843323 %
01ae : 00000000000000000001110011011101;  % 0x00001cdd  0.11275234073400497 %
01af : 00000000000000000001001001100100;  % 0x00001264  0.07183723151683807 %
01b0 : 00000000000000000010000001110000;  % 0x00002070  0.12671025097370148 %
01b1 : 11111111111111111111010010011101;  % 0xfffff49d  -0.044476281851530075 %
01b2 : 11111111111111111110000010110010;  % 0xffffe0b2  -0.12227807939052582 %
01b3 : 11111111111111111111110001110010;  % 0xfffffc72  -0.013880489394068718 %
01b4 : 11111111111111111111011011001101;  % 0xfffff6cd  -0.03593900054693222 %
01b5 : 00000000000000000000100100000011;  % 0x00000903  0.03520352765917778 %
01b6 : 00000000000000000000110000010110;  % 0x00000c16  0.04721154645085335 %
01b7 : 00000000000000000000111100111011;  % 0x00000f3b  0.05950164422392845 %
01b8 : 00000000000000000000010010010101;  % 0x00000495  0.01790439896285534 %
01b9 : 00000000000000000001000001000000;  % 0x00001040  0.06347457319498062 %
01ba : 00000000000000000000000000111010;  % 0x0000003a  0.0008917912491597235 %
01bb : 00000000000000000010100011000100;  % 0x000028c4  0.1592445820569992 %
01bc : 00000000000000000000011100010100;  % 0x00000714  0.027647627517580986 %
01bd : 11111111111111111111000010100100;  % 0xfffff0a4  -0.059998203068971634 %
01be : 11111111111111111111011110110011;  % 0xfffff7b3  -0.03242793306708336 %
01bf : 00000000000000000000001110101011;  % 0x000003ab  0.014329114928841591 %
01c0 : 11111111111111111110101011101011;  % 0xffffeaeb  -0.08235163241624832 %
01c1 : 00000000000000000000010111111011;  % 0x000005fb  0.023360081017017365 %
01c2 : 11111111111111111111111110001111;  % 0xffffff8f  -0.001727881608530879 %
01c3 : 11111111111111111111000110100111;  % 0xfffff1a7  -0.05604584142565727 %
01c4 : 00000000000000000000100111011101;  % 0x000009dd  0.03853284940123558 %
01c5 : 00000000000000000000111011011100;  % 0x00000edc  0.05803748965263367 %
01c6 : 00000000000000000000111101001001;  % 0x00000f49  0.059708528220653534 %
01c7 : 00000000000000000001000111010011;  % 0x000011d3  0.06962843984365463 %
01c8 : 00000000000000000001000011100011;  % 0x000010e3  0.06596187502145767 %
01c9 : 00000000000000000000101100111111;  % 0x00000b3f  0.04392916336655617 %
01ca : 00000000000000000000001101111111;  % 0x0000037f  0.013651124201714993 %
01cb : 00000000000000000001010111001101;  % 0x000015cd  0.08516271412372589 %
01cc : 00000000000000000000010100100000;  % 0x00000520  0.020015595480799675 %
01cd : 11111111111111111100111100100100;  % 0xffffcf24  -0.1908617615699768 %
01ce : 11111111111111111111110111000101;  % 0xfffffdc5  -0.008720314130187035 %
01cf : 00000000000000000001010101111111;  % 0x0000157f  0.08396343886852264 %
01d0 : 00000000000000000000010110110110;  % 0x000005b6  0.022312896326184273 %
01d1 : 00000000000000000001010110110010;  % 0x000015b2  0.08474217355251312 %
01d2 : 00000000000000000000111110001000;  % 0x00000f88  0.06066824495792389 %
01d3 : 00000000000000000000000100111101;  % 0x0000013d  0.004839838016778231 %
01d4 : 00000000000000000001100111011110;  % 0x000019de  0.10104569792747498 %
01d5 : 00000000000000000010000101011001;  % 0x00002159  0.13026028871536255 %
01d6 : 11111111111111111111111011011001;  % 0xfffffed9  -0.004497510846704245 %
01d7 : 00000000000000000000111000100000;  % 0x00000e20  0.05517704784870148 %
01d8 : 00000000000000000000000001100101;  % 0x00000065  0.001548036583699286 %
01d9 : 11111111111111111111110111001110;  % 0xfffffdce  -0.008573201484978199 %
01da : 11111111111111111110111000000110;  % 0xffffee06  -0.07021331787109375 %
01db : 00000000000000000000010100010000;  % 0x00000510  0.0197711531072855 %
01dc : 00000000000000000001001101110110;  % 0x00001376  0.07601284235715866 %
01dd : 00000000000000000000111111100001;  % 0x00000fe1  0.06202287599444389 %
01de : 11111111111111111111010011101011;  % 0xfffff4eb  -0.04329080134630203 %
01df : 11111111111111111111101011010000;  % 0xfffffad0  -0.020264938473701477 %
01e0 : 00000000000000000000001111011010;  % 0x000003da  0.015039202757179737 %
01e1 : 00000000000000000000001001001000;  % 0x00000248  0.008916815742850304 %
01e2 : 00000000000000000000011100010110;  % 0x00000716  0.02768261730670929 %
01e3 : 00000000000000000000110001010001;  % 0x00000c51  0.04811172932386398 %
01e4 : 00000000000000000000001110110000;  % 0x000003b0  0.014406160451471806 %
01e5 : 00000000000000000000011000010111;  % 0x00000617  0.02379010058939457 %
01e6 : 00000000000000000001110001100101;  % 0x00001c65  0.11091870069503784 %
01e7 : 00000000000000000000100100011101;  % 0x0000091d  0.03559243679046631 %
01e8 : 11111111111111111111001010010101;  % 0xfffff295  -0.052419885993003845 %
01e9 : 11111111111111111101110101000010;  % 0xffffdd42  -0.13570857048034668 %
01ea : 11111111111111111111101101110010;  % 0xfffffb72  -0.01778687722980976 %
01eb : 00000000000000000000100000010011;  % 0x00000813  0.03154532611370087 %
01ec : 00000000000000000000011010110011;  % 0x000006b3  0.026169095188379288 %
01ed : 00000000000000000000110110110000;  % 0x00000db0  0.05347421020269394 %
01ee : 11111111111111111111110111110011;  % 0xfffffdf3  -0.008014180697500706 %
01ef : 00000000000000000001000101001110;  % 0x0000114e  0.06759718805551529 %
01f0 : 00000000000000000001001000100100;  % 0x00001224  0.07085565477609634 %
01f1 : 00000000000000000000000110100001;  % 0x000001a1  0.006369533948600292 %
01f2 : 00000000000000000001101100011001;  % 0x00001b19  0.10584855079650879 %
01f3 : 00000000000000000000010111111000;  % 0x000005f8  0.023309195414185524 %
01f4 : 00000000000000000001001001110100;  % 0x00001274  0.07207699120044708 %
01f5 : 11111111111111111110110011101101;  % 0xffffeced  -0.07451563328504562 %
01f6 : 11111111111111111110101111000001;  % 0xffffebc1  -0.07908368110656738 %
01f7 : 00000000000000000000101110000100;  % 0x00000b84  0.04497766122221947 %
01f8 : 00000000000000000001001011010110;  % 0x000012d6  0.07357187569141388 %
01f9 : 00000000000000000001000111111000;  % 0x000011f8  0.07019729167222977 %
01fa : 00000000000000000000110100100001;  % 0x00000d21  0.05129215493798256 %
01fb : 11111111111111111111011111010001;  % 0xfffff7d1  -0.031969282776117325 %
01fc : 00000000000000000000011111010001;  % 0x000007d1  0.03053608350455761 %
01fd : 00000000000000000000011101110011;  % 0x00000773  0.029100654646754265 %
01fe : 00000000000000000000111001011000;  % 0x00000e58  0.05602917820215225 %
01ff : 11111111111111111111111000100100;  % 0xfffffe24  -0.007267748471349478 %
0200 : 00000000000000000001000101000111;  % 0x00001147  0.06749282777309418 %
0201 : 11111111111111111111101111110001;  % 0xfffffbf1  -0.015860969200730324 %
0202 : 11111111111111111111111001011101;  % 0xfffffe5d  -0.0064002093859016895 %
0203 : 11111111111111111110001101011001;  % 0xffffe359  -0.11192767322063446 %
0204 : 11111111111111111110100111110001;  % 0xffffe9f1  -0.08617277443408966 %
0205 : 11111111111111111110000001010110;  % 0xffffe056  -0.12369073927402496 %
0206 : 11111111111111111110010100100110;  % 0xffffe526  -0.1048944965004921 %
0207 : 11111111111111111111101011010011;  % 0xfffffad3  -0.020213326439261436 %
0208 : 00000000000000000000011100001010;  % 0x0000070a  0.0274976696819067 %
0209 : 00000000000000000000000001100000;  % 0x00000060  0.0014583355514332652 %
020a : 11111111111111111111111111011111;  % 0xffffffdf  -0.0005032161134295166 %
020b : 00000000000000000000010001101101;  % 0x0000046d  0.017294054850935936 %
020c : 11111111111111111111101111000101;  % 0xfffffbc5  -0.016521750018000603 %
020d : 00000000000000000000000111100101;  % 0x000001e5  0.0073998779989778996 %
020e : 00000000000000000000011100001110;  % 0x0000070e  0.02755899727344513 %
020f : 11111111111111111110111110111000;  % 0xffffefb8  -0.06359529495239258 %
0210 : 11111111111111111111100010000111;  % 0xfffff887  -0.02919117361307144 %
0211 : 11111111111111111111010110100100;  % 0xfffff5a4  -0.0404730923473835 %
0212 : 00000000000000000001001110111010;  % 0x000013ba  0.07706167548894882 %
0213 : 11111111111111111110111001110101;  % 0xffffee75  -0.06852571666240692 %
0214 : 00000000000000000000100000011011;  % 0x0000081b  0.0316651314496994 %
0215 : 11111111111111111111001011100101;  % 0xfffff2e5  -0.05119432136416435 %
0216 : 00000000000000000000101101110110;  % 0x00000b76  0.0447629876434803 %
0217 : 11111111111111111111011110010001;  % 0xfffff791  -0.03294667601585388 %
0218 : 00000000000000000000010011011000;  % 0x000004d8  0.018923377618193626 %
0219 : 00000000000000000000101101100011;  % 0x00000b63  0.04448128864169121 %
021a : 11111111111111111111101111010010;  % 0xfffffbd2  -0.016324752941727638 %
021b : 11111111111111111111111100111100;  % 0xffffff3c  -0.0029880842193961143 %
021c : 00000000000000000000101100100000;  % 0x00000b20  0.043460652232170105 %
021d : 11111111111111111111000010111101;  % 0xfffff0bd  -0.0596114844083786 %
021e : 11111111111111111111100111011111;  % 0xfffff9df  -0.023938201367855072 %
021f : 11111111111111111111111010111101;  % 0xfffffebd  -0.0049252682365477085 %
0220 : 11111111111111111110111101001000;  % 0xffffef48  -0.06530186533927917 %
0221 : 11111111111111111110101101101100;  % 0xffffeb6c  -0.0803840383887291 %
0222 : 00000000000000000000001101001000;  % 0x00000348  0.012811610475182533 %
0223 : 11111111111111111111011110101100;  % 0xfffff7ac  -0.032538313418626785 %
0224 : 11111111111111111111110000110100;  % 0xfffffc34  -0.014832613989710808 %
0225 : 00000000000000000000110111010100;  % 0x00000dd4  0.05401555448770523 %
0226 : 11111111111111111111101010000101;  % 0xfffffa85  -0.02140393853187561 %
0227 : 11111111111111111111010001001001;  % 0xfffff449  -0.04576200991868973 %
0228 : 00000000000000000001100100110100;  % 0x00001934  0.09845179319381714 %
0229 : 00000000000000000000010001110011;  % 0x00000473  0.01738704927265644 %
022a : 00000000000000000001100101101010;  % 0x0000196a  0.09926661103963852 %
022b : 11111111111111111111110100101101;  % 0xfffffd2d  -0.011024796403944492 %
022c : 00000000000000000000101010010011;  % 0x00000a93  0.04130740091204643 %
022d : 00000000000000000000110010111111;  % 0x00000cbf  0.049786198884248734 %
022e : 11111111111111111110111010011001;  % 0xffffee99  -0.06797292083501816 %
022f : 11111111111111111111011000001011;  % 0xfffff60b  -0.03888988122344017 %
0230 : 00000000000000000000110000000000;  % 0x00000c00  0.04687219113111496 %
0231 : 11111111111111111110110011100110;  % 0xffffece6  -0.07461939007043839 %
0232 : 00000000000000000001001101001111;  % 0x0000134f  0.07541953772306442 %
0233 : 11111111111111111111011011000101;  % 0xfffff6c5  -0.03605853021144867 %
0234 : 11111111111111111111100110000101;  % 0xfffff985  -0.025314858183264732 %
0235 : 00000000000000000000101011110001;  % 0x00000af1  0.04273654520511627 %
0236 : 00000000000000000000001000011010;  % 0x0000021a  0.008208135142922401 %
0237 : 00000000000000000000101011000011;  % 0x00000ac3  0.042031627148389816 %
0238 : 11111111111111111111110101000100;  % 0xfffffd44  -0.010676727630198002 %
0239 : 00000000000000000000000100101110;  % 0x0000012e  0.00461135758087039 %
023a : 00000000000000000000111100111000;  % 0x00000f38  0.05945412442088127 %
023b : 11111111111111111111001000010011;  % 0xfffff213  -0.05439227074384689 %
023c : 00000000000000000000010010110000;  % 0x000004b0  0.018313489854335785 %
023d : 11111111111111111111011110101000;  % 0xfffff7a8  -0.03259766474366188 %
023e : 11111111111111111111101001110010;  % 0xfffffa72  -0.021692540496587753 %
023f : 00000000000000000000100000111110;  % 0x0000083e  0.0321943536400795 %
0240 : 00000000000000000000100100011110;  % 0x0000091e  0.03561834618449211 %
0241 : 00000000000000000000001010000011;  % 0x00000283  0.00981137901544571 %
0242 : 00000000000000000000111000010010;  % 0x00000e12  0.05496390163898468 %
0243 : 00000000000000000000011010001000;  % 0x00000688  0.025510238483548164 %
0244 : 00000000000000000000011001100101;  % 0x00000665  0.024971088394522667 %
0245 : 00000000000000000001011010110110;  % 0x000016b6  0.08870849758386612 %
0246 : 00000000000000000000011010011100;  % 0x0000069c  0.025823725387454033 %
0247 : 11111111111111111110101011011010;  % 0xffffeada  -0.08261366188526154 %
0248 : 11111111111111111110000111110000;  % 0xffffe1f0  -0.11742585897445679 %
0249 : 11111111111111111110111010000110;  % 0xffffee86  -0.06826123595237732 %
024a : 00000000000000000000110110000001;  % 0x00000d81  0.05275004357099533 %
024b : 11111111111111111111110001100010;  % 0xfffffc62  -0.014128735288977623 %
024c : 00000000000000000001001011010010;  % 0x000012d2  0.07352200895547867 %
024d : 11111111111111111111110010101110;  % 0xfffffcae  -0.012965521775186062 %
024e : 00000000000000000000010010100000;  % 0x000004a0  0.0180618055164814 %
024f : 00000000000000000001000000101100;  % 0x0000102c  0.06317201256752014 %
0250 : 11111111111111111111111010011111;  % 0xfffffe9f  -0.005392174702137709 %
0251 : 00000000000000000000001100001001;  % 0x00000309  0.011852062307298183 %
0252 : 11111111111111111111001110111001;  % 0xfffff3b9  -0.04796304553747177 %
0253 : 11111111111111111110110110011010;  % 0xffffed9a  -0.07187087833881378 %
0254 : 00000000000000000000000000101110;  % 0x0000002e  0.0006994106224738061 %
0255 : 11111111111111111111110100100000;  % 0xfffffd20  -0.011227224953472614 %
0256 : 00000000000000000000100001101010;  % 0x0000086a  0.032860081642866135 %
0257 : 00000000000000000000101110100011;  % 0x00000ba3  0.045449089258909225 %
0258 : 00000000000000000001001001100111;  % 0x00001267  0.07188151776790619 %
0259 : 11111111111111111111100001100110;  % 0xfffff866  -0.02969568967819214 %
025a : 11111111111111111111110110000100;  % 0xfffffd84  -0.00970191229134798 %
025b : 11111111111111111111110101101111;  % 0xfffffd6f  -0.010031570680439472 %
025c : 00000000000000000000001101011100;  % 0x0000035c  0.013115711510181427 %
025d : 11111111111111111110111110111001;  % 0xffffefb9  -0.06358109414577484 %
025e : 11111111111111111111001000110101;  % 0xfffff235  -0.05388234928250313 %
025f : 11111111111111111111000111101101;  % 0xfffff1ed  -0.054973453283309937 %
0260 : 11111111111111111111110000011001;  % 0xfffffc19  -0.015237599611282349 %
0261 : 11111111111111111111011010001100;  % 0xfffff68c  -0.03692661598324776 %
0262 : 11111111111111111111101011101100;  % 0xfffffaec  -0.0198395736515522 %
0263 : 00000000000000000000011010000100;  % 0x00000684  0.02544543519616127 %
0264 : 11111111111111111110001111100110;  % 0xffffe3e6  -0.1097644492983818 %
0265 : 11111111111111111111111001010100;  % 0xfffffe54  -0.006533714942634106 %
0266 : 00000000000000000001001111000111;  % 0x000013c7  0.07725278288125992 %
0267 : 00000000000000000000111011100111;  % 0x00000ee7  0.058210231363773346 %
0268 : 00000000000000000000111100011001;  % 0x00000f19  0.05897792428731918 %
0269 : 11111111111111111111011011111101;  % 0xfffff6fd  -0.03519468009471893 %
026a : 11111111111111111111100001011101;  % 0xfffff85d  -0.02982879988849163 %
026b : 11111111111111111111010111100000;  % 0xfffff5e0  -0.039554089307785034 %
026c : 11111111111111111110101100000101;  % 0xffffeb05  -0.08195219188928604 %
026d : 11111111111111111111111111100110;  % 0xffffffe6  -0.00039157079299911857 %
026e : 00000000000000000000001110010111;  % 0x00000397  0.01401582732796669 %
026f : 00000000000000000000100100010001;  % 0x00000911  0.035410795360803604 %
0270 : 00000000000000000001010100101000;  % 0x00001528  0.0826491042971611 %
0271 : 11111111111111111111110010101000;  % 0xfffffca8  -0.013062364421784878 %
0272 : 11111111111111111111111110010111;  % 0xffffff97  -0.0015969607047736645 %
0273 : 00000000000000000000110100101011;  % 0x00000d2b  0.051442328840494156 %
0274 : 11111111111111111111111101000011;  % 0xffffff43  -0.002886106027290225 %
0275 : 00000000000000000001011000001010;  % 0x0000160a  0.08608927577733994 %
0276 : 00000000000000000000010100111000;  % 0x00000538  0.02038632333278656 %
0277 : 11111111111111111111110110101000;  % 0xfffffda8  -0.009155729785561562 %
0278 : 00000000000000000000000111010100;  % 0x000001d4  0.007139521650969982 %
0279 : 00000000000000000000001001011111;  % 0x0000025f  0.009258749894797802 %
027a : 11111111111111111111010101001100;  % 0xfffff54c  -0.04181190952658653 %
027b : 00000000000000000000110110000010;  % 0x00000d82  0.05275775119662285 %
027c : 11111111111111111111111000110001;  % 0xfffffe31  -0.00705865491181612 %
027d : 00000000000000000000111011100010;  % 0x00000ee2  0.058133844286203384 %
027e : 11111111111111111110101100111110;  % 0xffffeb3e  -0.08109239488840103 %
027f : 11111111111111111110110101111100;  % 0xffffed7c  -0.07233057171106339 %
0280 : 00000000000000000000101100100001;  % 0x00000b21  0.04347756877541542 %
0281 : 11111111111111111111010010011010;  % 0xfffff49a  -0.04451790452003479 %
0282 : 11111111111111111110101000000010;  % 0xffffea02  -0.08591204136610031 %
0283 : 11111111111111111110111100000001;  % 0xffffef01  -0.06639046221971512 %
0284 : 00000000000000000000100001011001;  % 0x00000859  0.03260412812232971 %
0285 : 00000000000000000000100010001110;  % 0x0000088e  0.03340962529182434 %
0286 : 00000000000000000000010111101001;  % 0x000005e9  0.023080751299858093 %
0287 : 11111111111111111111110000010010;  % 0xfffffc12  -0.015344050712883472 %
0288 : 00000000000000000000010100111000;  % 0x00000538  0.020387932658195496 %
0289 : 11111111111111111110111011110011;  % 0xffffeef3  -0.06661062687635422 %
028a : 00000000000000000001101101011010;  % 0x00001b5a  0.10684453696012497 %
028b : 00000000000000000000011010000101;  % 0x00000685  0.02546556293964386 %
028c : 00000000000000000001111010110010;  % 0x00001eb2  0.11990863084793091 %
028d : 00000000000000000000011011101011;  % 0x000006eb  0.027023840695619583 %
028e : 00000000000000000001100011011010;  % 0x000018da  0.09707041084766388 %
028f : 00000000000000000000100110011010;  % 0x0000099a  0.03749946504831314 %
0290 : 00000000000000000000001100101111;  % 0x0000032f  0.012442954815924168 %
0291 : 00000000000000000001000001110100;  % 0x00001074  0.06426683068275452 %
0292 : 00000000000000000000110111101110;  % 0x00000dee  0.05441249907016754 %
0293 : 00000000000000000000111101000001;  % 0x00000f41  0.059590235352516174 %
0294 : 00000000000000000000100111101010;  % 0x000009ea  0.0387314036488533 %
0295 : 00000000000000000000011011010000;  % 0x000006d0  0.026614615693688393 %
0296 : 00000000000000000000111101101010;  % 0x00000f6a  0.060217127203941345 %
0297 : 11111111111111111111100110110110;  % 0xfffff9b6  -0.024571046233177185 %
0298 : 11111111111111111110101000011001;  % 0xffffea19  -0.08555799722671509 %
0299 : 00000000000000000000011001001000;  % 0x00000648  0.02453901804983616 %
029a : 11111111111111111110101010111100;  % 0xffffeabc  -0.08306433260440826 %
029b : 00000000000000000000001110110000;  % 0x000003b0  0.01440474484115839 %
029c : 11111111111111111110111111011011;  % 0xffffefdb  -0.06306485831737518 %
029d : 11111111111111111111100110110011;  % 0xfffff9b3  -0.02461596578359604 %
029e : 11111111111111111111110001100010;  % 0xfffffc62  -0.014133529737591743 %
029f : 11111111111111111111101000011001;  % 0xfffffa19  -0.023052744567394257 %
02a0 : 11111111111111111111100011011101;  % 0xfffff8dd  -0.02787109836935997 %
02a1 : 00000000000000000000101101010111;  % 0x00000b57  0.04429631680250168 %
02a2 : 11111111111111111110110101010001;  % 0xffffed51  -0.0729818195104599 %
02a3 : 11111111111111111111001100101100;  % 0xfffff32c  -0.050116926431655884 %
02a4 : 00000000000000000000111111110110;  % 0x00000ff6  0.062348708510398865 %
02a5 : 11111111111111111111110000011000;  % 0xfffffc18  -0.01525639183819294 %
02a6 : 00000000000000000000011110000111;  % 0x00000787  0.029397746548056602 %
02a7 : 00000000000000000000100101100101;  % 0x00000965  0.036690983921289444 %
02a8 : 11111111111111111110111110001110;  % 0xffffef8e  -0.06424400210380554 %
02a9 : 00000000000000000000010001000010;  % 0x00000442  0.01663462445139885 %
02aa : 11111111111111111111100101001001;  % 0xfffff949  -0.026227792724967003 %
02ab : 00000000000000000000100011000010;  % 0x000008c2  0.034208547323942184 %
02ac : 11111111111111111111110000110010;  % 0xfffffc32  -0.014869355596601963 %
02ad : 00000000000000000000001111100101;  % 0x000003e5  0.015205915085971355 %
02ae : 00000000000000000000000100101011;  % 0x0000012b  0.0045603299513459206 %
02af : 11111111111111111111111111111010;  % 0xfffffffa  -9.743189730215818e-05 %
02b0 : 11111111111111111110101010011000;  % 0xffffea98  -0.08361290395259857 %
02b1 : 00000000000000000000010110011010;  % 0x0000059a  0.021877752617001534 %
02b2 : 11111111111111111111101111010001;  % 0xfffffbd1  -0.016340304166078568 %
02b3 : 11111111111111111110001000011100;  % 0xffffe21c  -0.11675824224948883 %
02b4 : 11111111111111111110111011101101;  % 0xffffeeed  -0.0666947066783905 %
02b5 : 11111111111111111110101111101111;  % 0xffffebef  -0.07838626205921173 %
02b6 : 00000000000000000000100000100110;  % 0x00000826  0.03182850033044815 %
02b7 : 11111111111111111111100000010110;  % 0xfffff816  -0.03091803938150406 %
02b8 : 00000000000000000000101110000010;  % 0x00000b82  0.04495079070329666 %
02b9 : 11111111111111111111000010110101;  % 0xfffff0b5  -0.05974188446998596 %
02ba : 11111111111111111110111001001010;  % 0xffffee4a  -0.06918815523386002 %
02bb : 11111111111111111111100101101011;  % 0xfffff96b  -0.025706298649311066 %
02bc : 00000000000000000001011000000000;  % 0x00001600  0.08593202382326126 %
02bd : 00000000000000000000101100001001;  % 0x00000b09  0.04310102015733719 %
02be : 00000000000000000000101010001111;  % 0x00000a8f  0.041250381618738174 %
02bf : 11111111111111111110111110000010;  % 0xffffef82  -0.06442281603813171 %
02c0 : 11111111111111111111010110010000;  % 0xfffff590  -0.040776096284389496 %
02c1 : 11111111111111111111001001110010;  % 0xfffff272  -0.05294402688741684 %
02c2 : 11111111111111111111101001000110;  % 0xfffffa46  -0.022364504635334015 %
02c3 : 11111111111111111110101101000100;  % 0xffffeb44  -0.08099348843097687 %
02c4 : 11111111111111111111011110101100;  % 0xfffff7ac  -0.0325251929461956 %
02c5 : 11111111111111111101111011011100;  % 0xffffdedc  -0.1294521987438202 %
02c6 : 11111111111111111110001011111101;  % 0xffffe2fd  -0.11332163959741592 %
02c7 : 11111111111111111110000011001111;  % 0xffffe0cf  -0.12184377759695053 %
02c8 : 11111111111111111101001111010000;  % 0xffffd3d0  -0.17261412739753723 %
02c9 : 11111111111111111110100110100011;  % 0xffffe9a3  -0.0873599424958229 %
02ca : 11111111111111111101001111101101;  % 0xffffd3ed  -0.17215895652770996 %
02cb : 11111111111111111110110010010101;  % 0xffffec95  -0.07585904747247696 %
02cc : 11111111111111111110011001010100;  % 0xffffe654  -0.10028575360774994 %
02cd : 11111111111111111110010111010110;  % 0xffffe5d6  -0.10220959782600403 %
02ce : 11111111111111111110011110111001;  % 0xffffe7b9  -0.0948314517736435 %
02cf : 11111111111111111110001110010110;  % 0xffffe396  -0.11099499464035034 %
02d0 : 11111111111111111101110010000011;  % 0xffffdc83  -0.13862861692905426 %
02d1 : 11111111111111111111000111110111;  % 0xfffff1f7  -0.054820023477077484 %
02d2 : 11111111111111111111011110111111;  % 0xfffff7bf  -0.03224891796708107 %
02d3 : 11111111111111111110010111110011;  % 0xffffe5f3  -0.10176138579845428 %
02d4 : 00000000000000000000101001011000;  % 0x00000a58  0.04040258750319481 %
02d5 : 00000000000000000000111110110100;  % 0x00000fb4  0.061343368142843246 %
02d6 : 00000000000000000000001101110111;  % 0x00000377  0.013541909866034985 %
02d7 : 11111111111111111111111100010100;  % 0xffffff14  -0.0036039799451828003 %
02d8 : 00000000000000000000001010110001;  % 0x000002b1  0.010511733591556549 %
02d9 : 11111111111111111111110010110011;  % 0xfffffcb3  -0.012894980609416962 %
02da : 11111111111111111111011011011111;  % 0xfffff6df  -0.03566211462020874 %
02db : 11111111111111111110110000111101;  % 0xffffec3d  -0.07719392329454422 %
02dc : 00000000000000000000000100000101;  % 0x00000105  0.003982497379183769 %
02dd : 11111111111111111110100001001100;  % 0xffffe84c  -0.09259249269962311 %
02de : 11111111111111111111010000000000;  % 0xfffff400  -0.046880416572093964 %
02df : 00000000000000000000000101011001;  % 0x00000159  0.005264311097562313 %
02e0 : 00000000000000000000100000111111;  % 0x0000083f  0.03221505880355835 %
02e1 : 11111111111111111101110111010110;  % 0xffffddd6  -0.13344694674015045 %
02e2 : 11111111111111111111110100001000;  % 0xfffffd08  -0.011590445414185524 %
02e3 : 11111111111111111101101001001101;  % 0xffffda4d  -0.14726027846336365 %
02e4 : 11111111111111111110001100010110;  % 0xffffe316  -0.11295003443956375 %
02e5 : 11111111111111111111100110011110;  % 0xfffff99e  -0.024935344234108925 %
02e6 : 11111111111111111101100100000110;  % 0xffffd906  -0.1522572636604309 %
02e7 : 11111111111111111111001000010001;  % 0xfffff211  -0.05442429706454277 %
02e8 : 00000000000000000000001111101001;  % 0x000003e9  0.015273786149919033 %
02e9 : 11111111111111111110011101000111;  % 0xffffe747  -0.09657441824674606 %
02ea : 11111111111111111111100010100111;  % 0xfffff8a7  -0.02870847098529339 %
02eb : 11111111111111111110010110001001;  % 0xffffe589  -0.10337890684604645 %
02ec : 00000000000000000000011101101101;  % 0x0000076d  0.029010355472564697 %
02ed : 11111111111111111110111000101010;  % 0xffffee2a  -0.069676473736763 %
02ee : 11111111111111111110100101111001;  % 0xffffe979  -0.08799877762794495 %
02ef : 00000000000000000000110011111000;  % 0x00000cf8  0.05065527558326721 %
02f0 : 11111111111111111111101010010110;  % 0xfffffa96  -0.021142711862921715 %
02f1 : 11111111111111111110110101110011;  % 0xffffed73  -0.07246924936771393 %
02f2 : 00000000000000000000000000001101;  % 0x0000000d  0.00019500404596328735 %
02f3 : 11111111111111111110110111010111;  % 0xffffedd7  -0.07094357907772064 %
02f4 : 00000000000000000000000010110001;  % 0x000000b1  0.002698667347431183 %
02f5 : 00000000000000000000100010101010;  % 0x000008aa  0.033848464488983154 %
02f6 : 00000000000000000001000011100100;  % 0x000010e4  0.06597620993852615 %
02f7 : 00000000000000000000000100011101;  % 0x0000011d  0.0043480247259140015 %
02f8 : 00000000000000000000100111010111;  % 0x000009d7  0.03843298926949501 %
02f9 : 00000000000000000000001100100111;  % 0x00000327  0.012307354249060154 %
02fa : 00000000000000000000100111000000;  % 0x000009c0  0.03808634355664253 %
02fb : 11111111111111111111101101001100;  % 0xfffffb4c  -0.01837344281375408 %
02fc : 11111111111111111111010100010110;  % 0xfffff516  -0.04262729734182358 %
02fd : 11111111111111111110111010011101;  % 0xffffee9d  -0.0679226815700531 %
02fe : 11111111111111111111100100010100;  % 0xfffff914  -0.02703145332634449 %
02ff : 00000000000000000000101001001100;  % 0x00000a4c  0.040216702967882156 %
0300 : 11111111111111111110110111001110;  % 0xffffedce  -0.07107425481081009 %
0301 : 11111111111111111111101000100100;  % 0xfffffa24  -0.022884421050548553 %
0302 : 11111111111111111111001001101010;  % 0xfffff26a  -0.05306593328714371 %
0303 : 00000000000000000000111010100100;  % 0x00000ea4  0.05718402564525604 %
0304 : 00000000000000000000001010011000;  % 0x00000298  0.01013177540153265 %
0305 : 11111111111111111111000001010101;  % 0xfffff055  -0.06119590252637863 %
0306 : 11111111111111111111011101111001;  % 0xfffff779  -0.03331047296524048 %
0307 : 11111111111111111111110011000101;  % 0xfffffcc5  -0.0126149021089077 %
0308 : 11111111111111111111100101100000;  % 0xfffff960  -0.025872215628623962 %
0309 : 00000000000000000001001000100111;  % 0x00001227  0.07091430574655533 %
030a : 00000000000000000001001011011000;  % 0x000012d8  0.07360468059778214 %
030b : 11111111111111111111010000010110;  % 0xfffff416  -0.04653608798980713 %
030c : 11111111111111111111100000011101;  % 0xfffff81d  -0.03081120178103447 %
030d : 11111111111111111111100011011100;  % 0xfffff8dc  -0.02788962796330452 %
030e : 11111111111111111111010010011001;  % 0xfffff499  -0.044544946402311325 %
030f : 00000000000000000001010110101000;  % 0x000015a8  0.08459892123937607 %
END;
