DEPTH = 10;
WIDTH = 32;
ADDRESS_RADIX = HEX;
DATA_RADIX = BIN;
CONTENT
BEGIN
0000 : 11111111111111111011000111001111;  % 0xffffb1cf  -0.3054297 %
0001 : 00000000000000000111111001110001;  % 0x00007e71  0.4939111 %
0002 : 11111111111111111110001000110111;  % 0xffffe237  -0.11634682 %
0003 : 00000000000000000000011001101100;  % 0x0000066c  0.025089188 %
0004 : 00000000000000001000110001011111;  % 0x00008c5f  0.5483235 %
0005 : 00000000000000000011000011100001;  % 0x000030e1  0.19093147 %
0006 : 11111111111111111100101001010001;  % 0xffffca51  -0.20970032 %
0007 : 00000000000000001010110110010100;  % 0x0000ad94  0.6780379 %
0008 : 11111111111111111111111111110111;  % 0xfffffff7  -0.00013502012 %
0009 : 11111111111111111011110100000011;  % 0xffffbd03  -0.2616742 %
END;
