DEPTH = 10;
WIDTH = 32;
ADDRESS_RADIX = HEX;
DATA_RADIX = BIN;
CONTENT
BEGIN
0000 : 00000000000000000001111000110000;  % 0x00001e30  0.117919065 %
0001 : 11111111111111111010011011100011;  % 0xffffa6e3  -0.34810024 %
0002 : 00000000000000000011110100010110;  % 0x00003d16  0.23861298 %
0003 : 00000000000000000111001110000101;  % 0x00007385  0.4512482 %
0004 : 11111111111111111101111000001000;  % 0xffffde08  -0.1326929 %
0005 : 00000000000000001000000100110111;  % 0x00008137  0.50474435 %
0006 : 00000000000000000000010110110101;  % 0x000005b5  0.02229014 %
0007 : 11111111111111111000101000101001;  % 0xffff8a29  -0.46031627 %
0008 : 00000000000000000110010010010101;  % 0x00006495  0.39289725 %
0009 : 00000000000000000011011000101100;  % 0x0000362c  0.211607 %
END;
