DEPTH = 10;
WIDTH = 32;
ADDRESS_RADIX = HEX;
DATA_RADIX = BIN;
CONTENT
BEGIN
0000 : 11111111111111111111010111001001;  % 0xfffff5c9  -0.039895445 %
0001 : 00000000000000000000010001000110;  % 0x00000446  0.016689703 %
0002 : 00000000000000000000101100100011;  % 0x00000b23  0.04350517 %
0003 : 00000000000000000000011101110011;  % 0x00000773  0.029100582 %
0004 : 11111111111111111110110011000101;  % 0xffffecc5  -0.07511938 %
0005 : 00000000000000000000000001101011;  % 0x0000006b  0.0016336888 %
0006 : 11111111111111111111101111110111;  % 0xfffffbf7  -0.01576037 %
0007 : 11111111111111111110111111011100;  % 0xffffefdc  -0.063052215 %
0008 : 00000000000000000000101001000110;  % 0x00000a46  0.040127777 %
0009 : 00000000000000000000110101011111;  % 0x00000d5f  0.05222381 %
END;
