DEPTH = 10;
WIDTH = 32;
ADDRESS_RADIX = HEX;
DATA_RADIX = BIN;
CONTENT
BEGIN
0000 : 00000000000000000000111100000010;  % 0x00000f02  0.05862222 %
0001 : 00000000000000000000000010101101;  % 0x000000ad  0.002641201 %
0002 : 00000000000000000000111000011100;  % 0x00000e1c  0.05511365 %
0003 : 11111111111111111111010011000010;  % 0xfffff4c2  -0.0439122 %
0004 : 00000000000000000000010101010110;  % 0x00000556  0.020837441 %
0005 : 11111111111111111111000001100101;  % 0xfffff065  -0.06095562 %
0006 : 11111111111111111111010110101010;  % 0xfffff5aa  -0.040377606 %
0007 : 00000000000000000001001011011111;  % 0x000012df  0.07371526 %
0008 : 00000000000000000000101000100111;  % 0x00000a27  0.039651386 %
0009 : 11111111111111111111000011100011;  % 0xfffff0e3  -0.05904187 %
END;
