DEPTH = 10;
WIDTH = 32;
ADDRESS_RADIX = HEX;
DATA_RADIX = BIN;
CONTENT
BEGIN
0000 : 00000000000000000000110010011111;  % 0x00000c9f  0.04930242 %
0001 : 11111111111111111111010101001000;  % 0xfffff548  -0.041864973 %
0002 : 11111111111111111111001011000011;  % 0xfffff2c3  -0.05170887 %
0003 : 11111111111111111110110000010011;  % 0xffffec13  -0.07783714 %
0004 : 11111111111111111111001000110100;  % 0xfffff234  -0.05390078 %
0005 : 00000000000000000001000001111001;  % 0x00001079  0.06434967 %
0006 : 11111111111111111111101000001100;  % 0xfffffa0c  -0.02325055 %
0007 : 11111111111111111110100111011101;  % 0xffffe9dd  -0.086474165 %
0008 : 11111111111111111111001101011001;  % 0xfffff359  -0.04942452 %
0009 : 11111111111111111110101111011010;  % 0xffffebda  -0.07870118 %
END;
