DEPTH = 10;
WIDTH = 32;
ADDRESS_RADIX = HEX;
DATA_RADIX = BIN;
CONTENT
BEGIN
0000 : 00000000000000001011111000001111;  % 0x0000be0f  0.74242145 %
0001 : 11111111111111111100101111111100;  % 0xffffcbfc  -0.2031859 %
0002 : 00000000000000000010010111101101;  % 0x000025ed  0.1481461 %
0003 : 11111111111111111110001011101101;  % 0xffffe2ed  -0.11357096 %
0004 : 00000000000000000011011111011111;  % 0x000037df  0.21825247 %
0005 : 11111111111111111101101101000011;  % 0xffffdb43  -0.14351293 %
0006 : 00000000000000000010100000000111;  % 0x00002807  0.15635757 %
0007 : 00000000000000000000101001001001;  % 0x00000a49  0.040174264 %
0008 : 11111111111111111110011011111011;  % 0xffffe6fb  -0.097731225 %
0009 : 11111111111111111100001111111111;  % 0xffffc3ff  -0.2343843 %
END;
