DEPTH = 784;
WIDTH = 32;
ADDRESS_RADIX = HEX;
DATA_RADIX = BIN;
CONTENT
BEGIN
0000 : 11111111111111111111001111101101;  % 0xfffff3ed  -0.04716651886701584 %
0001 : 00000000000000000000111111110000;  % 0x00000ff0  0.06225354224443436 %
0002 : 00000000000000000000100001111110;  % 0x0000087e  0.033171072602272034 %
0003 : 11111111111111111110110000101001;  % 0xffffec29  -0.07750453799962997 %
0004 : 00000000000000000000111100000010;  % 0x00000f02  0.058622218668460846 %
0005 : 00000000000000000000001110100110;  % 0x000003a6  0.01424458622932434 %
0006 : 00000000000000000000110010011111;  % 0x00000c9f  0.049302421510219574 %
0007 : 00000000000000000001010100011011;  % 0x0000151b  0.08243954926729202 %
0008 : 11111111111111111111010111001001;  % 0xfffff5c9  -0.039895445108413696 %
0009 : 11111111111111111111100000000101;  % 0xfffff805  -0.031171556562185287 %
000a : 11111111111111111110110100011100;  % 0xffffed1c  -0.07378794997930527 %
000b : 11111111111111111111011011111100;  % 0xfffff6fc  -0.0352151058614254 %
000c : 11111111111111111110110111110111;  % 0xffffedf7  -0.07044725120067596 %
000d : 00000000000000000001010000100000;  % 0x00001420  0.07861318439245224 %
000e : 11111111111111111111100110111010;  % 0xfffff9ba  -0.02451111003756523 %
000f : 11111111111111111111101010100111;  % 0xfffffaa7  -0.020893331617116928 %
0010 : 11111111111111111111111110101100;  % 0xffffffac  -0.001279383897781372 %
0011 : 11111111111111111111011010111011;  % 0xfffff6bb  -0.03621123731136322 %
0012 : 00000000000000000000010001000011;  % 0x00000443  0.016649514436721802 %
0013 : 00000000000000000000110101010110;  % 0x00000d56  0.05208592861890793 %
0014 : 00000000000000000000010001101110;  % 0x0000046e  0.01730979233980179 %
0015 : 00000000000000000001011000010011;  % 0x00001613  0.08622974902391434 %
0016 : 11111111111111111110110010010110;  % 0xffffec96  -0.07583412528038025 %
0017 : 00000000000000000000001101110110;  % 0x00000376  0.013524353504180908 %
0018 : 11111111111111111110111111100010;  % 0xffffefe2  -0.06296129524707794 %
0019 : 00000000000000000000101001111011;  % 0x00000a7b  0.04093591123819351 %
001a : 00000000000000000000100110011011;  % 0x0000099b  0.03752534091472626 %
001b : 11111111111111111110100111101000;  % 0xffffe9e8  -0.08629777282476425 %
001c : 11111111111111111111010110111101;  % 0xfffff5bd  -0.04007961228489876 %
001d : 11111111111111111110111111101100;  % 0xffffefec  -0.06280284374952316 %
001e : 11111111111111111110101100110011;  % 0xffffeb33  -0.08125216513872147 %
001f : 00000000000000000000110001101000;  % 0x00000c68  0.04845508188009262 %
0020 : 11111111111111111111101010010000;  % 0xfffffa90  -0.021242663264274597 %
0021 : 11111111111111111110101110100101;  % 0xffffeba5  -0.07951206713914871 %
0022 : 00000000000000000000010001011000;  % 0x00000458  0.016967739909887314 %
0023 : 00000000000000000001010110101100;  % 0x000015ac  0.08465360850095749 %
0024 : 00000000000000000000101101111001;  % 0x00000b79  0.044813573360443115 %
0025 : 11111111111111111111101100011110;  % 0xfffffb1e  -0.019068235531449318 %
0026 : 00000000000000000000011110011101;  % 0x0000079d  0.029732409864664078 %
0027 : 11111111111111111111101110011001;  % 0xfffffb99  -0.0171938668936491 %
0028 : 00000000000000000000101100111001;  % 0x00000b39  0.04383812099695206 %
0029 : 11111111111111111111001010000110;  % 0xfffff286  -0.05264126509428024 %
002a : 11111111111111111111001000101110;  % 0xfffff22e  -0.05398622155189514 %
002b : 00000000000000000000011010100111;  % 0x000006a7  0.025986323133111 %
002c : 00000000000000000001001001011000;  % 0x00001258  0.07165838778018951 %
002d : 00000000000000000001001000111110;  % 0x0000123e  0.07125788927078247 %
002e : 11111111111111111111101100101111;  % 0xfffffb2f  -0.01881074346601963 %
002f : 11111111111111111111001011111000;  % 0xfffff2f8  -0.05090221017599106 %
0030 : 00000000000000000001001101000100;  % 0x00001344  0.0752551406621933 %
0031 : 00000000000000000001010111000001;  % 0x000015c1  0.08497945964336395 %
0032 : 00000000000000000000010100001100;  % 0x0000050c  0.019717290997505188 %
0033 : 11111111111111111111000011110011;  % 0xfffff0f3  -0.058787450194358826 %
0034 : 00000000000000000001001011010001;  % 0x000012d1  0.07350445538759232 %
0035 : 00000000000000000000010111110101;  % 0x000005f5  0.023267902433872223 %
0036 : 00000000000000000001010011110101;  % 0x000014f5  0.08186057955026627 %
0037 : 00000000000000000000010000010000;  % 0x00000410  0.015866920351982117 %
0038 : 00000000000000000000100110101101;  % 0x000009ad  0.03779103606939316 %
0039 : 00000000000000000000000010000101;  % 0x00000085  0.0020361393690109253 %
003a : 11111111111111111111011000000001;  % 0xfffff601  -0.03904198855161667 %
003b : 11111111111111111111110010001011;  % 0xfffffc8b  -0.013509061187505722 %
003c : 11111111111111111111101010010101;  % 0xfffffa95  -0.021171264350414276 %
003d : 00000000000000000000000111100100;  % 0x000001e4  0.0073927827179431915 %
003e : 00000000000000000000110010000111;  % 0x00000c87  0.048939742147922516 %
003f : 00000000000000000000011110010001;  % 0x00000791  0.02955709956586361 %
0040 : 11111111111111111111001110110010;  % 0xfffff3b2  -0.04807199537754059 %
0041 : 11111111111111111111011010111011;  % 0xfffff6bb  -0.036203861236572266 %
0042 : 00000000000000000000011011000110;  % 0x000006c6  0.026455247774720192 %
0043 : 00000000000000000001000101101011;  % 0x0000116b  0.06803945451974869 %
0044 : 00000000000000000000000100111110;  % 0x0000013e  0.004849237855523825 %
0045 : 00000000000000000000111000010101;  % 0x00000e15  0.05500728264451027 %
0046 : 11111111111111111111000100000011;  % 0xfffff103  -0.058553848415613174 %
0047 : 00000000000000000000110011011100;  % 0x00000cdc  0.05022791028022766 %
0048 : 11111111111111111110110011011100;  % 0xffffecdc  -0.07476861029863358 %
0049 : 00000000000000000001010111011011;  % 0x000015db  0.08537939190864563 %
004a : 00000000000000000000111101001001;  % 0x00000f49  0.059714555740356445 %
004b : 11111111111111111110111011001010;  % 0xffffeeca  -0.06722860783338547 %
004c : 00000000000000000000000101100001;  % 0x00000161  0.00538049777969718 %
004d : 11111111111111111110110001010101;  % 0xffffec55  -0.07682561874389648 %
004e : 00000000000000000000100100101000;  % 0x00000928  0.0357619971036911 %
004f : 11111111111111111110111111101100;  % 0xffffefec  -0.06280224770307541 %
0050 : 00000000000000000001001110001111;  % 0x0000138f  0.07640140503644943 %
0051 : 11111111111111111111010100110110;  % 0xfffff536  -0.042145486921072006 %
0052 : 00000000000000000000110001011011;  % 0x00000c5b  0.04826173931360245 %
0053 : 11111111111111111111000001000001;  % 0xfffff041  -0.06151411309838295 %
0054 : 11111111111111111111101110011111;  % 0xfffffb9f  -0.017107822000980377 %
0055 : 11111111111111111111010000101101;  % 0xfffff42d  -0.04618852213025093 %
0056 : 00000000000000000000010010011010;  % 0x0000049a  0.0179704949259758 %
0057 : 11111111111111111110100111001010;  % 0xffffe9ca  -0.08676368743181229 %
0058 : 11111111111111111111000010000101;  % 0xfffff085  -0.06047555059194565 %
0059 : 00000000000000000000111100000010;  % 0x00000f02  0.058619897812604904 %
005a : 00000000000000000001001011110100;  % 0x000012f4  0.07404263317584991 %
005b : 00000000000000000000011101110101;  % 0x00000775  0.029128514230251312 %
005c : 00000000000000000000010010010101;  % 0x00000495  0.017901400104165077 %
005d : 00000000000000000000110011101101;  % 0x00000ced  0.05049584433436394 %
005e : 00000000000000000000110000010011;  % 0x00000c13  0.04717190936207771 %
005f : 00000000000000000000101011010101;  % 0x00000ad5  0.04231320694088936 %
0060 : 00000000000000000001110000010000;  % 0x00001c10  0.10961722582578659 %
0061 : 11111111111111111111100110100011;  % 0xfffff9a3  -0.024850033223628998 %
0062 : 00000000000000000000101011100101;  % 0x00000ae5  0.0425565131008625 %
0063 : 11111111111111111111110010100011;  % 0xfffffca3  -0.013137801550328732 %
0064 : 00000000000000000000101011010110;  % 0x00000ad6  0.042332831770181656 %
0065 : 11111111111111111110111101000111;  % 0xffffef47  -0.06532002240419388 %
0066 : 00000000000000000000000100011110;  % 0x0000011e  0.004362942650914192 %
0067 : 00000000000000000000000011010101;  % 0x000000d5  0.0032484515104442835 %
0068 : 11111111111111111111001110001011;  % 0xfffff38b  -0.048654619604349136 %
0069 : 00000000000000000000011011000000;  % 0x000006c0  0.026368018239736557 %
006a : 11111111111111111111011111101101;  % 0xfffff7ed  -0.03153388947248459 %
006b : 11111111111111111111100011100110;  % 0xfffff8e6  -0.027741689234972 %
006c : 00000000000000000000011110010010;  % 0x00000792  0.02956569567322731 %
006d : 00000000000000000001000010101000;  % 0x000010a8  0.06506922841072083 %
006e : 00000000000000000000010111110110;  % 0x000005f6  0.023289427161216736 %
006f : 11111111111111111111001000101000;  % 0xfffff228  -0.05408204346895218 %
0070 : 00000000000000000000010000110111;  % 0x00000437  0.01646924763917923 %
0071 : 11111111111111111111001101011011;  % 0xfffff35b  -0.04939161241054535 %
0072 : 11111111111111111110111101111110;  % 0xffffef7e  -0.06447664648294449 %
0073 : 11111111111111111111111100010000;  % 0xffffff10  -0.0036648756358772516 %
0074 : 11111111111111111111000111001101;  % 0xfffff1cd  -0.0554685965180397 %
0075 : 00000000000000000000101111100010;  % 0x00000be2  0.046415407210588455 %
0076 : 00000000000000000000100111011111;  % 0x000009df  0.03855862095952034 %
0077 : 00000000000000000000011100000000;  % 0x00000700  0.02734513022005558 %
0078 : 00000000000000000000110001100001;  % 0x00000c61  0.04835759848356247 %
0079 : 00000000000000000000110110001011;  % 0x00000d8b  0.052908580750226974 %
007a : 11111111111111111111111101000001;  % 0xffffff41  -0.0029133667703717947 %
007b : 00000000000000000000100111001110;  % 0x000009ce  0.03830483555793762 %
007c : 00000000000000000000111001010110;  % 0x00000e56  0.05600591003894806 %
007d : 11111111111111111111110001001011;  % 0xfffffc4b  -0.014473226852715015 %
007e : 00000000000000000000111011000001;  % 0x00000ec1  0.05762894079089165 %
007f : 00000000000000000000010010001110;  % 0x0000048e  0.01779448799788952 %
0080 : 11111111111111111111101010000111;  % 0xfffffa87  -0.02138345129787922 %
0081 : 00000000000000000000100000011011;  % 0x0000081b  0.03166323900222778 %
0082 : 00000000000000000000001011101000;  % 0x000002e8  0.011357428506016731 %
0083 : 11111111111111111111000001101000;  % 0xfffff068  -0.06090564653277397 %
0084 : 00000000000000000000100111010110;  % 0x000009d6  0.03842383250594139 %
0085 : 11111111111111111110111011100111;  % 0xffffeee7  -0.06678859144449234 %
0086 : 11111111111111111111110100000001;  % 0xfffffd01  -0.01170984748750925 %
0087 : 11111111111111111110101000001101;  % 0xffffea0d  -0.08573304861783981 %
0088 : 00000000000000000000001000110011;  % 0x00000233  0.008593348786234856 %
0089 : 11111111111111111111000010000000;  % 0xfffff080  -0.060552336275577545 %
008a : 00000000000000000000100100100010;  % 0x00000922  0.03566833212971687 %
008b : 00000000000000000000110111000110;  % 0x00000dc6  0.05379509553313255 %
008c : 00000000000000000001001100001100;  % 0x0000130c  0.07440308481454849 %
008d : 11111111111111111111000110001010;  % 0xfffff18a  -0.05648504197597504 %
008e : 00000000000000000001011000001100;  % 0x0000160c  0.08611955493688583 %
008f : 11111111111111111111010110111111;  % 0xfffff5bf  -0.04005751758813858 %
0090 : 00000000000000000000011100001111;  % 0x0000070f  0.02757590264081955 %
0091 : 11111111111111111111001001101111;  % 0xfffff26f  -0.05299058184027672 %
0092 : 00000000000000000000010000101001;  % 0x00000429  0.016243254765868187 %
0093 : 00000000000000000000110100001011;  % 0x00000d0b  0.05095156282186508 %
0094 : 11111111111111111111101111001000;  % 0xfffffbc8  -0.01647789217531681 %
0095 : 11111111111111111111000110001011;  % 0xfffff18b  -0.056473616510629654 %
0096 : 00000000000000000000100011100101;  % 0x000008e5  0.0347512811422348 %
0097 : 00000000000000000000011011001111;  % 0x000006cf  0.02659241482615471 %
0098 : 00000000000000000000011010101100;  % 0x000006ac  0.026055162772536278 %
0099 : 00000000000000000000010000011000;  % 0x00000418  0.015987206250429153 %
009a : 00000000000000000000101110010101;  % 0x00000b95  0.04523804411292076 %
009b : 00000000000000000000000100000011;  % 0x00000103  0.003946706652641296 %
009c : 00000000000000000001011011101110;  % 0x000016ee  0.0895615667104721 %
009d : 00000000000000000000000110011011;  % 0x0000019b  0.006266145501285791 %
009e : 00000000000000000000000010111100;  % 0x000000bc  0.002874774159863591 %
009f : 11111111111111111111100010101000;  % 0xfffff8a8  -0.028679175302386284 %
00a0 : 00000000000000000000100010000000;  % 0x00000880  0.033201009035110474 %
00a1 : 11111111111111111111011100101010;  % 0xfffff72a  -0.03451317176222801 %
00a2 : 11111111111111111111111001110010;  % 0xfffffe72  -0.006076086312532425 %
00a3 : 11111111111111111111100010010000;  % 0xfffff890  -0.029059773311018944 %
00a4 : 00000000000000000000110110000000;  % 0x00000d80  0.05272722989320755 %
00a5 : 11111111111111111110100100010010;  % 0xffffe912  -0.08956759423017502 %
00a6 : 00000000000000000000000111001111;  % 0x000001cf  0.007058120798319578 %
00a7 : 00000000000000000000001001011000;  % 0x00000258  0.00915941409766674 %
00a8 : 00000000000000000000100011100111;  % 0x000008e7  0.03477734327316284 %
00a9 : 11111111111111111110101001100111;  % 0xffffea67  -0.08437108248472214 %
00aa : 00000000000000000001001111100001;  % 0x000013e1  0.07764873653650284 %
00ab : 00000000000000000000110111110001;  % 0x00000df1  0.0544632151722908 %
00ac : 00000000000000000000110011110011;  % 0x00000cf3  0.05058473348617554 %
00ad : 00000000000000000000000000011001;  % 0x00000019  0.00038055723416619003 %
00ae : 00000000000000000000111110001000;  % 0x00000f88  0.060675106942653656 %
00af : 00000000000000000001100111011101;  % 0x000019dd  0.10102970898151398 %
00b0 : 00000000000000000000110000010010;  % 0x00000c12  0.0471484437584877 %
00b1 : 00000000000000000001010110111110;  % 0x000015be  0.08493292331695557 %
00b2 : 00000000000000000001010010000111;  % 0x00001487  0.08018700033426285 %
00b3 : 11111111111111111111110000110111;  % 0xfffffc37  -0.014779993332922459 %
00b4 : 00000000000000000000010111101001;  % 0x000005e9  0.0230801273137331 %
00b5 : 00000000000000000000001010110000;  % 0x000002b0  0.010496346279978752 %
00b6 : 11111111111111111111110111110110;  % 0xfffffdf6  -0.007968300022184849 %
00b7 : 11111111111111111111110001101111;  % 0xfffffc6f  -0.013931318186223507 %
00b8 : 00000000000000000001010101001100;  % 0x0000154c  0.08318717032670975 %
00b9 : 11111111111111111111100111000100;  % 0xfffff9c4  -0.02435871958732605 %
00ba : 11111111111111111111011100001001;  % 0xfffff709  -0.03502485901117325 %
00bb : 00000000000000000000000100100010;  % 0x00000122  0.004430344328284264 %
00bc : 11111111111111111111110011010110;  % 0xfffffcd6  -0.012352447025477886 %
00bd : 00000000000000000000111111010011;  % 0x00000fd3  0.061810318380594254 %
00be : 11111111111111111111011111101110;  % 0xfffff7ee  -0.031521644443273544 %
00bf : 11111111111111111110011110010010;  % 0xffffe792  -0.09542493522167206 %
00c0 : 11111111111111111111111101011011;  % 0xffffff5b  -0.0025238231755793095 %
00c1 : 00000000000000000000001101100100;  % 0x00000364  0.013252043165266514 %
00c2 : 00000000000000000000100111111000;  % 0x000009f8  0.03893432766199112 %
00c3 : 00000000000000000001000001100100;  % 0x00001064  0.06401828676462173 %
00c4 : 00000000000000000001010111011001;  % 0x000015d9  0.08534515649080276 %
00c5 : 00000000000000000001011000111001;  % 0x00001639  0.08680946379899979 %
00c6 : 00000000000000000000001100101101;  % 0x0000032d  0.012402450665831566 %
00c7 : 11111111111111111111111000110110;  % 0xfffffe36  -0.0069868844002485275 %
00c8 : 11111111111111111111110011000110;  % 0xfffffcc6  -0.012600486166775227 %
00c9 : 11111111111111111111111111000101;  % 0xffffffc5  -0.0009015390533022583 %
00ca : 00000000000000000001110001111001;  % 0x00001c79  0.1112256720662117 %
00cb : 11111111111111111111011111111110;  % 0xfffff7fe  -0.03128226846456528 %
00cc : 00000000000000000000101101110011;  % 0x00000b73  0.044716380536556244 %
00cd : 00000000000000000000001011110010;  % 0x000002f2  0.011505543254315853 %
00ce : 00000000000000000001000011110100;  % 0x000010f4  0.06621697545051575 %
00cf : 00000000000000000001001110101111;  % 0x000013af  0.07689371705055237 %
00d0 : 00000000000000000000000101101000;  % 0x00000168  0.005487681832164526 %
00d1 : 00000000000000000001010001010010;  % 0x00001452  0.07937557995319366 %
00d2 : 00000000000000000000101011010000;  % 0x00000ad0  0.042238976806402206 %
00d3 : 11111111111111111111110100000001;  % 0xfffffd01  -0.011696619912981987 %
00d4 : 00000000000000000000000101000101;  % 0x00000145  0.004963577724993229 %
00d5 : 00000000000000000000011100010011;  % 0x00000713  0.027638595551252365 %
00d6 : 00000000000000000000000001010011;  % 0x00000053  0.0012703330721706152 %
00d7 : 00000000000000000001000101100000;  % 0x00001160  0.06787632405757904 %
00d8 : 11111111111111111111110001000100;  % 0xfffffc44  -0.014580725692212582 %
00d9 : 00000000000000000000010011011000;  % 0x000004d8  0.018926305696368217 %
00da : 00000000000000000000111110001011;  % 0x00000f8b  0.06071898341178894 %
00db : 00000000000000000000011001001101;  % 0x0000064d  0.02460823394358158 %
00dc : 11111111111111111110111011001001;  % 0xffffeec9  -0.06724148988723755 %
00dd : 11111111111111111110111001111000;  % 0xffffee78  -0.06847791373729706 %
00de : 00000000000000000001010010101101;  % 0x000014ad  0.08077195286750793 %
00df : 11111111111111111110101100011001;  % 0xffffeb19  -0.08165411651134491 %
00e0 : 11111111111111111111001000101010;  % 0xfffff22a  -0.05404425039887428 %
00e1 : 11111111111111111111000110110011;  % 0xfffff1b3  -0.05586106330156326 %
00e2 : 11111111111111111111111011000001;  % 0xfffffec1  -0.004873472265899181 %
00e3 : 11111111111111111111010010010101;  % 0xfffff495  -0.044599272310733795 %
00e4 : 00000000000000000001000100100110;  % 0x00001126  0.06698385626077652 %
00e5 : 00000000000000000000111111111101;  % 0x00000ffd  0.06245791167020798 %
00e6 : 00000000000000000000100110000101;  % 0x00000985  0.0371917225420475 %
00e7 : 00000000000000000001010001100111;  % 0x00001467  0.0796896368265152 %
00e8 : 00000000000000000000111101111100;  % 0x00000f7c  0.06048423796892166 %
00e9 : 00000000000000000001000001000001;  % 0x00001041  0.06349079310894012 %
00ea : 00000000000000000001011001101010;  % 0x0000166a  0.08756105601787567 %
00eb : 00000000000000000000101110111011;  % 0x00000bbb  0.04581647366285324 %
00ec : 00000000000000000000000000001011;  % 0x0000000b  0.00017444841796532273 %
00ed : 00000000000000000000011101110111;  % 0x00000777  0.029156416654586792 %
00ee : 00000000000000000000111010110100;  % 0x00000eb4  0.05742994323372841 %
00ef : 00000000000000000000100101001000;  % 0x00000948  0.03625643625855446 %
00f0 : 00000000000000000000001110010111;  % 0x00000397  0.014026500284671783 %
00f1 : 00000000000000000000011110000000;  % 0x00000780  0.029292898252606392 %
00f2 : 00000000000000000001000101101000;  % 0x00001168  0.06799087673425674 %
00f3 : 00000000000000000000011110100110;  % 0x000007a6  0.02987569198012352 %
00f4 : 00000000000000000001000001011000;  % 0x00001058  0.06384600698947906 %
00f5 : 11111111111111111111100000110101;  % 0xfffff835  -0.030434899032115936 %
00f6 : 00000000000000000000000101000011;  % 0x00000143  0.004923129919916391 %
00f7 : 00000000000000000000010010100110;  % 0x000004a6  0.01815078593790531 %
00f8 : 11111111111111111110000011101000;  % 0xffffe0e8  -0.12145337462425232 %
00f9 : 11111111111111111111011100000100;  % 0xfffff704  -0.035097651183605194 %
00fa : 11111111111111111111100110100100;  % 0xfffff9a4  -0.024837465956807137 %
00fb : 11111111111111111111001101011010;  % 0xfffff35a  -0.04940309002995491 %
00fc : 00000000000000000000110100101101;  % 0x00000d2d  0.051460959017276764 %
00fd : 00000000000000000000101100011001;  % 0x00000b19  0.04334762692451477 %
00fe : 11111111111111111110110110000001;  % 0xffffed81  -0.07225697487592697 %
00ff : 00000000000000000001001101001100;  % 0x0000134c  0.07538516819477081 %
0100 : 00000000000000000001101111001111;  % 0x00001bcf  0.10862457752227783 %
0101 : 00000000000000000000110111000000;  % 0x00000dc0  0.05370642617344856 %
0102 : 11111111111111111111100110100100;  % 0xfffff9a4  -0.0248358603566885 %
0103 : 00000000000000000000011000000100;  % 0x00000604  0.023497506976127625 %
0104 : 00000000000000000000101000010000;  % 0x00000a10  0.039308950304985046 %
0105 : 11111111111111111111111011001001;  % 0xfffffec9  -0.004745240788906813 %
0106 : 00000000000000000001001000110001;  % 0x00001231  0.07105519622564316 %
0107 : 00000000000000000001000000110010;  % 0x00001032  0.06326945126056671 %
0108 : 00000000000000000001001110111001;  % 0x000013b9  0.077043816447258 %
0109 : 00000000000000000001000111110010;  % 0x000011f2  0.07010111212730408 %
010a : 11111111111111111111110110000100;  % 0xfffffd84  -0.0097026526927948 %
010b : 00000000000000000000100101001000;  % 0x00000948  0.036257304251194 %
010c : 00000000000000000000110101000100;  % 0x00000d44  0.0518120713531971 %
010d : 00000000000000000000010011111100;  % 0x000004fc  0.019471896812319756 %
010e : 11111111111111111111111111111000;  % 0xfffffff8  -0.00012874876847490668 %
010f : 00000000000000000000001001111001;  % 0x00000279  0.009656139649450779 %
0110 : 00000000000000000000001010111001;  % 0x000002b9  0.010628370568156242 %
0111 : 11111111111111111111100011000001;  % 0xfffff8c1  -0.028300398960709572 %
0112 : 00000000000000000000100010100000;  % 0x000008a0  0.03369157016277313 %
0113 : 11111111111111111110111000101111;  % 0xffffee2f  -0.06959258764982224 %
0114 : 11111111111111111111100100001101;  % 0xfffff90d  -0.027140945196151733 %
0115 : 00000000000000000000000011011011;  % 0x000000db  0.0033354046754539013 %
0116 : 11111111111111111111000011010100;  % 0xfffff0d4  -0.0592600479722023 %
0117 : 11111111111111111111100101010101;  % 0xfffff955  -0.02604314312338829 %
0118 : 00000000000000000000001010010010;  % 0x00000292  0.010032683610916138 %
0119 : 11111111111111111110111001100101;  % 0xffffee65  -0.06877212971448898 %
011a : 00000000000000000001000010010100;  % 0x00001094  0.06475941091775894 %
011b : 00000000000000000000111010110111;  % 0x00000eb7  0.05747285485267639 %
011c : 00000000000000000000011110100111;  % 0x000007a7  0.029887650161981583 %
011d : 00000000000000000000001000000000;  % 0x00000200  0.007813286036252975 %
011e : 00000000000000000001011101010110;  % 0x00001756  0.09114932268857956 %
011f : 00000000000000000000010010100010;  % 0x000004a2  0.01809685118496418 %
0120 : 00000000000000000001000010111001;  % 0x000010b9  0.06532842665910721 %
0121 : 00000000000000000001000100001001;  % 0x00001109  0.0665421113371849 %
0122 : 11111111111111111111101000001110;  % 0xfffffa0e  -0.023218484595417976 %
0123 : 11111111111111111111100111101011;  % 0xfffff9eb  -0.023753175511956215 %
0124 : 11111111111111111101101111110100;  % 0xffffdbf4  -0.14081045985221863 %
0125 : 11111111111111111101101101110100;  % 0xffffdb74  -0.14275619387626648 %
0126 : 11111111111111111110111110101100;  % 0xffffefac  -0.06378506869077682 %
0127 : 11111111111111111111110111100001;  % 0xfffffde1  -0.00828540325164795 %
0128 : 00000000000000000000010111110100;  % 0x000005f4  0.02324926108121872 %
0129 : 00000000000000000000101001010101;  % 0x00000a55  0.04035249352455139 %
012a : 00000000000000000000001100011011;  % 0x0000031b  0.012135844677686691 %
012b : 11111111111111111111110010000100;  % 0xfffffc84  -0.013608179986476898 %
012c : 11111111111111111110111111010111;  % 0xffffefd7  -0.06312773376703262 %
012d : 11111111111111111110100000101010;  % 0xffffe82a  -0.09310416877269745 %
012e : 11111111111111111111110000110011;  % 0xfffffc33  -0.014852220192551613 %
012f : 11111111111111111111001101111111;  % 0xfffff37f  -0.04884932562708855 %
0130 : 11111111111111111110111110010001;  % 0xffffef91  -0.06419751793146133 %
0131 : 11111111111111111110111110101001;  % 0xffffefa9  -0.06382197886705399 %
0132 : 00000000000000000001000011011001;  % 0x000010d9  0.06580985337495804 %
0133 : 00000000000000000000100011111010;  % 0x000008fa  0.03506385535001755 %
0134 : 00000000000000000000100110010010;  % 0x00000992  0.0373910591006279 %
0135 : 11111111111111111111101111011001;  % 0xfffffbd9  -0.016217291355133057 %
0136 : 00000000000000000001000000001100;  % 0x0000100c  0.0626886859536171 %
0137 : 11111111111111111111111010110111;  % 0xfffffeb7  -0.005022259429097176 %
0138 : 11111111111111111101111100100011;  % 0xffffdf23  -0.1283685266971588 %
0139 : 11111111111111111111000000001000;  % 0xfffff008  -0.06238427013158798 %
013a : 11111111111111111110100001010111;  % 0xffffe857  -0.09242236614227295 %
013b : 11111111111111111101111010010101;  % 0xffffde95  -0.1305396556854248 %
013c : 11111111111111111101101101011010;  % 0xffffdb5a  -0.14315326511859894 %
013d : 11111111111111111110100100101110;  % 0xffffe92e  -0.08914779126644135 %
013e : 11111111111111111011101100011111;  % 0xffffbb1f  -0.26906150579452515 %
013f : 11111111111111111101100110111000;  % 0xffffd9b8  -0.1495376080274582 %
0140 : 11111111111111111100011000011010;  % 0xffffc61a  -0.2261645346879959 %
0141 : 11111111111111111100111101110011;  % 0xffffcf73  -0.18964435160160065 %
0142 : 11111111111111111101100100101010;  % 0xffffd92a  -0.1517062485218048 %
0143 : 11111111111111111111010001100000;  % 0xfffff460  -0.045410946011543274 %
0144 : 11111111111111111111101010001011;  % 0xfffffa8b  -0.021319476887583733 %
0145 : 11111111111111111110110100100010;  % 0xffffed22  -0.07369770109653473 %
0146 : 11111111111111111110100100110101;  % 0xffffe935  -0.08904153108596802 %
0147 : 00000000000000000000100011100111;  % 0x000008e7  0.034775007516145706 %
0148 : 11111111111111111111110000000010;  % 0xfffffc02  -0.015596103854477406 %
0149 : 00000000000000000000100000010001;  % 0x00000811  0.03150656446814537 %
014a : 11111111111111111110110111011110;  % 0xffffedde  -0.0708322823047638 %
014b : 11111111111111111110011111111100;  % 0xffffe7fc  -0.09381212294101715 %
014c : 00000000000000000000000010111011;  % 0x000000bb  0.0028560219798237085 %
014d : 11111111111111111111001101101001;  % 0xfffff369  -0.049186088144779205 %
014e : 00000000000000000000000111101001;  % 0x000001e9  0.007461443543434143 %
014f : 11111111111111111111110110100110;  % 0xfffffda6  -0.009178917855024338 %
0150 : 11111111111111111111110101010010;  % 0xfffffd52  -0.010465898551046848 %
0151 : 00000000000000000000010100010110;  % 0x00000516  0.019860005006194115 %
0152 : 00000000000000000000111111000010;  % 0x00000fc2  0.06155701354146004 %
0153 : 11111111111111111110001110001001;  % 0xffffe389  -0.11119724065065384 %
0154 : 11111111111111111101100100000101;  % 0xffffd905  -0.1522718369960785 %
0155 : 11111111111111111110001011000010;  % 0xffffe2c2  -0.11422321200370789 %
0156 : 11111111111111111101011111101011;  % 0xffffd7eb  -0.15656572580337524 %
0157 : 11111111111111111011101001000001;  % 0xffffba41  -0.27244341373443604 %
0158 : 11111111111111111100100001010100;  % 0xffffc854  -0.21746668219566345 %
0159 : 11111111111111111011100100110101;  % 0xffffb935  -0.2765403985977173 %
015a : 11111111111111111100101001111011;  % 0xffffca7b  -0.20905882120132446 %
015b : 11111111111111111110001001011110;  % 0xffffe25e  -0.11575520038604736 %
015c : 11111111111111111101101101000010;  % 0xffffdb42  -0.1435217559337616 %
015d : 11111111111111111101111000110101;  % 0xffffde35  -0.13200747966766357 %
015e : 11111111111111111111011000101110;  % 0xfffff62e  -0.03836112841963768 %
015f : 11111111111111111111100110010101;  % 0xfffff995  -0.025067191570997238 %
0160 : 11111111111111111111010001000110;  % 0xfffff446  -0.0457996167242527 %
0161 : 11111111111111111111110001001011;  % 0xfffffc4b  -0.014485074207186699 %
0162 : 11111111111111111110111111111111;  % 0xffffefff  -0.06251270323991776 %
0163 : 11111111111111111111100100000000;  % 0xfffff900  -0.027340706437826157 %
0164 : 11111111111111111111010000010110;  % 0xfffff416  -0.046540215611457825 %
0165 : 11111111111111111110011100110111;  % 0xffffe737  -0.09681475907564163 %
0166 : 11111111111111111111100010010011;  % 0xfffff893  -0.02900487184524536 %
0167 : 11111111111111111110110001111010;  % 0xffffec7a  -0.07626217603683472 %
0168 : 11111111111111111111101100001000;  % 0xfffffb08  -0.01941041834652424 %
0169 : 00000000000000000000100010000101;  % 0x00000885  0.03327995911240578 %
016a : 11111111111111111111010011011011;  % 0xfffff4db  -0.043535616248846054 %
016b : 11111111111111111111110001111001;  % 0xfffffc79  -0.013775684870779514 %
016c : 00000000000000000000111101100001;  % 0x00000f61  0.060066986829042435 %
016d : 00000000000000000000010011010111;  % 0x000004d7  0.018901152536273003 %
016e : 11111111111111111111010111000111;  % 0xfffff5c7  -0.03993939980864525 %
016f : 00000000000000000000000010101111;  % 0x000000af  0.002676175208762288 %
0170 : 11111111111111111101101100110010;  % 0xffffdb32  -0.14376625418663025 %
0171 : 11111111111111111010110100100100;  % 0xffffad24  -0.3236728608608246 %
0172 : 11111111111111111010101100010111;  % 0xffffab17  -0.33167406916618347 %
0173 : 11111111111111111100001110101000;  % 0xffffc3a8  -0.23571842908859253 %
0174 : 11111111111111111101001000101101;  % 0xffffd22d  -0.17899437248706818 %
0175 : 11111111111111111101110101100011;  % 0xffffdd63  -0.13520067930221558 %
0176 : 11111111111111111111101100000100;  % 0xfffffb04  -0.019473114982247353 %
0177 : 11111111111111111111000111110101;  % 0xfffff1f5  -0.05484931915998459 %
0178 : 11111111111111111111100100011000;  % 0xfffff918  -0.026981515809893608 %
0179 : 00000000000000000000001101111010;  % 0x0000037a  0.013587402179837227 %
017a : 11111111111111111111111100000010;  % 0xffffff02  -0.0038768495433032513 %
017b : 11111111111111111111000000101101;  % 0xfffff02d  -0.0618174746632576 %
017c : 11111111111111111111101100110011;  % 0xfffffb33  -0.018750809133052826 %
017d : 11111111111111111111010110101011;  % 0xfffff5ab  -0.04035242646932602 %
017e : 11111111111111111111111110010100;  % 0xffffff94  -0.0016530242282897234 %
017f : 11111111111111111110101101001111;  % 0xffffeb4f  -0.08083035796880722 %
0180 : 11111111111111111111010000001110;  % 0xfffff40e  -0.04666073992848396 %
0181 : 11111111111111111111001010011001;  % 0xfffff299  -0.052352726459503174 %
0182 : 11111111111111111111001101101100;  % 0xfffff36c  -0.049132123589515686 %
0183 : 11111111111111111110100001110100;  % 0xffffe874  -0.09198584407567978 %
0184 : 00000000000000000000010000110000;  % 0x00000430  0.01636306568980217 %
0185 : 00000000000000000001001110010101;  % 0x00001395  0.0764857679605484 %
0186 : 00000000000000000000010011001010;  % 0x000004ca  0.01870839111506939 %
0187 : 11111111111111111111110000001100;  % 0xfffffc0c  -0.01544034481048584 %
0188 : 11111111111111111111100100000000;  % 0xfffff900  -0.027336277067661285 %
0189 : 00000000000000000001001000011000;  % 0x00001218  0.07067950069904327 %
018a : 00000000000000000000101000111010;  % 0x00000a3a  0.039946895092725754 %
018b : 11111111111111111111101101010101;  % 0xfffffb55  -0.0182364359498024 %
018c : 11111111111111111111011100011110;  % 0xfffff71e  -0.03470497578382492 %
018d : 11111111111111111100101000010111;  % 0xffffca17  -0.21058587729930878 %
018e : 11111111111111111110111111101010;  % 0xffffefea  -0.06283966451883316 %
018f : 11111111111111111111000001011010;  % 0xfffff05a  -0.06113407388329506 %
0190 : 11111111111111111111100100101110;  % 0xfffff92e  -0.02664838172495365 %
0191 : 00000000000000000001100011010000;  % 0x000018d0  0.09692180901765823 %
0192 : 11111111111111111111111000010000;  % 0xfffffe10  -0.007573406212031841 %
0193 : 00000000000000000000100001111011;  % 0x0000087b  0.03312961012125015 %
0194 : 00000000000000000000100100001111;  % 0x0000090f  0.03538322448730469 %
0195 : 00000000000000000001000010011000;  % 0x00001098  0.06482461839914322 %
0196 : 00000000000000000000010100000111;  % 0x00000507  0.01963798515498638 %
0197 : 11111111111111111111110100001001;  % 0xfffffd09  -0.011576260440051556 %
0198 : 11111111111111111111101101001100;  % 0xfffffb4c  -0.01836998760700226 %
0199 : 00000000000000000000111000101111;  % 0x00000e2f  0.05540144070982933 %
019a : 00000000000000000000000001011100;  % 0x0000005c  0.00140159681905061 %
019b : 11111111111111111111011010110111;  % 0xfffff6b7  -0.036270108073949814 %
019c : 11111111111111111111010001101010;  % 0xfffff46a  -0.045251570641994476 %
019d : 00000000000000000000100110000010;  % 0x00000982  0.037142541259527206 %
019e : 11111111111111111110100101010000;  % 0xffffe950  -0.08862168341875076 %
019f : 11111111111111111111101011100101;  % 0xfffffae5  -0.019940340891480446 %
01a0 : 00000000000000000000101100101001;  % 0x00000b29  0.04360087215900421 %
01a1 : 00000000000000000000000000111110;  % 0x0000003e  0.0009518908918835223 %
01a2 : 00000000000000000001000011001101;  % 0x000010cd  0.06563109904527664 %
01a3 : 00000000000000000000010110001111;  % 0x0000058f  0.021713629364967346 %
01a4 : 11111111111111111111000110101000;  % 0xfffff1a8  -0.05602788180112839 %
01a5 : 00000000000000000000111111100100;  % 0x00000fe4  0.06207297742366791 %
01a6 : 00000000000000000000101111010101;  % 0x00000bd5  0.046211253851652145 %
01a7 : 00000000000000000000100101110011;  % 0x00000973  0.0369143933057785 %
01a8 : 11111111111111111101110111010111;  % 0xffffddd7  -0.13343140482902527 %
01a9 : 11111111111111111111111001011000;  % 0xfffffe58  -0.006475373171269894 %
01aa : 00000000000000000001010001011000;  % 0x00001458  0.07947266846895218 %
01ab : 00000000000000000000101000001001;  % 0x00000a09  0.039206258952617645 %
01ac : 11111111111111111111111111101001;  % 0xffffffe9  -0.0003511479590088129 %
01ad : 11111111111111111111100100011100;  % 0xfffff91c  -0.026917370036244392 %
01ae : 00000000000000000000100100000001;  % 0x00000901  0.03516822308301926 %
01af : 00000000000000000000001000001101;  % 0x0000020d  0.008004593662917614 %
01b0 : 11111111111111111111101000001101;  % 0xfffffa0d  -0.023236488923430443 %
01b1 : 00000000000000000000111111101001;  % 0x00000fe9  0.06215419992804527 %
01b2 : 00000000000000000000110100010010;  % 0x00000d12  0.05104884132742882 %
01b3 : 00000000000000000000000001100010;  % 0x00000062  0.0014917892403900623 %
01b4 : 00000000000000000000101001010011;  % 0x00000a53  0.040333446115255356 %
01b5 : 11111111111111111111100100101011;  % 0xfffff92b  -0.026680542156100273 %
01b6 : 11111111111111111111110001101011;  % 0xfffffc6b  -0.013998125679790974 %
01b7 : 11111111111111111111101011001100;  % 0xfffffacc  -0.020318927243351936 %
01b8 : 11111111111111111111001000101011;  % 0xfffff22b  -0.05403883755207062 %
01b9 : 11111111111111111111011010011101;  % 0xfffff69d  -0.03666883334517479 %
01ba : 11111111111111111111011110001001;  % 0xfffff789  -0.03306132182478905 %
01bb : 11111111111111111111101101000101;  % 0xfffffb45  -0.01848238706588745 %
01bc : 00000000000000000001111011110101;  % 0x00001ef5  0.12092377245426178 %
01bd : 00000000000000000010010100110111;  % 0x00002537  0.1453647017478943 %
01be : 00000000000000000001011100101111;  % 0x0000172f  0.09056393057107925 %
01bf : 11111111111111111111000001001101;  % 0xfffff04d  -0.061323221772909164 %
01c0 : 11111111111111111110101010101101;  % 0xffffeaad  -0.08329983055591583 %
01c1 : 00000000000000000001001011101000;  % 0x000012e8  0.07385203242301941 %
01c2 : 00000000000000000000011001010110;  % 0x00000656  0.02474428527057171 %
01c3 : 11111111111111111111100111001001;  % 0xfffff9c9  -0.024281606078147888 %
01c4 : 11111111111111111111000100101111;  % 0xfffff12f  -0.05787861719727516 %
01c5 : 00000000000000000001000010110011;  % 0x000010b3  0.0652274340391159 %
01c6 : 00000000000000000000110001111110;  % 0x00000c7e  0.04879140853881836 %
01c7 : 00000000000000000000000101110110;  % 0x00000176  0.005699959117919207 %
01c8 : 00000000000000000000001010000101;  % 0x00000285  0.009846014901995659 %
01c9 : 00000000000000000000000000111011;  % 0x0000003b  0.000905423890799284 %
01ca : 00000000000000000000100011110000;  % 0x000008f0  0.03491707518696785 %
01cb : 11111111111111111111110011100011;  % 0xfffffce3  -0.012165434658527374 %
01cc : 00000000000000000001100010111000;  % 0x000018b8  0.09655925631523132 %
01cd : 00000000000000000001101100001100;  % 0x00001b0c  0.1056501567363739 %
01ce : 00000000000000000000011001011111;  % 0x0000065f  0.02489173412322998 %
01cf : 00000000000000000000011110110011;  % 0x000007b3  0.03007049858570099 %
01d0 : 11111111111111111111111111111100;  % 0xfffffffc  -5.858016083948314e-05 %
01d1 : 00000000000000000000101100000110;  % 0x00000b06  0.043055564165115356 %
01d2 : 11111111111111111111111111111100;  % 0xfffffffc  -5.508551839739084e-05 %
01d3 : 00000000000000000000100100110110;  % 0x00000936  0.03598003089427948 %
01d4 : 11111111111111111111011110011011;  % 0xfffff79b  -0.032796699553728104 %
01d5 : 00000000000000000001110100100100;  % 0x00001d24  0.11383281648159027 %
01d6 : 00000000000000000000001101000110;  % 0x00000346  0.012784217484295368 %
01d7 : 00000000000000000000010100110001;  % 0x00000531  0.02027221769094467 %
01d8 : 00000000000000000000110110111101;  % 0x00000dbd  0.05366280674934387 %
01d9 : 00000000000000000001011000011011;  % 0x0000161b  0.08635589480400085 %
01da : 00000000000000000000110010010111;  % 0x00000c97  0.04918313026428223 %
01db : 00000000000000000000100010101000;  % 0x000008a8  0.0338127426803112 %
01dc : 00000000000000000001010001100110;  % 0x00001466  0.0796748474240303 %
01dd : 11111111111111111110100110110111;  % 0xffffe9b7  -0.08705279976129532 %
01de : 11111111111111111111100101011100;  % 0xfffff95c  -0.02594229206442833 %
01df : 11111111111111111111110101100111;  % 0xfffffd67  -0.010142738930881023 %
01e0 : 00000000000000000001101111110011;  % 0x00001bf3  0.10918227583169937 %
01e1 : 11111111111111111111101001101111;  % 0xfffffa6f  -0.021747291088104248 %
01e2 : 00000000000000000000111010100001;  % 0x00000ea1  0.05713739991188049 %
01e3 : 11111111111111111111100001110010;  % 0xfffff872  -0.029510125517845154 %
01e4 : 00000000000000000000011101100111;  % 0x00000767  0.028914758935570717 %
01e5 : 11111111111111111111110001011011;  % 0xfffffc5b  -0.014240065589547157 %
01e6 : 11111111111111111111111111011010;  % 0xffffffda  -0.0005788212874904275 %
01e7 : 00000000000000000000101010110010;  % 0x00000ab2  0.0417715460062027 %
01e8 : 00000000000000000000001011011001;  % 0x000002d9  0.011120523326098919 %
01e9 : 00000000000000000000110000110101;  % 0x00000c35  0.04767650365829468 %
01ea : 00000000000000000000110001001110;  % 0x00000c4e  0.04806777462363243 %
01eb : 00000000000000000000110010111011;  % 0x00000cbb  0.04972530156373978 %
01ec : 00000000000000000000010000011001;  % 0x00000419  0.01600208319723606 %
01ed : 11111111111111111111111100011100;  % 0xffffff1c  -0.003482112195342779 %
01ee : 11111111111111111111111011111010;  % 0xfffffefa  -0.003991091623902321 %
01ef : 11111111111111111111101011000000;  % 0xfffffac0  -0.020509233698248863 %
01f0 : 00000000000000000000001010000111;  % 0x00000287  0.009872769936919212 %
01f1 : 11111111111111111111100000110100;  % 0xfffff834  -0.030455000698566437 %
01f2 : 00000000000000000000011010010011;  % 0x00000693  0.025686554610729218 %
01f3 : 11111111111111111111100111100111;  % 0xfffff9e7  -0.02381662093102932 %
01f4 : 00000000000000000010000110010000;  % 0x00002190  0.13110136985778809 %
01f5 : 00000000000000000001111010010001;  % 0x00001e91  0.11939636617898941 %
01f6 : 00000000000000000010001001000011;  % 0x00002243  0.13383910059928894 %
01f7 : 00000000000000000000011000010111;  % 0x00000617  0.023780880495905876 %
01f8 : 11111111111111111111011001101010;  % 0xfffff66a  -0.03744035214185715 %
01f9 : 00000000000000000000011010110010;  % 0x000006b2  0.026157168671488762 %
01fa : 11111111111111111111001010011110;  % 0xfffff29e  -0.052282072603702545 %
01fb : 00000000000000000001001100010011;  % 0x00001313  0.07451295852661133 %
01fc : 00000000000000000001000000111111;  % 0x0000103f  0.06346749514341354 %
01fd : 00000000000000000000111100001010;  % 0x00000f0a  0.058750052005052567 %
01fe : 00000000000000000000001111101110;  % 0x000003ee  0.015346747823059559 %
01ff : 00000000000000000001001010100111;  % 0x000012a7  0.07285632938146591 %
0200 : 11111111111111111110111010000111;  % 0xffffee87  -0.0682523176074028 %
0201 : 00000000000000000000000100010010;  % 0x00000112  0.004177989903837442 %
0202 : 00000000000000000000011010001111;  % 0x0000068f  0.02561323530972004 %
0203 : 11111111111111111110100110111000;  % 0xffffe9b8  -0.08703359216451645 %
0204 : 00000000000000000000111011100111;  % 0x00000ee7  0.058219168335199356 %
0205 : 00000000000000000001001001010010;  % 0x00001252  0.07156628370285034 %
0206 : 00000000000000000000010101111100;  % 0x0000057c  0.021426228806376457 %
0207 : 11111111111111111111110100011011;  % 0xfffffd1b  -0.011305637657642365 %
0208 : 00000000000000000000010000000110;  % 0x00000406  0.015722520649433136 %
0209 : 11111111111111111111110000111100;  % 0xfffffc3c  -0.014707585796713829 %
020a : 00000000000000000000111110000001;  % 0x00000f81  0.06056434288620949 %
020b : 11111111111111111111111010001010;  % 0xfffffe8a  -0.0057003372348845005 %
020c : 11111111111111111111001101011101;  % 0xfffff35d  -0.04936254024505615 %
020d : 00000000000000000000010110100100;  % 0x000005a4  0.02202630415558815 %
020e : 00000000000000000000100011100111;  % 0x000008e7  0.034773655235767365 %
020f : 00000000000000000000000101110110;  % 0x00000176  0.005700675770640373 %
0210 : 00000000000000000010011101111011;  % 0x0000277b  0.15422068536281586 %
0211 : 00000000000000000010111110011010;  % 0x00002f9a  0.1859494149684906 %
0212 : 11111111111111111111100100010100;  % 0xfffff914  -0.027035780251026154 %
0213 : 00000000000000000001001001001110;  % 0x0000124e  0.07150091230869293 %
0214 : 11111111111111111111101101101001;  % 0xfffffb69  -0.017923709005117416 %
0215 : 11111111111111111111100000111000;  % 0xfffff838  -0.03038926050066948 %
0216 : 11111111111111111111101011100011;  % 0xfffffae3  -0.0199746023863554 %
0217 : 11111111111111111111010101101011;  % 0xfffff56b  -0.0413416363298893 %
0218 : 00000000000000000000101001001101;  % 0x00000a4d  0.04023264721035957 %
0219 : 11111111111111111111110000110011;  % 0xfffffc33  -0.014847842045128345 %
021a : 00000000000000000000000001111010;  % 0x0000007a  0.0018577554728835821 %
021b : 00000000000000000001010001101011;  % 0x0000146b  0.07975456863641739 %
021c : 00000000000000000000111000001011;  % 0x00000e0b  0.05485130846500397 %
021d : 11111111111111111111110010011110;  % 0xfffffc9e  -0.013214008882641792 %
021e : 00000000000000000000110011001100;  % 0x00000ccc  0.049990180879831314 %
021f : 11111111111111111111110100001110;  % 0xfffffd0e  -0.011498408392071724 %
0220 : 00000000000000000000100000001110;  % 0x0000080e  0.0314619354903698 %
0221 : 00000000000000000000110000011101;  % 0x00000c1d  0.04731803387403488 %
0222 : 00000000000000000000011000001100;  % 0x0000060c  0.023620203137397766 %
0223 : 00000000000000000000101110000101;  % 0x00000b85  0.0449986606836319 %
0224 : 11111111111111111111110111010111;  % 0xfffffdd7  -0.008432433940470219 %
0225 : 00000000000000000000111000101011;  % 0x00000e2b  0.055342525243759155 %
0226 : 00000000000000000000001011001010;  % 0x000002ca  0.010898720473051071 %
0227 : 11111111111111111111011011111010;  % 0xfffff6fa  -0.03524400666356087 %
0228 : 00000000000000000000110101111001;  % 0x00000d79  0.052628498524427414 %
0229 : 00000000000000000000000000001101;  % 0x0000000d  0.0001953706523636356 %
022a : 00000000000000000000111001010001;  % 0x00000e51  0.05592889338731766 %
022b : 00000000000000000000111010001100;  % 0x00000e8c  0.056827742606401443 %
022c : 11111111111111111111110001011000;  % 0xfffffc58  -0.014284719713032246 %
022d : 00000000000000000001100011100110;  % 0x000018e6  0.0972539409995079 %
022e : 11111111111111111111001101010000;  % 0xfffff350  -0.049553751945495605 %
022f : 11111111111111111110101111010111;  % 0xffffebd7  -0.07875199615955353 %
0230 : 00000000000000000000100100101101;  % 0x0000092d  0.035846032202243805 %
0231 : 11111111111111111111101011100111;  % 0xfffffae7  -0.019915156066417694 %
0232 : 11111111111111111111010100101100;  % 0xfffff52c  -0.04230271279811859 %
0233 : 00000000000000000001100001010000;  % 0x00001850  0.09497465938329697 %
0234 : 00000000000000000001110001000011;  % 0x00001c43  0.1103900671005249 %
0235 : 00000000000000000001101000000000;  % 0x00001a00  0.10156423598527908 %
0236 : 00000000000000000000100111000111;  % 0x000009c7  0.03818852826952934 %
0237 : 00000000000000000000110001000110;  % 0x00000c46  0.04794497415423393 %
0238 : 00000000000000000001010000010000;  % 0x00001410  0.07836753129959106 %
0239 : 00000000000000000000100100100101;  % 0x00000925  0.03572321683168411 %
023a : 00000000000000000000001000010011;  % 0x00000213  0.008095634169876575 %
023b : 00000000000000000001000010110111;  % 0x000010b7  0.06528545171022415 %
023c : 00000000000000000000000011111010;  % 0x000000fa  0.0038126104045659304 %
023d : 00000000000000000000100101110001;  % 0x00000971  0.03687328100204468 %
023e : 11111111111111111111100100010100;  % 0xfffff914  -0.027042435482144356 %
023f : 11111111111111111111111010101010;  % 0xfffffeaa  -0.005211021285504103 %
0240 : 00000000000000000000001000000010;  % 0x00000202  0.007842802442610264 %
0241 : 11111111111111111111000010110111;  % 0xfffff0b7  -0.05970112606883049 %
0242 : 00000000000000000000010110000111;  % 0x00000587  0.021589258685708046 %
0243 : 00000000000000000000010101011100;  % 0x0000055c  0.020938821136951447 %
0244 : 00000000000000000001000101011101;  % 0x0000115d  0.06783261150121689 %
0245 : 11111111111111111111011010101100;  % 0xfffff6ac  -0.036435287445783615 %
0246 : 00000000000000000000000111111100;  % 0x000001fc  0.007757830433547497 %
0247 : 00000000000000000001000010010101;  % 0x00001095  0.06477127224206924 %
0248 : 00000000000000000010010111000110;  % 0x000025c6  0.14754877984523773 %
0249 : 11111111111111111111110000111110;  % 0xfffffc3e  -0.014677642844617367 %
024a : 00000000000000000000100000100111;  % 0x00000827  0.0318467803299427 %
024b : 00000000000000000000111000100101;  % 0x00000e25  0.055259689688682556 %
024c : 00000000000000000000001011100100;  % 0x000002e4  0.011288687586784363 %
024d : 11111111111111111110110010101001;  % 0xffffeca9  -0.0755406990647316 %
024e : 00000000000000000001000101000011;  % 0x00001143  0.06742317229509354 %
024f : 00000000000000000001010011111010;  % 0x000014fa  0.08194214105606079 %
0250 : 00000000000000000000111100011011;  % 0x00000f1b  0.058999061584472656 %
0251 : 00000000000000000001011100110101;  % 0x00001735  0.09064850211143494 %
0252 : 11111111111111111111010000110101;  % 0xfffff435  -0.0460713654756546 %
0253 : 11111111111111111111111110101101;  % 0xffffffad  -0.0012717091012746096 %
0254 : 11111111111111111111011000010111;  % 0xfffff617  -0.03871602565050125 %
0255 : 00000000000000000000010101000010;  % 0x00000542  0.02053891494870186 %
0256 : 00000000000000000000010011101000;  % 0x000004e8  0.019166914746165276 %
0257 : 00000000000000000000001001111000;  % 0x00000278  0.009642385877668858 %
0258 : 11111111111111111111010010011011;  % 0xfffff49b  -0.0445154570043087 %
0259 : 00000000000000000000000111100000;  % 0x000001e0  0.0073227607645094395 %
025a : 00000000000000000000001111100110;  % 0x000003e6  0.015220745466649532 %
025b : 11111111111111111111111110011011;  % 0xffffff9b  -0.0015363447600975633 %
025c : 00000000000000000000000001001010;  % 0x0000004a  0.001136172330006957 %
025d : 00000000000000000001010011111000;  % 0x000014f8  0.08191167563199997 %
025e : 11111111111111111111111110101101;  % 0xffffffad  -0.0012622936628758907 %
025f : 00000000000000000001101010110111;  % 0x00001ab7  0.10435456037521362 %
0260 : 11111111111111111111111010100000;  % 0xfffffea0  -0.005371526814997196 %
0261 : 00000000000000000000111011001100;  % 0x00000ecc  0.05780227854847908 %
0262 : 00000000000000000001001001100100;  % 0x00001264  0.07183773070573807 %
0263 : 00000000000000000001001100100101;  % 0x00001325  0.07478168606758118 %
0264 : 11111111111111111111111100111011;  % 0xffffff3b  -0.002998779993504286 %
0265 : 00000000000000000000110110101001;  % 0x00000da9  0.053354229778051376 %
0266 : 00000000000000000000101101010111;  % 0x00000b57  0.044294148683547974 %
0267 : 11111111111111111111100011000100;  % 0xfffff8c4  -0.028255825862288475 %
0268 : 00000000000000000000110001111110;  % 0x00000c7e  0.04879312962293625 %
0269 : 11111111111111111111111011110100;  % 0xfffffef4  -0.00408436544239521 %
026a : 11111111111111111111101100001011;  % 0xfffffb0b  -0.019365528598427773 %
026b : 00000000000000000000110010110010;  % 0x00000cb2  0.04959497228264809 %
026c : 00000000000000000000011101000011;  % 0x00000743  0.028358833864331245 %
026d : 00000000000000000000010000000101;  % 0x00000405  0.01569536328315735 %
026e : 00000000000000000001110010000000;  % 0x00001c80  0.11133287101984024 %
026f : 00000000000000000001001101000101;  % 0x00001345  0.07527408003807068 %
0270 : 00000000000000000001000001000110;  % 0x00001046  0.06357108056545258 %
0271 : 00000000000000000000100000111011;  % 0x0000083b  0.03215593472123146 %
0272 : 11111111111111111111011011011101;  % 0xfffff6dd  -0.03569567948579788 %
0273 : 00000000000000000001001000010011;  % 0x00001213  0.070595383644104 %
0274 : 11111111111111111111100101111110;  % 0xfffff97e  -0.02542080730199814 %
0275 : 00000000000000000000010010110011;  % 0x000004b3  0.01834946684539318 %
0276 : 11111111111111111111010001100001;  % 0xfffff461  -0.0453885979950428 %
0277 : 00000000000000000000000110010101;  % 0x00000195  0.006182469893246889 %
0278 : 00000000000000000000100111010111;  % 0x000009d7  0.038438357412815094 %
0279 : 11111111111111111111000001110110;  % 0xfffff076  -0.060702115297317505 %
027a : 00000000000000000001000011101111;  % 0x000010ef  0.06614535301923752 %
027b : 00000000000000000000100010010010;  % 0x00000892  0.03348024562001228 %
027c : 00000000000000000000011111100110;  % 0x000007e6  0.030846597626805305 %
027d : 00000000000000000001011111010000;  % 0x000017d0  0.09301627427339554 %
027e : 00000000000000000000100001000101;  % 0x00000845  0.03230218216776848 %
027f : 00000000000000000001001110011111;  % 0x0000139f  0.07664283365011215 %
0280 : 11111111111111111111100101100111;  % 0xfffff967  -0.025773126631975174 %
0281 : 00000000000000000000111110011001;  % 0x00000f99  0.060924138873815536 %
0282 : 11111111111111111111011110000111;  % 0xfffff787  -0.03309231996536255 %
0283 : 11111111111111111110110000011110;  % 0xffffec1e  -0.07767357677221298 %
0284 : 00000000000000000000000110101110;  % 0x000001ae  0.006555274128913879 %
0285 : 00000000000000000000111110110001;  % 0x00000fb1  0.06128775328397751 %
0286 : 11111111111111111111101100000101;  % 0xfffffb05  -0.019450712949037552 %
0287 : 00000000000000000000010111010001;  % 0x000005d1  0.022720729932188988 %
0288 : 11111111111111111111101110100100;  % 0xfffffba4  -0.01702876202762127 %
0289 : 00000000000000000000011100010000;  % 0x00000710  0.027587180957198143 %
028a : 00000000000000000001000000000101;  % 0x00001005  0.0625816360116005 %
028b : 00000000000000000001100110000111;  % 0x00001987  0.09971261769533157 %
028c : 11111111111111111110100011110010;  % 0xffffe8f2  -0.09005413204431534 %
028d : 00000000000000000000111110011111;  % 0x00000f9f  0.06102249398827553 %
028e : 11111111111111111111100100101110;  % 0xfffff92e  -0.026649463921785355 %
028f : 11111111111111111111111111001001;  % 0xffffffc9  -0.000844072550535202 %
0290 : 00000000000000000000001010101001;  % 0x000002a9  0.010385604575276375 %
0291 : 00000000000000000000001000111011;  % 0x0000023b  0.008706266060471535 %
0292 : 11111111111111111111111011010111;  % 0xfffffed7  -0.004530053120106459 %
0293 : 11111111111111111111110111100000;  % 0xfffffde0  -0.00830143690109253 %
0294 : 11111111111111111111111001100110;  % 0xfffffe66  -0.006261626724153757 %
0295 : 11111111111111111111010000111000;  % 0xfffff438  -0.04601670801639557 %
0296 : 00000000000000000000100000001110;  % 0x0000080e  0.0314689576625824 %
0297 : 00000000000000000000101001101101;  % 0x00000a6d  0.040730465203523636 %
0298 : 11111111111111111111101001100010;  % 0xfffffa62  -0.021938342601060867 %
0299 : 00000000000000000000111010000100;  % 0x00000e84  0.056704193353652954 %
029a : 11111111111111111111100101110111;  % 0xfffff977  -0.02552756294608116 %
029b : 11111111111111111111110000011101;  % 0xfffffc1d  -0.015179730951786041 %
029c : 00000000000000000000011110010110;  % 0x00000796  0.02962525002658367 %
029d : 11111111111111111111110100010000;  % 0xfffffd10  -0.011470235884189606 %
029e : 11111111111111111111100101000010;  % 0xfffff942  -0.026334214955568314 %
029f : 00000000000000000000111001100011;  % 0x00000e63  0.05620487779378891 %
02a0 : 11111111111111111111000001110001;  % 0xfffff071  -0.06078152731060982 %
02a1 : 00000000000000000000100000111010;  % 0x0000083a  0.032130151987075806 %
02a2 : 11111111111111111111011111110011;  % 0xfffff7f3  -0.03145339712500572 %
02a3 : 00000000000000000000100010101110;  % 0x000008ae  0.033902451395988464 %
02a4 : 00000000000000000000101101110100;  % 0x00000b74  0.04474543780088425 %
02a5 : 11111111111111111111000101001101;  % 0xfffff14d  -0.057412002235651016 %
02a6 : 00000000000000000000011100100010;  % 0x00000722  0.0278586708009243 %
02a7 : 11111111111111111111001110000001;  % 0xfffff381  -0.04881560802459717 %
02a8 : 00000000000000000000001111101111;  % 0x000003ef  0.015360871329903603 %
02a9 : 00000000000000000000001001111111;  % 0x0000027f  0.009753280319273472 %
02aa : 00000000000000000000000100010111;  % 0x00000117  0.0042502377182245255 %
02ab : 11111111111111111111001011011100;  % 0xfffff2dc  -0.051327794790267944 %
02ac : 00000000000000000000110101001101;  % 0x00000d4d  0.05196242779493332 %
02ad : 00000000000000000000011000101100;  % 0x0000062c  0.024115219712257385 %
02ae : 00000000000000000001000010111011;  % 0x000010bb  0.06535649299621582 %
02af : 11111111111111111111111001100000;  % 0xfffffe60  -0.006345808506011963 %
02b0 : 11111111111111111111011101001110;  % 0xfffff74e  -0.03395981341600418 %
02b1 : 00000000000000000000100010011101;  % 0x0000089d  0.033643729984760284 %
02b2 : 11111111111111111111011011111000;  % 0xfffff6f8  -0.03528260439634323 %
02b3 : 11111111111111111111001011111110;  % 0xfffff2fe  -0.05080929026007652 %
02b4 : 11111111111111111111001011101111;  % 0xfffff2ef  -0.051043473184108734 %
02b5 : 11111111111111111110100101001110;  % 0xffffe94e  -0.08866048604249954 %
02b6 : 00000000000000000000110001001110;  % 0x00000c4e  0.04806831479072571 %
02b7 : 11111111111111111111101100011011;  % 0xfffffb1b  -0.01912054792046547 %
02b8 : 00000000000000000000001100110010;  % 0x00000332  0.012488515116274357 %
02b9 : 11111111111111111111111010010111;  % 0xfffffe97  -0.005513548851013184 %
02ba : 11111111111111111111101011001100;  % 0xfffffacc  -0.020321441814303398 %
02bb : 00000000000000000000001100000101;  % 0x00000305  0.011802338063716888 %
02bc : 00000000000000000000110010010000;  % 0x00000c90  0.04907608777284622 %
02bd : 00000000000000000001001101011001;  % 0x00001359  0.07557099312543869 %
02be : 11111111111111111111110000000010;  % 0xfffffc02  -0.015598887577652931 %
02bf : 00000000000000000000010111000000;  % 0x000005c0  0.02246352657675743 %
02c0 : 00000000000000000000100110110000;  % 0x000009b0  0.03784329071640968 %
02c1 : 11111111111111111111111010001001;  % 0xfffffe89  -0.0057286289520561695 %
02c2 : 00000000000000000000111110101011;  % 0x00000fab  0.061204418540000916 %
02c3 : 11111111111111111111101101110000;  % 0xfffffb70  -0.017818031832575798 %
02c4 : 00000000000000000000000001100011;  % 0x00000063  0.0015179503243416548 %
02c5 : 00000000000000000000000011111110;  % 0x000000fe  0.0038793375715613365 %
02c6 : 00000000000000000001111111011011;  % 0x00001fdb  0.12443061918020248 %
02c7 : 00000000000000000000111101101001;  % 0x00000f69  0.06019165366888046 %
02c8 : 00000000000000000000000010101001;  % 0x000000a9  0.002579786814749241 %
02c9 : 11111111111111111111111000000001;  % 0xfffffe01  -0.007792772259563208 %
02ca : 00000000000000000000011001000000;  % 0x00000640  0.02440871112048626 %
02cb : 00000000000000000001111001110100;  % 0x00001e74  0.11896130442619324 %
02cc : 11111111111111111111000000110110;  % 0xfffff036  -0.061668913811445236 %
02cd : 00000000000000000000000000101010;  % 0x0000002a  0.0006426654872484505 %
02ce : 11111111111111111111010011011001;  % 0xfffff4d9  -0.043569084256887436 %
02cf : 11111111111111111110101101010010;  % 0xffffeb52  -0.08078360557556152 %
02d0 : 11111111111111111111010101111011;  % 0xfffff57b  -0.04108867794275284 %
02d1 : 00000000000000000000010111011111;  % 0x000005df  0.022936811670660973 %
02d2 : 11111111111111111111101110100100;  % 0xfffffba4  -0.01702614314854145 %
02d3 : 00000000000000000000111011111010;  % 0x00000efa  0.058494750410318375 %
02d4 : 00000000000000000001001001011110;  % 0x0000125e  0.07174111157655716 %
02d5 : 11111111111111111111111010100001;  % 0xfffffea1  -0.005349958781152964 %
02d6 : 00000000000000000000110011001001;  % 0x00000cc9  0.0499441921710968 %
02d7 : 00000000000000000001010010100011;  % 0x000014a3  0.08061816543340683 %
02d8 : 00000000000000000000110100110110;  % 0x00000d36  0.05159986764192581 %
02d9 : 00000000000000000000011001111110;  % 0x0000067e  0.02536022663116455 %
02da : 00000000000000000000110101101010;  % 0x00000d6a  0.05240625888109207 %
02db : 00000000000000000000010010011101;  % 0x0000049d  0.018017299473285675 %
02dc : 11111111111111111111000111110110;  % 0xfffff1f6  -0.054835736751556396 %
02dd : 11111111111111111111111010000010;  % 0xfffffe82  -0.005824847146868706 %
02de : 00000000000000000001000001001111;  % 0x0000104f  0.0637081190943718 %
02df : 11111111111111111110110011100011;  % 0xffffece3  -0.07466255128383636 %
02e0 : 00000000000000000000100010101110;  % 0x000008ae  0.03389756754040718 %
02e1 : 11111111111111111111101001000010;  % 0xfffffa42  -0.02243734896183014 %
02e2 : 00000000000000000000011110111010;  % 0x000007ba  0.03018367663025856 %
02e3 : 00000000000000000000001100010111;  % 0x00000317  0.012073935009539127 %
02e4 : 11111111111111111111101111001101;  % 0xfffffbcd  -0.016399065032601357 %
02e5 : 00000000000000000000101111010101;  % 0x00000bd5  0.04622548446059227 %
02e6 : 11111111111111111111001010101110;  % 0xfffff2ae  -0.05203848332166672 %
02e7 : 00000000000000000000110000001110;  % 0x00000c0e  0.04709188640117645 %
02e8 : 00000000000000000001010111111000;  % 0x000015f8  0.08580964058637619 %
02e9 : 00000000000000000000010110100110;  % 0x000005a6  0.022059116512537003 %
02ea : 11111111111111111111000001110001;  % 0xfffff071  -0.060772985219955444 %
02eb : 11111111111111111111111011000010;  % 0xfffffec2  -0.004852666053920984 %
02ec : 00000000000000000000111001111100;  % 0x00000e7c  0.05657539889216423 %
02ed : 00000000000000000000100010100111;  % 0x000008a7  0.03380141407251358 %
02ee : 00000000000000000001000001001010;  % 0x0000104a  0.06363453716039658 %
02ef : 00000000000000000000111010001011;  % 0x00000e8b  0.056807007640600204 %
02f0 : 00000000000000000000010010000001;  % 0x00000481  0.017594099044799805 %
02f1 : 11111111111111111111100111111000;  % 0xfffff9f8  -0.023562226444482803 %
02f2 : 11111111111111111110111001011010;  % 0xffffee5a  -0.06893838942050934 %
02f3 : 11111111111111111111111100011110;  % 0xffffff1e  -0.0034545734524726868 %
02f4 : 11111111111111111111000010000111;  % 0xfffff087  -0.060434870421886444 %
02f5 : 00000000000000000000101010100100;  % 0x00000aa4  0.04156287759542465 %
02f6 : 00000000000000000000000001000010;  % 0x00000042  0.001003362238407135 %
02f7 : 11111111111111111111101011100100;  % 0xfffffae4  -0.019964642822742462 %
02f8 : 00000000000000000000111010011000;  % 0x00000e98  0.057012803852558136 %
02f9 : 11111111111111111111010101111110;  % 0xfffff57e  -0.04104666784405708 %
02fa : 00000000000000000000111101010011;  % 0x00000f53  0.05985511094331741 %
02fb : 00000000000000000001010110101100;  % 0x000015ac  0.0846489667892456 %
02fc : 11111111111111111111011001010001;  % 0xfffff651  -0.037825439125299454 %
02fd : 11111111111111111111110001000000;  % 0xfffffc40  -0.014641460962593555 %
02fe : 00000000000000000000111101110001;  % 0x00000f71  0.06031879037618637 %
02ff : 11111111111111111111111010000110;  % 0xfffffe86  -0.0057689109817147255 %
0300 : 00000000000000000000101010101000;  % 0x00000aa8  0.041619449853897095 %
0301 : 00000000000000000000000011110011;  % 0x000000f3  0.0037066082004457712 %
0302 : 00000000000000000000111110000011;  % 0x00000f83  0.060592371970415115 %
0303 : 00000000000000000001010000010111;  % 0x00001417  0.0784720703959465 %
0304 : 11111111111111111111111111100010;  % 0xffffffe2  -0.0004569742304738611 %
0305 : 11111111111111111111010101101110;  % 0xfffff56e  -0.04129568114876747 %
0306 : 00000000000000000000110101100000;  % 0x00000d60  0.052247319370508194 %
0307 : 11111111111111111111111010010111;  % 0xfffffe97  -0.005502758547663689 %
0308 : 00000000000000000000100001101000;  % 0x00000868  0.03283543139696121 %
0309 : 11111111111111111110111010101111;  % 0xffffeeaf  -0.06764859706163406 %
030a : 11111111111111111110101110110010;  % 0xffffebb2  -0.07932025194168091 %
030b : 00000000000000000000110111000101;  % 0x00000dc5  0.05378685146570206 %
030c : 00000000000000000000011111110111;  % 0x000007f7  0.03111240267753601 %
030d : 11111111111111111110110110001100;  % 0xffffed8c  -0.07207803428173065 %
030e : 00000000000000000000101010010010;  % 0x00000a92  0.04129267483949661 %
030f : 00000000000000000000010000101011;  % 0x0000042b  0.016275733709335327 %
END;
