DEPTH = 10;
WIDTH = 32;
ADDRESS_RADIX = HEX;
DATA_RADIX = BIN;
CONTENT
BEGIN
0000 : 00000000000000000011001100011001;  % 0x00003319  0.19960710406303406 %
0001 : 00000000000000000000110010110111;  % 0x00000cb7  0.049666959792375565 %
0002 : 11111111111111111110000001101000;  % 0xffffe068  -0.12341627478599548 %
0003 : 00000000000000000111001110000101;  % 0x00007385  0.4512481987476349 %
0004 : 11111111111111111110001011101101;  % 0xffffe2ed  -0.11357095837593079 %
0005 : 11111111111111111011101001010111;  % 0xffffba57  -0.2721143364906311 %
0006 : 11111111111111111101001101011101;  % 0xffffd35d  -0.17436109483242035 %
0007 : 00000000000000000000011001101100;  % 0x0000066c  0.025089187547564507 %
0008 : 11111111111111111111001010001100;  % 0xfffff28c  -0.05255447328090668 %
0009 : 00000000000000000101110011100000;  % 0x00005ce0  0.3627970516681671 %
END;
