DEPTH = 10;
WIDTH = 32;
ADDRESS_RADIX = HEX;
DATA_RADIX = BIN;
CONTENT
BEGIN
0000 : 11111111111111111110110000101001;  % 0xffffec29  -0.07750454 %
0001 : 00000000000000000000010111111101;  % 0x000005fd  0.0233908 %
0002 : 11111111111111111111100100000001;  % 0xfffff901  -0.027325459 %
0003 : 11111111111111111111110001001111;  % 0xfffffc4f  -0.014412217 %
0004 : 11111111111111111111000010100000;  % 0xfffff0a0  -0.060058437 %
0005 : 00000000000000000000011101111101;  % 0x0000077d  0.029255547 %
0006 : 11111111111111111111101101100000;  % 0xfffffb60  -0.018068962 %
0007 : 00000000000000000000011011011100;  % 0x000006dc  0.026796505 %
0008 : 00000000000000000000000101110110;  % 0x00000176  0.0057101697 %
0009 : 00000000000000000000111100101111;  % 0x00000f2f  0.05931095 %
END;
