DEPTH = 10;
WIDTH = 32;
ADDRESS_RADIX = HEX;
DATA_RADIX = BIN;
CONTENT
BEGIN
0000 : 11111111111111111000011101111000;  % 0xffff8778  -0.4708181 %
0001 : 11111111111111111011100110111010;  % 0xffffb9ba  -0.27450672 %
0002 : 11111111111111110110110010010001;  % 0xffff6c91  -0.5759125 %
0003 : 11111111111111111110000001101000;  % 0xffffe068  -0.123416275 %
0004 : 11111111111111110101111011001111;  % 0xffff5ecf  -0.62964684 %
0005 : 00000000000000001011000111000011;  % 0x0000b1c3  0.69438434 %
0006 : 00000000000000000011100011101001;  % 0x000038e9  0.22230133 %
0007 : 11111111111111110111111000101111;  % 0xffff7e2f  -0.507088 %
0008 : 11111111111111111001011111010110;  % 0xffff97d6  -0.40688568 %
0009 : 11111111111111111100111110010100;  % 0xffffcf94  -0.18915406 %
END;
