11111111111111111111001000000000
00000000000000000001001100111001
11111111111111111110101110010000
00000000000000000000000101110110
00000000000000000000101000100111
11111111111111111110110001110001
11111111111111111111001101011001
00000000000000000000100110011111
00000000000000000000101001000110
11111111111111111111100011000010
11111111111111111111010000011100
11111111111111111111111010000100
11111111111111111111001011010011
11111111111111111111101001010000
11111111111111111111100101001001
00000000000000000000101010010110
11111111111111111111110101010000
11111111111111111111101111111011
11111111111111111111110100001111
11111111111111111111111010000100
11111111111111111111111001000110
11111111111111111111101011101000
00000000000000000001010110110010
11111111111111111111101100111010
11111111111111111111111000000001
00000000000000000000110110101100
00000000000000000000010110010111
11111111111111111110110011111001
11111111111111111111010111001101
00000000000000000001010100101010
11111111111111111111011101100001
11111111111111111110101101010010
11111111111111111111100010000001
00000000000000000000101000111100
00000000000000000000010000000100
11111111111111111111010000100100
11111111111111111111101101011100
00000000000000000000001000011101
00000000000000000000000010100001
11111111111111111111100011000101
11111111111111111110100110010001
11111111111111111111110110001011
00000000000000000000000010001010
11111111111111111110111001110000
11111111111111111111001111100111
00000000000000000000011011111101
00000000000000000000101111110110
11111111111111111111000110001111
11111111111111111111111010001111
00000000000000000000000101101001
11111111111111111111000001000101
00000000000000000000010011000000
00000000000000000001000011100010
11111111111111111110101000110011
11111111111111111110110111100110
00000000000000000000010111101001
00000000000000000000011000110010
11111111111111111110101010110011
00000000000000000001001110101010
00000000000000000000101110111100
11111111111111111110110011101011
00000000000000000000110111010000
11111111111111111110101101100000
11111111111111111111010011110000
11111111111111111110111111110000
00000000000000000001000101001010
11111111111111111111110110011010
11111111111111111111100000001001
11111111111111111110101100010001
00000000000000000000000100000100
11111111111111111111001011101011
11111111111111111111010110100001
11111111111111111111001000011111
11111111111111111111011000101101
11111111111111111111011010101011
00000000000000000000110100001000
11111111111111111111110100011110
00000000000000000000101010001101
11111111111111111111000110111001
11111111111111111111100100010101
00000000000000000000101000100110
00000000000000000000100010101000
11111111111111111111011101010001
11111111111111111111001001000011
00000000000000000001000110111101
11111111111111111111110000111100
11111111111111111111110011000011
00000000000000000000100000101011
00000000000000000000110111010011
00000000000000000000011111010101
00000000000000000000000110100101
11111111111111111110011111111111
00000000000000000000010011100111
11111111111111111110110000000000
11111111111111111111110010111000
11111111111111111111100111001101
11111111111111111111100100110011
11111111111111111111010001010110
11111111111111111110010100111101
00000000000000000000010001001001
00000000000000000000000011100000
11111111111111111111110100100100
11111111111111111111101010100100
11111111111111111111001001101000
11111111111111111111100001111011
00000000000000000000110101011101
11111111111111111110110100000101
00000000000000000000110110000111
00000000000000000000000010000010
11111111111111111111001011010001
00000000000000000000101100001101
00000000000000000001010110000101
00000000000000000000111101111100
00000000000000000000111010001111
11111111111111111111101100011000
00000000000000000001011000001010
00000000000000000000001001110110
00000000000000000000100001111010
00000000000000000000010101011110
00000000000000000000010011110001
11111111111111111110001101011000
11111111111111111111101010011110
11111111111111111111001110110101
00000000000000000000100011011010
11111111111111111111011011000011
11111111111111111111000001101111
00000000000000000001100001001010
00000000000000000000001011010111
00000000000000000000100001000100
00000000000000000001010000011000
00000000000000000000011111010001
11111111111111111111111111001000
00000000000000000001011110100011
00000000000000000001010001010000
11111111111111111111101010110010
00000000000000000000111001111111
11111111111111111111111111011010
00000000000000000000001100100000
11111111111111111111110101101011
11111111111111111110111101100000
11111111111111111111011001100111
00000000000000000000100001101000
00000000000000000000111000111010
11111111111111111110111101111010
11111111111111111110110100110111
00000000000000000000100010011001
00000000000000000000110111110010
11111111111111111111011011001100
11111111111111111111110110111010
11111111111111111111101000111101
11111111111111111110101010101010
00000000000000000000100100101011
00000000000000000000010001011100
00000000000000000000010100011101
00000000000000000000111111111110
00000000000000000000001101011011
00000000000000000000111000110010
00000000000000000000101111100000
11111111111111111111110100001100
11111111111111111111111110110010
00000000000000000000111010100000
00000000000000000000001000101111
00000000000000000000000010000111
00000000000000000001000001011001
00000000000000000000000111011110
00000000000000000000111001000000
00000000000000000001010000000000
00000000000000000000010011001111
00000000000000000001010011011010
00000000000000000000000000111111
11111111111111111111100001111111
00000000000000000000110010110111
11111111111111111111111001011001
00000000000000000000001110010001
00000000000000000000011111000001
00000000000000000000010100111010
11111111111111111111110001110000
00000000000000000000100011001010
00000000000000000000001011000011
00000000000000000000101010101001
11111111111111111111100010011111
00000000000000000000000001000000
11111111111111111110111100011101
00000000000000000000001001111101
00000000000000000001010001110001
00000000000000000000110010100111
11111111111111111110110101111010
00000000000000000001001000001011
11111111111111111111110000001000
00000000000000000001011111101101
11111111111111111111101000001100
00000000000000000010001100101010
00000000000000000000001011100111
00000000000000000000101100001110
00000000000000000000000000101111
00000000000000000000110000011000
11111111111111111111010101101110
00000000000000000000011011001011
00000000000000000000000101011010
11111111111111111111100001101011
00000000000000000000010010011000
00000000000000000000101011010110
11111111111111111111010101010100
11111111111111111111111101110110
00000000000000000001011110001101
00000000000000000000000101011000
00000000000000000001100001011111
00000000000000000000011001111011
11111111111111111111010000100001
00000000000000000000101110011010
11111111111111111110111111111011
00000000000000000000101001101111
00000000000000000000011111110101
00000000000000000000100001001000
00000000000000000000110100001100
00000000000000000001000111001001
00000000000000000000111111010101
00000000000000000000100001101100
00000000000000000001100110100101
00000000000000000001110101001110
00000000000000000000010100000101
00000000000000000001000111010010
11111111111111111111110110010001
11111111111111111111001111100110
11111111111111111110110011000000
00000000000000000000000001111101
00000000000000000001010101110001
00000000000000000000010101100011
11111111111111111111001000111100
00000000000000000000001011000111
00000000000000000000101110001000
00000000000000000001011001010000
00000000000000000000101100000101
00000000000000000000101010001010
00000000000000000000101001101001
00000000000000000000000110100001
00000000000000000000111010111111
00000000000000000010000111010111
11111111111111111111000110011000
00000000000000000000101001110111
00000000000000000000001110111101
00000000000000000000101011101010
00000000000000000010100001001011
00000000000000000001000100101111
00000000000000000000010010010011
00000000000000000000111111100001
00000000000000000000000111110000
00000000000000000001000000001111
00000000000000000000100011001101
00000000000000000000111010100011
00000000000000000000011010001011
00000000000000000001011000001000
00000000000000000000100010010100
11111111111111111111101111110010
00000000000000000000001111111101
00000000000000000000010001111101
00000000000000000001001001101001
00000000000000000000000111000000
00000000000000000000101001000110
00000000000000000000101011001010
00000000000000000000101000001110
00000000000000000000010011010110
00000000000000000000100010100101
00000000000000000000010010101000
11111111111111111111001111010111
00000000000000000000011011110110
11111111111111111111010110010100
11111111111111111110110101011000
00000000000000000000011110111101
00000000000000000000101100001000
11111111111111111111001110110101
00000000000000000000010010111110
00000000000000000000001001111010
11111111111111111110111101010000
00000000000000000000011111011101
11111111111111111110010000101101
11111111111111111111111001111110
11111111111111111110101111101011
00000000000000000000111111010100
11111111111111111110111001101111
00000000000000000000001110100111
11111111111111111111110110010110
00000000000000000000010011001010
11111111111111111111110010011111
11111111111111111111011000000010
00000000000000000000010101010000
11111111111111111110101010111110
11111111111111111111010100010001
00000000000000000000000100101010
11111111111111111111100000010100
00000000000000000000010011000100
11111111111111111111110101000001
11111111111111111111011001010100
11111111111111111110111010100101
11111111111111111110111000111001
11111111111111111111100011111100
11111111111111111111011101101110
11111111111111111111000111100101
11111111111111111111011011110111
11111111111111111111110001011011
11111111111111111111011000100011
11111111111111111111110001000010
11111111111111111110100110000011
11111111111111111110011110111110
11111111111111111110110111010001
11111111111111111111011000010101
00000000000000000001001001001100
00000000000000000001001101001011
11111111111111111111110000111000
11111111111111111111110011101110
00000000000000000000010011101010
11111111111111111111110110001110
00000000000000000000001010111011
11111111111111111111100001111110
00000000000000000000001010100101
00000000000000000000010111011110
11111111111111111111011110100111
00000000000000000000111101101011
11111111111111111110011100011011
00000000000000000000001001110010
00000000000000000000001011011000
11111111111111111110011101000011
00000000000000000000000110111110
00000000000000000000010000111000
00000000000000000000101010000000
11111111111111111111011000110001
11111111111111111110000101000010
11111111111111111111000011101001
11111111111111111111000100101000
11111111111111111110100010110000
00000000000000000001000011110011
11111111111111111111111000000100
00000000000000000000000000000111
11111111111111111111100110011010
11111111111111111111000000001110
11111111111111111111001101001000
11111111111111111111001111101100
00000000000000000000110001000011
11111111111111111111001011100010
00000000000000000000010110101011
00000000000000000001001011000000
11111111111111111111101100100010
11111111111111111111000001011010
11111111111111111111111010101111
11111111111111111111111100100111
11111111111111111111100010111101
00000000000000000000001001101010
11111111111111111111110101111100
11111111111111111111010101101101
00000000000000000000011111100001
00000000000000000000111001010011
00000000000000000001010100011000
11111111111111111111101100101101
00000000000000000000110001001110
00000000000000000000101010111011
00000000000000000000100000101101
11111111111111111111001101010001
11111111111111111111100100100100
00000000000000000000101001101010
00000000000000000010000011011010
00000000000000000000011111011101
11111111111111111111101000011010
11111111111111111111011010001110
11111111111111111111000011010101
11111111111111111111101111011011
00000000000000000000010001000010
11111111111111111110111010100000
00000000000000000001000110100100
11111111111111111110100100101111
00000000000000000000000011111111
00000000000000000000100100111111
11111111111111111111111101011101
00000000000000000000011101000111
00000000000000000001000001001011
00000000000000000000010111001000
00000000000000000001101110000000
00000000000000000000101110011111
00000000000000000010000000011111
00000000000000000001000001101001
00000000000000000001111010111110
00000000000000000001000000001011
00000000000000000000011010101111
00000000000000000000100001111100
11111111111111111111100100001010
00000000000000000001000111000101
11111111111111111111100011110100
11111111111111111111100100000011
11111111111111111111000000110111
11111111111111111110110001100110
00000000000000000000010110010111
11111111111111111111101100100100
11111111111111111111110010010001
00000000000000000000110100001010
00000000000000000000110100000100
11111111111111111111001100100111
11111111111111111110111101000001
00000000000000000000001011110110
11111111111111111110110001110101
00000000000000000000010001110101
00000000000000000000101001010000
11111111111111111111100100101011
00000000000000000000110001000101
00000000000000000001010110000000
00000000000000000000110110111100
00000000000000000000111011010110
00000000000000000010101110111000
00000000000000000010100101110101
00000000000000000000110000001011
00000000000000000001010101000011
00000000000000000001111101011011
00000000000000000000010000011110
00000000000000000000111111000000
11111111111111111111000000001100
11111111111111111111101001011101
11111111111111111110000110000011
11111111111111111111000111010010
11111111111111111111110100110100
00000000000000000000110010011101
11111111111111111111010101101111
00000000000000000001000001101111
00000000000000000000111010100101
11111111111111111111001111000111
11111111111111111111010011110000
11111111111111111110111101011101
11111111111111111111101101000000
00000000000000000000100111001100
00000000000000000000010001100110
00000000000000000001000111100011
00000000000000000001010001101000
00000000000000000000110110001100
00000000000000000000100001100110
00000000000000000000111000110011
00000000000000000001000011101001
00000000000000000010001010010001
00000000000000000010100001000101
00000000000000000001000000001011
00000000000000000001100000100111
00000000000000000000111111111100
00000000000000000000010100100010
11111111111111111111110110101100
11111111111111111110000011111010
11111111111111111111011101000010
11111111111111111111000101011010
11111111111111111110101011100100
11111111111111111110111010001011
11111111111111111111110001100100
11111111111111111110110100111101
00000000000000000001001100000011
00000000000000000001001110000110
11111111111111111111111011100000
11111111111111111111100010100101
11111111111111111110111110000000
00000000000000000000011000001011
11111111111111111111001100001001
00000000000000000000110000011010
00000000000000000000110011000011
00000000000000000000011010010110
00000000000000000000010100011000
00000000000000000000111010011100
00000000000000000000010011110100
00000000000000000001110100101110
00000000000000000011011100110101
00000000000000000001000100010011
00000000000000000010011011100011
00000000000000000001110000010110
00000000000000000000110100100011
11111111111111111111111000011110
11111111111111111111000010011111
11111111111111111111100110111111
11111111111111111111010111101001
11111111111111111111110000010110
11111111111111111110111001101100
11111111111111111110111111111001
11111111111111111111010000000001
00000000000000000000001111100100
11111111111111111111101000111101
11111111111111111110110001000010
00000000000000000000010010001000
00000000000000000000110111001010
00000000000000000000000011111110
11111111111111111111011010100101
00000000000000000000101010111000
11111111111111111110110001101000
00000000000000000000011100011111
00000000000000000000100010011110
00000000000000000000001000100010
11111111111111111111100001000110
00000000000000000001000000010000
00000000000000000000000101001001
00000000000000000001001111000110
00000000000000000001101100111010
00000000000000000000111110110010
00000000000000000000111000110001
00000000000000000000000111111111
11111111111111111111111100101100
11111111111111111110111111110011
11111111111111111111110010110100
11111111111111111111011100110110
11111111111111111111001000010001
11111111111111111111100000101000
00000000000000000000000111100001
00000000000000000000000111011110
00000000000000000000101110010000
11111111111111111111111110011110
11111111111111111111101110001101
11111111111111111110101010101000
11111111111111111110111100111111
00000000000000000000111110000010
11111111111111111110101100100011
00000000000000000000000000000101
11111111111111111111111000111100
11111111111111111110101110111001
11111111111111111111001010110011
11111111111111111111110100101000
11111111111111111111100110000001
11111111111111111111101000110000
11111111111111111111001001001111
00000000000000000000110000101111
11111111111111111111101111100100
11111111111111111111000001100110
11111111111111111111000010011010
11111111111111111110011100111110
11111111111111111111001001011100
11111111111111111111110100110011
11111111111111111111110110011111
11111111111111111111111000001111
11111111111111111110101110101111
00000000000000000000001101100110
11111111111111111110101100110100
00000000000000000000011001101100
00000000000000000001000010001010
11111111111111111111010111001001
11111111111111111111110011000111
00000000000000000000000011000011
00000000000000000001000101111000
00000000000000000000011000110001
11111111111111111110010110011111
11111111111111111111100011000011
11111111111111111110110010101001
00000000000000000000001010111011
11111111111111111111011010100100
11111111111111111111101111111011
11111111111111111110111100001100
11111111111111111110010000101010
11111111111111111101110110110001
11111111111111111110111100001101
11111111111111111111011110000111
11111111111111111111100100011111
11111111111111111111111011110110
00000000000000000000000110000110
11111111111111111111110110111101
11111111111111111111011010101111
00000000000000000000100101101111
11111111111111111111011111001000
00000000000000000000001011100000
11111111111111111111100001010110
11111111111111111111010100110100
00000000000000000000111111101001
00000000000000000000111010110001
11111111111111111111010100010000
00000000000000000000101101111111
00000000000000000000110101001100
00000000000000000001001010011101
11111111111111111111101001110000
11111111111111111110000011111101
11111111111111111111101010010001
11111111111111111111010110100110
00000000000000000000000101110101
11111111111111111110011111101101
11111111111111111110011000010011
11111111111111111111001000111111
11111111111111111110110001100101
11111111111111111111010000110110
11111111111111111111101100000010
11111111111111111111010011000001
11111111111111111111101110011110
00000000000000000000000111001001
00000000000000000000010101100100
00000000000000000000011010111110
00000000000000000001000011010111
00000000000000000000100101000100
00000000000000000000111001011000
11111111111111111111111011101110
00000000000000000000110101110011
00000000000000000000001001110101
00000000000000000000011110010010
11111111111111111110111111000110
11111111111111111111111001101100
11111111111111111111010100111100
00000000000000000001000111101111
00000000000000000000010001011101
11111111111111111110110110001011
00000000000000000000001101001100
00000000000000000000011011101000
11111111111111111111011100001110
00000000000000000000011000111000
11111111111111111111100101101011
00000000000000000000100001010111
11111111111111111111011001111001
11111111111111111111101100000010
11111111111111111111110101000011
11111111111111111111010111100001
11111111111111111111111110100001
00000000000000000000101110010110
11111111111111111111001111011000
00000000000000000000110110111001
11111111111111111110111101010000
11111111111111111111011111110000
00000000000000000001100011000011
00000000000000000000011101111000
11111111111111111111110010110000
11111111111111111110111110101001
11111111111111111110111101001111
00000000000000000000000101010010
11111111111111111111111110010100
00000000000000000000101101010110
00000000000000000000101111100101
11111111111111111110101010110011
00000000000000000000111100100111
00000000000000000001001010010000
00000000000000000000011001100010
00000000000000000000110100011101
00000000000000000001001000010110
11111111111111111111111011001000
00000000000000000000011101110011
11111111111111111111101101100111
11111111111111111111010110001101
00000000000000000001010000001101
11111111111111111110111011111101
11111111111111111111101110101111
11111111111111111111101110111001
11111111111111111111010011101010
11111111111111111111000101100100
00000000000000000000000111101101
00000000000000000000100001000000
11111111111111111111111111111110
11111111111111111111010111011100
00000000000000000001000100111000
11111111111111111111010111010110
00000000000000000000001000101101
00000000000000000001000100000101
11111111111111111111010101000000
00000000000000000001001000110010
00000000000000000000110010000001
11111111111111111111011011110001
11111111111111111111001111000000
00000000000000000000110101100001
00000000000000000000111010010010
11111111111111111111000111011111
11111111111111111110101111100101
11111111111111111110111000000000
00000000000000000000011011110101
00000000000000000000101010111111
00000000000000000000010010011001
11111111111111111111011001111111
11111111111111111110111111110010
00000000000000000000110101001001
00000000000000000000110000101000
11111111111111111111100000001110
00000000000000000000001010111010
00000000000000000000000101011100
00000000000000000000100101010110
00000000000000000000100000010110
00000000000000000000100100000000
00000000000000000000111110111101
00000000000000000000110101100010
11111111111111111110110101101101
11111111111111111111100001010111
11111111111111111111110101110000
00000000000000000000110101000110
00000000000000000000111010011100
11111111111111111110101000000011
00000000000000000000001000001011
11111111111111111111010100010111
00000000000000000001001111101001
11111111111111111111100000101000
00000000000000000000100110111111
11111111111111111110110011111111
00000000000000000000010110110100
00000000000000000000011011001011
00000000000000000000000100110011
11111111111111111111111110000010
00000000000000000000101100110011
00000000000000000001000000101000
00000000000000000000001101011001
00000000000000000000011001001011
00000000000000000001000001000101
11111111111111111111101110111011
11111111111111111111010100001101
11111111111111111110100111010111
11111111111111111111001101000101
00000000000000000000101110001010
11111111111111111111010110011110
11111111111111111110101111001110
11111111111111111111001111000100
00000000000000000000000100001111
00000000000000000000010001000001
11111111111111111111000001101111
00000000000000000000011000001011
00000000000000000000100101111010
11111111111111111111000011000110
00000000000000000000010111110001
00000000000000000000111001001001
11111111111111111111100001111011
11111111111111111110100101111000
11111111111111111111001101110011
11111111111111111111110001001111
11111111111111111110111011011100
11111111111111111110111110011001
00000000000000000000010010010010
00000000000000000000000100111111
00000000000000000000011100011110
00000000000000000000000011001111
11111111111111111111100100110010
00000000000000000000001101010110
00000000000000000000101000110100
00000000000000000000110011000111
00000000000000000000001000001110
11111111111111111111110110101101
11111111111111111111000000001110
11111111111111111110100100110011
11111111111111111110111000001011
11111111111111111110001111010011
00000000000000000000110111101011
11111111111111111110101011000011
11111111111111111111000010011010
00000000000000000000100010010111
11111111111111111110110010000001
11111111111111111110111000111010
00000000000000000000111011000110
00000000000000000000001001010101
00000000000000000001010100000010
00000000000000000001000101011001
11111111111111111110011111001011
11111111111111111110110011110111
11111111111111111111011111011001
11111111111111111111111001000000
11111111111111111111101100110101
11111111111111111111111011110100
11111111111111111110111100011001
11111111111111111110110001010011
11111111111111111111100100110110
11111111111111111101110000110001
11111111111111111111000011001000
11111111111111111101110011001110
00000000000000000000000100001001
11111111111111111110101111011110
11111111111111111110110111000101
00000000000000000000011011111100
00000000000000000000111100100101
00000000000000000000000010101000
00000000000000000000001010011101
11111111111111111110110011001111
11111111111111111110101001110011
00000000000000000000011011011000
00000000000000000000001001010011
00000000000000000000111010100010
00000000000000000000010010010000
11111111111111111111110111010101
00000000000000000000001110100101
00000000000000000001000111000010
00000000000000000000111011100111
11111111111111111111001101001100
00000000000000000000101110011001
00000000000000000001010111001111
11111111111111111111111001000101
11111111111111111110111010100100
11111111111111111111110001000001
00000000000000000001000000101000
00000000000000000000101101100110
00000000000000000000111011010001
11111111111111111111101000011111
00000000000000000000010111100100
00000000000000000000110000000110
11111111111111111110110001000110
11111111111111111111100101001111
00000000000000000000101101110000
11111111111111111111110000001011
00000000000000000000000110001111
11111111111111111111011010000001
00000000000000000000011000101011
11111111111111111111010100010001
11111111111111111111011010110101
11111111111111111111100111101101
