11111111111111111111001111101101
00000000000000000000111111110000
00000000000000000000100001111110
11111111111111111110110000101001
00000000000000000000111100000010
00000000000000000000001110100110
00000000000000000000110010011111
00000000000000000001010100011011
11111111111111111111010111001001
11111111111111111111100000000101
11111111111111111110110100011100
11111111111111111111011011111100
11111111111111111110110111110111
00000000000000000001010000100000
11111111111111111111100110111010
11111111111111111111101010100111
11111111111111111111111110101100
11111111111111111111011010111011
00000000000000000000010001000011
00000000000000000000110101010110
00000000000000000000010001101110
00000000000000000001011000010011
11111111111111111110110010010110
00000000000000000000001101110110
11111111111111111110111111100010
00000000000000000000101001111011
00000000000000000000100110011011
11111111111111111110100111101000
11111111111111111111010110111101
11111111111111111110111111101100
11111111111111111110101100110011
00000000000000000000110001101000
11111111111111111111101010010000
11111111111111111110101110100101
00000000000000000000010001011000
00000000000000000001010110101100
00000000000000000000101101111001
11111111111111111111101100011110
00000000000000000000011110011101
11111111111111111111101110011001
00000000000000000000101100111001
11111111111111111111001010000110
11111111111111111111001000101110
00000000000000000000011010100111
00000000000000000001001001011000
00000000000000000001001000111110
11111111111111111111101100101111
11111111111111111111001011111000
00000000000000000001001101000100
00000000000000000001010111000001
00000000000000000000010100001100
11111111111111111111000011110011
00000000000000000001001011010001
00000000000000000000010111110101
00000000000000000001010011110101
00000000000000000000010000010000
00000000000000000000100110101101
00000000000000000000000010000101
11111111111111111111011000000001
11111111111111111111110010001011
11111111111111111111101010010101
00000000000000000000000111100100
00000000000000000000110010000111
00000000000000000000011110010001
11111111111111111111001110110010
11111111111111111111011010111011
00000000000000000000011011000110
00000000000000000001000101101011
00000000000000000000000100111110
00000000000000000000111000010101
11111111111111111111000100000011
00000000000000000000110011011100
11111111111111111110110011011100
00000000000000000001010111011011
00000000000000000000111101001001
11111111111111111110111011001010
00000000000000000000000101100001
11111111111111111110110001010101
00000000000000000000100100101000
11111111111111111110111111101100
00000000000000000001001110001111
11111111111111111111010100110110
00000000000000000000110001011011
11111111111111111111000001000001
11111111111111111111101110011111
11111111111111111111010000101101
00000000000000000000010010011010
11111111111111111110100111001010
11111111111111111111000010000101
00000000000000000000111100000010
00000000000000000001001011110100
00000000000000000000011101110101
00000000000000000000010010010101
00000000000000000000110011101101
00000000000000000000110000010011
00000000000000000000101011010101
00000000000000000001110000010000
11111111111111111111100110100011
00000000000000000000101011100101
11111111111111111111110010100011
00000000000000000000101011010110
11111111111111111110111101000111
00000000000000000000000100011110
00000000000000000000000011010101
11111111111111111111001110001011
00000000000000000000011011000000
11111111111111111111011111101101
11111111111111111111100011100110
00000000000000000000011110010010
00000000000000000001000010101000
00000000000000000000010111110110
11111111111111111111001000101000
00000000000000000000010000110111
11111111111111111111001101011011
11111111111111111110111101111110
11111111111111111111111100010000
11111111111111111111000111001101
00000000000000000000101111100010
00000000000000000000100111011111
00000000000000000000011100000000
00000000000000000000110001100001
00000000000000000000110110001011
11111111111111111111111101000001
00000000000000000000100111001110
00000000000000000000111001010110
11111111111111111111110001001011
00000000000000000000111011000001
00000000000000000000010010001110
11111111111111111111101010000111
00000000000000000000100000011011
00000000000000000000001011101000
11111111111111111111000001101000
00000000000000000000100111010110
11111111111111111110111011100111
11111111111111111111110100000001
11111111111111111110101000001101
00000000000000000000001000110011
11111111111111111111000010000000
00000000000000000000100100100010
00000000000000000000110111000110
00000000000000000001001100001100
11111111111111111111000110001010
00000000000000000001011000001100
11111111111111111111010110111111
00000000000000000000011100001111
11111111111111111111001001101111
00000000000000000000010000101001
00000000000000000000110100001011
11111111111111111111101111001000
11111111111111111111000110001011
00000000000000000000100011100101
00000000000000000000011011001111
00000000000000000000011010101100
00000000000000000000010000011000
00000000000000000000101110010101
00000000000000000000000100000011
00000000000000000001011011101110
00000000000000000000000110011011
00000000000000000000000010111100
11111111111111111111100010101000
00000000000000000000100010000000
11111111111111111111011100101010
11111111111111111111111001110010
11111111111111111111100010010000
00000000000000000000110110000000
11111111111111111110100100010010
00000000000000000000000111001111
00000000000000000000001001011000
00000000000000000000100011100111
11111111111111111110101001100111
00000000000000000001001111100001
00000000000000000000110111110001
00000000000000000000110011110011
00000000000000000000000000011001
00000000000000000000111110001000
00000000000000000001100111011101
00000000000000000000110000010010
00000000000000000001010110111110
00000000000000000001010010000111
11111111111111111111110000110111
00000000000000000000010111101001
00000000000000000000001010110000
11111111111111111111110111110110
11111111111111111111110001101111
00000000000000000001010101001100
11111111111111111111100111000100
11111111111111111111011100001001
00000000000000000000000100100010
11111111111111111111110011010110
00000000000000000000111111010011
11111111111111111111011111101110
11111111111111111110011110010010
11111111111111111111111101011011
00000000000000000000001101100100
00000000000000000000100111111000
00000000000000000001000001100100
00000000000000000001010111011001
00000000000000000001011000111001
00000000000000000000001100101101
11111111111111111111111000110110
11111111111111111111110011000110
11111111111111111111111111000101
00000000000000000001110001111001
11111111111111111111011111111110
00000000000000000000101101110011
00000000000000000000001011110010
00000000000000000001000011110100
00000000000000000001001110101111
00000000000000000000000101101000
00000000000000000001010001010010
00000000000000000000101011010000
11111111111111111111110100000001
00000000000000000000000101000101
00000000000000000000011100010011
00000000000000000000000001010011
00000000000000000001000101100000
11111111111111111111110001000100
00000000000000000000010011011000
00000000000000000000111110001011
00000000000000000000011001001101
11111111111111111110111011001001
11111111111111111110111001111000
00000000000000000001010010101101
11111111111111111110101100011001
11111111111111111111001000101010
11111111111111111111000110110011
11111111111111111111111011000001
11111111111111111111010010010101
00000000000000000001000100100110
00000000000000000000111111111101
00000000000000000000100110000101
00000000000000000001010001100111
00000000000000000000111101111100
00000000000000000001000001000001
00000000000000000001011001101010
00000000000000000000101110111011
00000000000000000000000000001011
00000000000000000000011101110111
00000000000000000000111010110100
00000000000000000000100101001000
00000000000000000000001110010111
00000000000000000000011110000000
00000000000000000001000101101000
00000000000000000000011110100110
00000000000000000001000001011000
11111111111111111111100000110101
00000000000000000000000101000011
00000000000000000000010010100110
11111111111111111110000011101000
11111111111111111111011100000100
11111111111111111111100110100100
11111111111111111111001101011010
00000000000000000000110100101101
00000000000000000000101100011001
11111111111111111110110110000001
00000000000000000001001101001100
00000000000000000001101111001111
00000000000000000000110111000000
11111111111111111111100110100100
00000000000000000000011000000100
00000000000000000000101000010000
11111111111111111111111011001001
00000000000000000001001000110001
00000000000000000001000000110010
00000000000000000001001110111001
00000000000000000001000111110010
11111111111111111111110110000100
00000000000000000000100101001000
00000000000000000000110101000100
00000000000000000000010011111100
11111111111111111111111111111000
00000000000000000000001001111001
00000000000000000000001010111001
11111111111111111111100011000001
00000000000000000000100010100000
11111111111111111110111000101111
11111111111111111111100100001101
00000000000000000000000011011011
11111111111111111111000011010100
11111111111111111111100101010101
00000000000000000000001010010010
11111111111111111110111001100101
00000000000000000001000010010100
00000000000000000000111010110111
00000000000000000000011110100111
00000000000000000000001000000000
00000000000000000001011101010110
00000000000000000000010010100010
00000000000000000001000010111001
00000000000000000001000100001001
11111111111111111111101000001110
11111111111111111111100111101011
11111111111111111101101111110100
11111111111111111101101101110100
11111111111111111110111110101100
11111111111111111111110111100001
00000000000000000000010111110100
00000000000000000000101001010101
00000000000000000000001100011011
11111111111111111111110010000100
11111111111111111110111111010111
11111111111111111110100000101010
11111111111111111111110000110011
11111111111111111111001101111111
11111111111111111110111110010001
11111111111111111110111110101001
00000000000000000001000011011001
00000000000000000000100011111010
00000000000000000000100110010010
11111111111111111111101111011001
00000000000000000001000000001100
11111111111111111111111010110111
11111111111111111101111100100011
11111111111111111111000000001000
11111111111111111110100001010111
11111111111111111101111010010101
11111111111111111101101101011010
11111111111111111110100100101110
11111111111111111011101100011111
11111111111111111101100110111000
11111111111111111100011000011010
11111111111111111100111101110011
11111111111111111101100100101010
11111111111111111111010001100000
11111111111111111111101010001011
11111111111111111110110100100010
11111111111111111110100100110101
00000000000000000000100011100111
11111111111111111111110000000010
00000000000000000000100000010001
11111111111111111110110111011110
11111111111111111110011111111100
00000000000000000000000010111011
11111111111111111111001101101001
00000000000000000000000111101001
11111111111111111111110110100110
11111111111111111111110101010010
00000000000000000000010100010110
00000000000000000000111111000010
11111111111111111110001110001001
11111111111111111101100100000101
11111111111111111110001011000010
11111111111111111101011111101011
11111111111111111011101001000001
11111111111111111100100001010100
11111111111111111011100100110101
11111111111111111100101001111011
11111111111111111110001001011110
11111111111111111101101101000010
11111111111111111101111000110101
11111111111111111111011000101110
11111111111111111111100110010101
11111111111111111111010001000110
11111111111111111111110001001011
11111111111111111110111111111111
11111111111111111111100100000000
11111111111111111111010000010110
11111111111111111110011100110111
11111111111111111111100010010011
11111111111111111110110001111010
11111111111111111111101100001000
00000000000000000000100010000101
11111111111111111111010011011011
11111111111111111111110001111001
00000000000000000000111101100001
00000000000000000000010011010111
11111111111111111111010111000111
00000000000000000000000010101111
11111111111111111101101100110010
11111111111111111010110100100100
11111111111111111010101100010111
11111111111111111100001110101000
11111111111111111101001000101101
11111111111111111101110101100011
11111111111111111111101100000100
11111111111111111111000111110101
11111111111111111111100100011000
00000000000000000000001101111010
11111111111111111111111100000010
11111111111111111111000000101101
11111111111111111111101100110011
11111111111111111111010110101011
11111111111111111111111110010100
11111111111111111110101101001111
11111111111111111111010000001110
11111111111111111111001010011001
11111111111111111111001101101100
11111111111111111110100001110100
00000000000000000000010000110000
00000000000000000001001110010101
00000000000000000000010011001010
11111111111111111111110000001100
11111111111111111111100100000000
00000000000000000001001000011000
00000000000000000000101000111010
11111111111111111111101101010101
11111111111111111111011100011110
11111111111111111100101000010111
11111111111111111110111111101010
11111111111111111111000001011010
11111111111111111111100100101110
00000000000000000001100011010000
11111111111111111111111000010000
00000000000000000000100001111011
00000000000000000000100100001111
00000000000000000001000010011000
00000000000000000000010100000111
11111111111111111111110100001001
11111111111111111111101101001100
00000000000000000000111000101111
00000000000000000000000001011100
11111111111111111111011010110111
11111111111111111111010001101010
00000000000000000000100110000010
11111111111111111110100101010000
11111111111111111111101011100101
00000000000000000000101100101001
00000000000000000000000000111110
00000000000000000001000011001101
00000000000000000000010110001111
11111111111111111111000110101000
00000000000000000000111111100100
00000000000000000000101111010101
00000000000000000000100101110011
11111111111111111101110111010111
11111111111111111111111001011000
00000000000000000001010001011000
00000000000000000000101000001001
11111111111111111111111111101001
11111111111111111111100100011100
00000000000000000000100100000001
00000000000000000000001000001101
11111111111111111111101000001101
00000000000000000000111111101001
00000000000000000000110100010010
00000000000000000000000001100010
00000000000000000000101001010011
11111111111111111111100100101011
11111111111111111111110001101011
11111111111111111111101011001100
11111111111111111111001000101011
11111111111111111111011010011101
11111111111111111111011110001001
11111111111111111111101101000101
00000000000000000001111011110101
00000000000000000010010100110111
00000000000000000001011100101111
11111111111111111111000001001101
11111111111111111110101010101101
00000000000000000001001011101000
00000000000000000000011001010110
11111111111111111111100111001001
11111111111111111111000100101111
00000000000000000001000010110011
00000000000000000000110001111110
00000000000000000000000101110110
00000000000000000000001010000101
00000000000000000000000000111011
00000000000000000000100011110000
11111111111111111111110011100011
00000000000000000001100010111000
00000000000000000001101100001100
00000000000000000000011001011111
00000000000000000000011110110011
11111111111111111111111111111100
00000000000000000000101100000110
11111111111111111111111111111100
00000000000000000000100100110110
11111111111111111111011110011011
00000000000000000001110100100100
00000000000000000000001101000110
00000000000000000000010100110001
00000000000000000000110110111101
00000000000000000001011000011011
00000000000000000000110010010111
00000000000000000000100010101000
00000000000000000001010001100110
11111111111111111110100110110111
11111111111111111111100101011100
11111111111111111111110101100111
00000000000000000001101111110011
11111111111111111111101001101111
00000000000000000000111010100001
11111111111111111111100001110010
00000000000000000000011101100111
11111111111111111111110001011011
11111111111111111111111111011010
00000000000000000000101010110010
00000000000000000000001011011001
00000000000000000000110000110101
00000000000000000000110001001110
00000000000000000000110010111011
00000000000000000000010000011001
11111111111111111111111100011100
11111111111111111111111011111010
11111111111111111111101011000000
00000000000000000000001010000111
11111111111111111111100000110100
00000000000000000000011010010011
11111111111111111111100111100111
00000000000000000010000110010000
00000000000000000001111010010001
00000000000000000010001001000011
00000000000000000000011000010111
11111111111111111111011001101010
00000000000000000000011010110010
11111111111111111111001010011110
00000000000000000001001100010011
00000000000000000001000000111111
00000000000000000000111100001010
00000000000000000000001111101110
00000000000000000001001010100111
11111111111111111110111010000111
00000000000000000000000100010010
00000000000000000000011010001111
11111111111111111110100110111000
00000000000000000000111011100111
00000000000000000001001001010010
00000000000000000000010101111100
11111111111111111111110100011011
00000000000000000000010000000110
11111111111111111111110000111100
00000000000000000000111110000001
11111111111111111111111010001010
11111111111111111111001101011101
00000000000000000000010110100100
00000000000000000000100011100111
00000000000000000000000101110110
00000000000000000010011101111011
00000000000000000010111110011010
11111111111111111111100100010100
00000000000000000001001001001110
11111111111111111111101101101001
11111111111111111111100000111000
11111111111111111111101011100011
11111111111111111111010101101011
00000000000000000000101001001101
11111111111111111111110000110011
00000000000000000000000001111010
00000000000000000001010001101011
00000000000000000000111000001011
11111111111111111111110010011110
00000000000000000000110011001100
11111111111111111111110100001110
00000000000000000000100000001110
00000000000000000000110000011101
00000000000000000000011000001100
00000000000000000000101110000101
11111111111111111111110111010111
00000000000000000000111000101011
00000000000000000000001011001010
11111111111111111111011011111010
00000000000000000000110101111001
00000000000000000000000000001101
00000000000000000000111001010001
00000000000000000000111010001100
11111111111111111111110001011000
00000000000000000001100011100110
11111111111111111111001101010000
11111111111111111110101111010111
00000000000000000000100100101101
11111111111111111111101011100111
11111111111111111111010100101100
00000000000000000001100001010000
00000000000000000001110001000011
00000000000000000001101000000000
00000000000000000000100111000111
00000000000000000000110001000110
00000000000000000001010000010000
00000000000000000000100100100101
00000000000000000000001000010011
00000000000000000001000010110111
00000000000000000000000011111010
00000000000000000000100101110001
11111111111111111111100100010100
11111111111111111111111010101010
00000000000000000000001000000010
11111111111111111111000010110111
00000000000000000000010110000111
00000000000000000000010101011100
00000000000000000001000101011101
11111111111111111111011010101100
00000000000000000000000111111100
00000000000000000001000010010101
00000000000000000010010111000110
11111111111111111111110000111110
00000000000000000000100000100111
00000000000000000000111000100101
00000000000000000000001011100100
11111111111111111110110010101001
00000000000000000001000101000011
00000000000000000001010011111010
00000000000000000000111100011011
00000000000000000001011100110101
11111111111111111111010000110101
11111111111111111111111110101101
11111111111111111111011000010111
00000000000000000000010101000010
00000000000000000000010011101000
00000000000000000000001001111000
11111111111111111111010010011011
00000000000000000000000111100000
00000000000000000000001111100110
11111111111111111111111110011011
00000000000000000000000001001010
00000000000000000001010011111000
11111111111111111111111110101101
00000000000000000001101010110111
11111111111111111111111010100000
00000000000000000000111011001100
00000000000000000001001001100100
00000000000000000001001100100101
11111111111111111111111100111011
00000000000000000000110110101001
00000000000000000000101101010111
11111111111111111111100011000100
00000000000000000000110001111110
11111111111111111111111011110100
11111111111111111111101100001011
00000000000000000000110010110010
00000000000000000000011101000011
00000000000000000000010000000101
00000000000000000001110010000000
00000000000000000001001101000101
00000000000000000001000001000110
00000000000000000000100000111011
11111111111111111111011011011101
00000000000000000001001000010011
11111111111111111111100101111110
00000000000000000000010010110011
11111111111111111111010001100001
00000000000000000000000110010101
00000000000000000000100111010111
11111111111111111111000001110110
00000000000000000001000011101111
00000000000000000000100010010010
00000000000000000000011111100110
00000000000000000001011111010000
00000000000000000000100001000101
00000000000000000001001110011111
11111111111111111111100101100111
00000000000000000000111110011001
11111111111111111111011110000111
11111111111111111110110000011110
00000000000000000000000110101110
00000000000000000000111110110001
11111111111111111111101100000101
00000000000000000000010111010001
11111111111111111111101110100100
00000000000000000000011100010000
00000000000000000001000000000101
00000000000000000001100110000111
11111111111111111110100011110010
00000000000000000000111110011111
11111111111111111111100100101110
11111111111111111111111111001001
00000000000000000000001010101001
00000000000000000000001000111011
11111111111111111111111011010111
11111111111111111111110111100000
11111111111111111111111001100110
11111111111111111111010000111000
00000000000000000000100000001110
00000000000000000000101001101101
11111111111111111111101001100010
00000000000000000000111010000100
11111111111111111111100101110111
11111111111111111111110000011101
00000000000000000000011110010110
11111111111111111111110100010000
11111111111111111111100101000010
00000000000000000000111001100011
11111111111111111111000001110001
00000000000000000000100000111010
11111111111111111111011111110011
00000000000000000000100010101110
00000000000000000000101101110100
11111111111111111111000101001101
00000000000000000000011100100010
11111111111111111111001110000001
00000000000000000000001111101111
00000000000000000000001001111111
00000000000000000000000100010111
11111111111111111111001011011100
00000000000000000000110101001101
00000000000000000000011000101100
00000000000000000001000010111011
11111111111111111111111001100000
11111111111111111111011101001110
00000000000000000000100010011101
11111111111111111111011011111000
11111111111111111111001011111110
11111111111111111111001011101111
11111111111111111110100101001110
00000000000000000000110001001110
11111111111111111111101100011011
00000000000000000000001100110010
11111111111111111111111010010111
11111111111111111111101011001100
00000000000000000000001100000101
00000000000000000000110010010000
00000000000000000001001101011001
11111111111111111111110000000010
00000000000000000000010111000000
00000000000000000000100110110000
11111111111111111111111010001001
00000000000000000000111110101011
11111111111111111111101101110000
00000000000000000000000001100011
00000000000000000000000011111110
00000000000000000001111111011011
00000000000000000000111101101001
00000000000000000000000010101001
11111111111111111111111000000001
00000000000000000000011001000000
00000000000000000001111001110100
11111111111111111111000000110110
00000000000000000000000000101010
11111111111111111111010011011001
11111111111111111110101101010010
11111111111111111111010101111011
00000000000000000000010111011111
11111111111111111111101110100100
00000000000000000000111011111010
00000000000000000001001001011110
11111111111111111111111010100001
00000000000000000000110011001001
00000000000000000001010010100011
00000000000000000000110100110110
00000000000000000000011001111110
00000000000000000000110101101010
00000000000000000000010010011101
11111111111111111111000111110110
11111111111111111111111010000010
00000000000000000001000001001111
11111111111111111110110011100011
00000000000000000000100010101110
11111111111111111111101001000010
00000000000000000000011110111010
00000000000000000000001100010111
11111111111111111111101111001101
00000000000000000000101111010101
11111111111111111111001010101110
00000000000000000000110000001110
00000000000000000001010111111000
00000000000000000000010110100110
11111111111111111111000001110001
11111111111111111111111011000010
00000000000000000000111001111100
00000000000000000000100010100111
00000000000000000001000001001010
00000000000000000000111010001011
00000000000000000000010010000001
11111111111111111111100111111000
11111111111111111110111001011010
11111111111111111111111100011110
11111111111111111111000010000111
00000000000000000000101010100100
00000000000000000000000001000010
11111111111111111111101011100100
00000000000000000000111010011000
11111111111111111111010101111110
00000000000000000000111101010011
00000000000000000001010110101100
11111111111111111111011001010001
11111111111111111111110001000000
00000000000000000000111101110001
11111111111111111111111010000110
00000000000000000000101010101000
00000000000000000000000011110011
00000000000000000000111110000011
00000000000000000001010000010111
11111111111111111111111111100010
11111111111111111111010101101110
00000000000000000000110101100000
11111111111111111111111010010111
00000000000000000000100001101000
11111111111111111110111010101111
11111111111111111110101110110010
00000000000000000000110111000101
00000000000000000000011111110111
11111111111111111110110110001100
00000000000000000000101010010010
00000000000000000000010000101011
