DEPTH = 10;
WIDTH = 32;
ADDRESS_RADIX = HEX;
DATA_RADIX = BIN;
CONTENT
BEGIN
0000 : 00000000000000000010000111111010;  % 0x000021fa  0.13271712 %
0001 : 11111111111111111110110110010110;  % 0xffffed96  -0.071928896 %
0002 : 00000000000000000100110101000011;  % 0x00004d43  0.3018064 %
0003 : 11111111111111111101001101011101;  % 0xffffd35d  -0.1743611 %
0004 : 11111111111111111110001001000100;  % 0xffffe244  -0.11615497 %
0005 : 11111111111111111001110111101011;  % 0xffff9deb  -0.38312647 %
0006 : 11111111111111111000101011110111;  % 0xffff8af7  -0.4571702 %
0007 : 11111111111111111111111010100100;  % 0xfffffea4  -0.005306808 %
0008 : 00000000000000001000000110001000;  % 0x00008188  0.5059822 %
0009 : 00000000000000000000100111001100;  % 0x000009cc  0.038275015 %
END;
