DEPTH = 10;
WIDTH = 32;
ADDRESS_RADIX = HEX;
DATA_RADIX = BIN;
CONTENT
BEGIN
0000 : 11111111111111110110111011100110;  % 0xffff6ee6  -0.566801130771637 %
0001 : 00000000000000001001001101001011;  % 0x0000934b  0.5753684639930725 %
0002 : 11111111111111111100111110010100;  % 0xffffcf94  -0.18915405869483948 %
0003 : 00000000000000000011011000101100;  % 0x0000362c  0.21160699427127838 %
0004 : 11111111111111111100001111111111;  % 0xffffc3ff  -0.23438429832458496 %
0005 : 11111111111111111100010111111110;  % 0xffffc5fe  -0.22659297287464142 %
0006 : 00000000000000000000100111001100;  % 0x000009cc  0.038275014609098434 %
0007 : 11111111111111111011110100000011;  % 0xffffbd03  -0.2616741955280304 %
0008 : 00000000000000000000011010001101;  % 0x0000068d  0.02559095062315464 %
0009 : 11111111111111111100001101111000;  % 0xffffc378  -0.23645441234111786 %
END;
