DEPTH = 10;
WIDTH = 32;
ADDRESS_RADIX = HEX;
DATA_RADIX = BIN;
CONTENT
BEGIN
0000 : 00000000000000000000001110100110;  % 0x000003a6  0.014244586 %
0001 : 11111111111111111111000100100101;  % 0xfffff125  -0.058031872 %
0002 : 11111111111111111110111010111111;  % 0xffffeebf  -0.06740273 %
0003 : 00000000000000000000101000000001;  % 0x00000a01  0.039075963 %
0004 : 11111111111111111110111110011110;  % 0xffffef9e  -0.063996635 %
0005 : 00000000000000000000000100011000;  % 0x00000118  0.0042753667 %
0006 : 11111111111111111110111010101011;  % 0xffffeeab  -0.06769736 %
0007 : 11111111111111111110101011011111;  % 0xffffeadf  -0.082529254 %
0008 : 11111111111111111110110001110001;  % 0xffffec71  -0.07640426 %
0009 : 00000000000000000000000001011000;  % 0x00000058  0.0013443604 %
END;
