DEPTH = 784;
WIDTH = 32;
ADDRESS_RADIX = HEX;
DATA_RADIX = BIN;
CONTENT
BEGIN
0000 : 00000000000000000000110110001101;  % 0x00000d8d  0.05293656140565872 %
0001 : 00000000000000000000001000110000;  % 0x00000230  0.00854162871837616 %
0002 : 00000000000000000000010101011110;  % 0x0000055e  0.02095974236726761 %
0003 : 11111111111111111111100100000001;  % 0xfffff901  -0.027325458824634552 %
0004 : 00000000000000000000111000011100;  % 0x00000e1c  0.05511365085840225 %
0005 : 11111111111111111110111010111111;  % 0xffffeebf  -0.06740272790193558 %
0006 : 11111111111111111111001011000011;  % 0xfffff2c3  -0.05170886963605881 %
0007 : 00000000000000000000010010111111;  % 0x000004bf  0.018545053899288177 %
0008 : 00000000000000000000101100100011;  % 0x00000b23  0.043505169451236725 %
0009 : 11111111111111111111001011100010;  % 0xfffff2e2  -0.051242999732494354 %
000a : 11111111111111111111000111111100;  % 0xfffff1fc  -0.05474969744682312 %
000b : 00000000000000000000010011111001;  % 0x000004f9  0.019427873194217682 %
000c : 00000000000000000000101010001010;  % 0x00000a8a  0.041167668998241425 %
000d : 11111111111111111111011000001100;  % 0xfffff60c  -0.038873180747032166 %
000e : 11111111111111111111011100001001;  % 0xfffff709  -0.03502078354358673 %
000f : 11111111111111111111111000011111;  % 0xfffffe1f  -0.007333293557167053 %
0010 : 11111111111111111110101111001001;  % 0xffffebc9  -0.07896506041288376 %
0011 : 11111111111111111111110001100011;  % 0xfffffc63  -0.014112792909145355 %
0012 : 00000000000000000001001101010001;  % 0x00001351  0.07545367628335953 %
0013 : 11111111111111111111010110001000;  % 0xfffff588  -0.04089679941534996 %
0014 : 11111111111111111111111100011110;  % 0xffffff1e  -0.0034466758370399475 %
0015 : 00000000000000000000001010110000;  % 0x000002b0  0.010490469634532928 %
0016 : 00000000000000000000110001011011;  % 0x00000c5b  0.04826910048723221 %
0017 : 00000000000000000000100100111100;  % 0x0000093c  0.036065660417079926 %
0018 : 11111111111111111111010000001100;  % 0xfffff40c  -0.046690620481967926 %
0019 : 11111111111111111111010001010000;  % 0xfffff450  -0.04565863311290741 %
001a : 11111111111111111110101110100101;  % 0xffffeba5  -0.07951480895280838 %
001b : 00000000000000000001000001001001;  % 0x00001049  0.06361708790063858 %
001c : 11111111111111111110101111000100;  % 0xffffebc4  -0.07904406636953354 %
001d : 11111111111111111111001000001111;  % 0xfffff20f  -0.05446051433682442 %
001e : 00000000000000000000100001111111;  % 0x0000087f  0.033185869455337524 %
001f : 00000000000000000000110001011011;  % 0x00000c5b  0.04826650768518448 %
0020 : 00000000000000000000000011110001;  % 0x000000f1  0.003672843100503087 %
0021 : 11111111111111111111101110011001;  % 0xfffffb99  -0.01720123365521431 %
0022 : 00000000000000000001000110110111;  % 0x000011b7  0.06919190287590027 %
0023 : 00000000000000000000100110010100;  % 0x00000994  0.03741025552153587 %
0024 : 00000000000000000000111101100000;  % 0x00000f60  0.060052040964365005 %
0025 : 11111111111111111111101000101001;  % 0xfffffa29  -0.02280634455382824 %
0026 : 00000000000000000000000100100100;  % 0x00000124  0.004456807859241962 %
0027 : 11111111111111111110111101101100;  % 0xffffef6c  -0.06476239860057831 %
0028 : 11111111111111111111000111110111;  % 0xfffff1f7  -0.054823074489831924 %
0029 : 00000000000000000000111100001100;  % 0x00000f0c  0.05877514183521271 %
002a : 11111111111111111111100010111111;  % 0xfffff8bf  -0.02833808958530426 %
002b : 11111111111111111111000011010101;  % 0xfffff0d5  -0.059251610189676285 %
002c : 11111111111111111110110011111110;  % 0xffffecfe  -0.07424794137477875 %
002d : 00000000000000000000000010011110;  % 0x0000009e  0.0024103743489831686 %
002e : 11111111111111111110111010101100;  % 0xffffeeac  -0.06769154220819473 %
002f : 00000000000000000000010001100101;  % 0x00000465  0.01716979593038559 %
0030 : 11111111111111111111001010010111;  % 0xfffff297  -0.05238659307360649 %
0031 : 11111111111111111111010111110011;  % 0xfffff5f3  -0.03925968334078789 %
0032 : 00000000000000000001001000010100;  % 0x00001214  0.07061158120632172 %
0033 : 11111111111111111111110110111110;  % 0xfffffdbe  -0.008814943954348564 %
0034 : 11111111111111111111111000001110;  % 0xfffffe0e  -0.007597662508487701 %
0035 : 00000000000000000000001001101101;  % 0x0000026d  0.009479932487010956 %
0036 : 00000000000000000000000101010110;  % 0x00000156  0.005217835307121277 %
0037 : 11111111111111111111011111110111;  % 0xfffff7f7  -0.031392551958560944 %
0038 : 11111111111111111110110111001011;  % 0xffffedcb  -0.07112022489309311 %
0039 : 00000000000000000000001101011110;  % 0x0000035e  0.013148270547389984 %
003a : 00000000000000000000001010001000;  % 0x00000288  0.009885930456221104 %
003b : 11111111111111111111001110110010;  % 0xfffff3b2  -0.048068299889564514 %
003c : 00000000000000000000101010011110;  % 0x00000a9e  0.04146743193268776 %
003d : 00000000000000000000101101100010;  % 0x00000b62  0.044459134340286255 %
003e : 00000000000000000000111000000110;  % 0x00000e06  0.054780248552560806 %
003f : 11111111111111111110110000001110;  % 0xffffec0e  -0.07791123539209366 %
0040 : 00000000000000000000001101110001;  % 0x00000371  0.013439299538731575 %
0041 : 00000000000000000001000000111111;  % 0x0000103f  0.06345619261264801 %
0042 : 00000000000000000000000000100010;  % 0x00000022  0.0005257494049146771 %
0043 : 11111111111111111111101001010111;  % 0xfffffa57  -0.02210407517850399 %
0044 : 11111111111111111111000001011111;  % 0xfffff05f  -0.06104470044374466 %
0045 : 11111111111111111110111100111101;  % 0xffffef3d  -0.06546948105096817 %
0046 : 00000000000000000000010101100110;  % 0x00000566  0.021085672080516815 %
0047 : 11111111111111111111001011110110;  % 0xfffff2f6  -0.050930045545101166 %
0048 : 00000000000000000000100100111001;  % 0x00000939  0.0360255092382431 %
0049 : 00000000000000000000100111010111;  % 0x000009d7  0.03843684867024422 %
004a : 00000000000000000000111000100010;  % 0x00000e22  0.0552101768553257 %
004b : 11111111111111111111010100011000;  % 0xfffff518  -0.04259635880589485 %
004c : 00000000000000000000100010000111;  % 0x00000887  0.03331045061349869 %
004d : 11111111111111111110101101100110;  % 0xffffeb66  -0.08048005402088165 %
004e : 00000000000000000000011100110001;  % 0x00000731  0.02809513732790947 %
004f : 00000000000000000001010101011101;  % 0x0000155d  0.08345136791467667 %
0050 : 00000000000000000000010101111110;  % 0x0000057e  0.02145743928849697 %
0051 : 11111111111111111111001011011100;  % 0xfffff2dc  -0.05133095383644104 %
0052 : 11111111111111111110111101101001;  % 0xffffef69  -0.06481015682220459 %
0053 : 11111111111111111111001111111010;  % 0xfffff3fa  -0.04696686938405037 %
0054 : 11111111111111111111000010101101;  % 0xfffff0ad  -0.05985980108380318 %
0055 : 00000000000000000001001111110100;  % 0x000013f4  0.07794823497533798 %
0056 : 11111111111111111111011011011010;  % 0xfffff6da  -0.03574042022228241 %
0057 : 00000000000000000000111101110110;  % 0x00000f76  0.06039222702383995 %
0058 : 11111111111111111111111010001010;  % 0xfffffe8a  -0.005707775708287954 %
0059 : 00000000000000000001000000110000;  % 0x00001030  0.06323356181383133 %
005a : 00000000000000000000001011010101;  % 0x000002d5  0.01106754969805479 %
005b : 11111111111111111110110001011001;  % 0xffffec59  -0.07676629722118378 %
005c : 00000000000000000000011011101000;  % 0x000006e8  0.0269819013774395 %
005d : 11111111111111111111001100110010;  % 0xfffff332  -0.05002288147807121 %
005e : 00000000000000000000010101110001;  % 0x00000571  0.021258268505334854 %
005f : 11111111111111111111001101001111;  % 0xfffff34f  -0.049572695046663284 %
0060 : 00000000000000000000001110010100;  % 0x00000394  0.013984117656946182 %
0061 : 11111111111111111111010111100111;  % 0xfffff5e7  -0.03945055976510048 %
0062 : 11111111111111111111010001111111;  % 0xfffff47f  -0.044943150132894516 %
0063 : 00000000000000000001010111011000;  % 0x000015d8  0.08532726019620895 %
0064 : 11111111111111111111010000011011;  % 0xfffff41b  -0.04646977782249451 %
0065 : 00000000000000000000011000010001;  % 0x00000611  0.023696696385741234 %
0066 : 00000000000000000000000010111110;  % 0x000000be  0.0028981268405914307 %
0067 : 00000000000000000001100100111101;  % 0x0000193d  0.09859386831521988 %
0068 : 00000000000000000001000110000111;  % 0x00001187  0.06847196817398071 %
0069 : 00000000000000000001010100000100;  % 0x00001504  0.08208994567394257 %
006a : 00000000000000000000011110001010;  % 0x0000078a  0.02944428101181984 %
006b : 00000000000000000001011001001110;  % 0x0000164e  0.08712399750947952 %
006c : 11111111111111111111001101101000;  % 0xfffff368  -0.04919390380382538 %
006d : 11111111111111111111100001000111;  % 0xfffff847  -0.030171023681759834 %
006e : 11111111111111111111010000111011;  % 0xfffff43b  -0.04597318917512894 %
006f : 11111111111111111111110010011100;  % 0xfffffc9c  -0.013237595558166504 %
0070 : 11111111111111111111111111111010;  % 0xfffffffa  -9.492039680480957e-05 %
0071 : 11111111111111111111110011110101;  % 0xfffffcf5  -0.011885011568665504 %
0072 : 00000000000000000000101001010110;  % 0x00000a56  0.04036987945437431 %
0073 : 11111111111111111110111111110011;  % 0xffffeff3  -0.0627044215798378 %
0074 : 11111111111111111111010011010100;  % 0xfffff4d4  -0.04364464432001114 %
0075 : 00000000000000000000011000111011;  % 0x0000063b  0.02433962933719158 %
0076 : 11111111111111111110100111101011;  % 0xffffe9eb  -0.0862535759806633 %
0077 : 00000000000000000000000001100011;  % 0x00000063  0.0015031934017315507 %
0078 : 11111111111111111110100010010110;  % 0xffffe896  -0.09145991504192352 %
0079 : 11111111111111111110001111110101;  % 0xffffe3f5  -0.10954494774341583 %
007a : 11111111111111111110011111001011;  % 0xffffe7cb  -0.0945531353354454 %
007b : 00000000000000000000101101011010;  % 0x00000b5a  0.04433858394622803 %
007c : 11111111111111111110101010011100;  % 0xffffea9c  -0.08356233686208725 %
007d : 00000000000000000000001010001001;  % 0x00000289  0.009903963655233383 %
007e : 11111111111111111110101000111100;  % 0xffffea3c  -0.08502243459224701 %
007f : 00000000000000000000101110100010;  % 0x00000ba2  0.045445650815963745 %
0080 : 11111111111111111111101110101111;  % 0xfffffbaf  -0.0168605986982584 %
0081 : 00000000000000000000010011000000;  % 0x000004c0  0.018558967858552933 %
0082 : 00000000000000000000011010010001;  % 0x00000691  0.025645067915320396 %
0083 : 11111111111111111111101100010100;  % 0xfffffb14  -0.019225949421525 %
0084 : 11111111111111111111010001011001;  % 0xfffff459  -0.04551134631037712 %
0085 : 00000000000000000001001100000011;  % 0x00001303  0.07425891607999802 %
0086 : 00000000000000000001000001111010;  % 0x0000107a  0.06435742229223251 %
0087 : 00000000000000000000010111011100;  % 0x000005dc  0.022880563512444496 %
0088 : 00000000000000000010000010001110;  % 0x0000208e  0.12716343998908997 %
0089 : 00000000000000000000101011111001;  % 0x00000af9  0.04286431521177292 %
008a : 00000000000000000000110000010100;  % 0x00000c14  0.047175511717796326 %
008b : 11111111111111111111011001101100;  % 0xfffff66c  -0.03742009773850441 %
008c : 00000000000000000001001001100100;  % 0x00001264  0.07183165103197098 %
008d : 11111111111111111111111110111010;  % 0xffffffba  -0.0010623931884765625 %
008e : 00000000000000000000111001001000;  % 0x00000e48  0.05578172206878662 %
008f : 11111111111111111110101100001011;  % 0xffffeb0b  -0.08186272531747818 %
0090 : 11111111111111111111110001001111;  % 0xfffffc4f  -0.014415290206670761 %
0091 : 11111111111111111110100010101001;  % 0xffffe8a9  -0.09117577224969864 %
0092 : 00000000000000000000000111011000;  % 0x000001d8  0.007194758392870426 %
0093 : 11111111111111111110011011111100;  % 0xffffe6fc  -0.09771031141281128 %
0094 : 00000000000000000000000011010000;  % 0x000000d0  0.003171956865116954 %
0095 : 11111111111111111111010100111001;  % 0xfffff539  -0.042101554572582245 %
0096 : 00000000000000000000000011000010;  % 0x000000c2  0.002953347284346819 %
0097 : 00000000000000000000100011001011;  % 0x000008cb  0.03434930369257927 %
0098 : 11111111111111111110110001110110;  % 0xffffec76  -0.07631853222846985 %
0099 : 11111111111111111111111000011100;  % 0xfffffe1c  -0.0073905810713768005 %
009a : 00000000000000000000100001100100;  % 0x00000864  0.032777588814496994 %
009b : 11111111111111111111011010110010;  % 0xfffff6b2  -0.03634928911924362 %
009c : 00000000000000000000000000111110;  % 0x0000003e  0.0009455286199226975 %
009d : 00000000000000000000101010000110;  % 0x00000a86  0.04110915958881378 %
009e : 00000000000000000000011011000010;  % 0x000006c2  0.02639157511293888 %
009f : 00000000000000000000000100001011;  % 0x0000010b  0.004079101607203484 %
00a0 : 00000000000000000000101011011011;  % 0x00000adb  0.042401187121868134 %
00a1 : 00000000000000000000100100100110;  % 0x00000926  0.03572878986597061 %
00a2 : 00000000000000000000001111010101;  % 0x000003d5  0.014972951263189316 %
00a3 : 00000000000000000000100010111000;  % 0x000008b8  0.034061141312122345 %
00a4 : 00000000000000000001000011110100;  % 0x000010f4  0.06621714681386948 %
00a5 : 00000000000000000000001011111010;  % 0x000002fa  0.011633994057774544 %
00a6 : 00000000000000000001100000011001;  % 0x00001819  0.09413371235132217 %
00a7 : 00000000000000000000111110000011;  % 0x00000f83  0.060593798756599426 %
00a8 : 11111111111111111111001110001101;  % 0xfffff38d  -0.0486350879073143 %
00a9 : 00000000000000000000001010110010;  % 0x000002b2  0.010535931214690208 %
00aa : 00000000000000000000011001100011;  % 0x00000663  0.02495078183710575 %
00ab : 11111111111111111111111101000010;  % 0xffffff42  -0.0028966960962861776 %
00ac : 11111111111111111111110101001001;  % 0xfffffd49  -0.010608464479446411 %
00ad : 11111111111111111111001011101101;  % 0xfffff2ed  -0.05106886848807335 %
00ae : 11111111111111111111100011001100;  % 0xfffff8cc  -0.028141813352704048 %
00af : 11111111111111111111000101011101;  % 0xfffff15d  -0.057174403220415115 %
00b0 : 11111111111111111111100001010010;  % 0xfffff852  -0.030003851279616356 %
00b1 : 00000000000000000000001111100100;  % 0x000003e4  0.015199429355561733 %
00b2 : 11111111111111111111011000110011;  % 0xfffff633  -0.03827958554029465 %
00b3 : 00000000000000000000100111101001;  % 0x000009e9  0.03871222957968712 %
00b4 : 11111111111111111111100001111010;  % 0xfffff87a  -0.029393097385764122 %
00b5 : 11111111111111111111111010000110;  % 0xfffffe86  -0.00576882204040885 %
00b6 : 11111111111111111111001011001100;  % 0xfffff2cc  -0.051580555737018585 %
00b7 : 11111111111111111111111011100111;  % 0xfffffee7  -0.004290109034627676 %
00b8 : 00000000000000000000000110111111;  % 0x000001bf  0.006820857524871826 %
00b9 : 00000000000000000000000101100111;  % 0x00000167  0.005471864715218544 %
00ba : 11111111111111111111010001000010;  % 0xfffff442  -0.04587247222661972 %
00bb : 00000000000000000001010001101101;  % 0x0000146d  0.0797862559556961 %
00bc : 00000000000000000000000010011011;  % 0x0000009b  0.0023629243951290846 %
00bd : 00000000000000000000101111001001;  % 0x00000bc9  0.04603724181652069 %
00be : 00000000000000000001001001000101;  % 0x00001245  0.07136142998933792 %
00bf : 00000000000000000001011001000100;  % 0x00001644  0.08697079122066498 %
00c0 : 00000000000000000011000110010100;  % 0x00003194  0.19366192817687988 %
00c1 : 00000000000000000001001010101001;  % 0x000012a9  0.0728931874036789 %
00c2 : 00000000000000000001001111101100;  % 0x000013ec  0.07781295478343964 %
00c3 : 11111111111111111111001001111010;  % 0xfffff27a  -0.052827272564172745 %
00c4 : 11111111111111111111110001010100;  % 0xfffffc54  -0.01433735340833664 %
00c5 : 00000000000000000000101001111111;  % 0x00000a7f  0.04099326208233833 %
00c6 : 11111111111111111111111010000100;  % 0xfffffe84  -0.005791350733488798 %
00c7 : 00000000000000000000000111011011;  % 0x000001db  0.00724111869931221 %
00c8 : 11111111111111111111011101101000;  % 0xfffff768  -0.033573172986507416 %
00c9 : 11111111111111111110110011001111;  % 0xffffeccf  -0.07496798783540726 %
00ca : 11111111111111111111000111100100;  % 0xfffff1e4  -0.05510732904076576 %
00cb : 11111111111111111111011001111101;  % 0xfffff67d  -0.037154972553253174 %
00cc : 00000000000000000000111100000111;  % 0x00000f07  0.058694809675216675 %
00cd : 11111111111111111111110111000011;  % 0xfffffdc3  -0.008745296858251095 %
00ce : 00000000000000000001010001101100;  % 0x0000146c  0.07977772504091263 %
00cf : 11111111111111111111100111011101;  % 0xfffff9dd  -0.023971131071448326 %
00d0 : 00000000000000000000010010001101;  % 0x0000048d  0.017775926738977432 %
00d1 : 11111111111111111111010000100000;  % 0xfffff420  -0.046380531042814255 %
00d2 : 00000000000000000000010110000001;  % 0x00000581  0.021501176059246063 %
00d3 : 11111111111111111111111010001101;  % 0xfffffe8d  -0.005658274050801992 %
00d4 : 11111111111111111111111010111111;  % 0xfffffebf  -0.004892583470791578 %
00d5 : 00000000000000000000100011010001;  % 0x000008d1  0.03443746268749237 %
00d6 : 00000000000000000000100110110111;  % 0x000009b7  0.03794588893651962 %
00d7 : 11111111111111111111110101000010;  % 0xfffffd42  -0.010715829208493233 %
00d8 : 00000000000000000001000100111000;  % 0x00001138  0.06726399064064026 %
00d9 : 11111111111111111111111001001110;  % 0xfffffe4e  -0.006628050003200769 %
00da : 00000000000000000001011011000111;  % 0x000016c7  0.0889720693230629 %
00db : 00000000000000000010001100100110;  % 0x00002326  0.1373029351234436 %
00dc : 00000000000000000001111101010000;  % 0x00001f50  0.12231781333684921 %
00dd : 00000000000000000010001110000111;  % 0x00002387  0.1387748271226883 %
00de : 11111111111111111111101110011010;  % 0xfffffb9a  -0.017175927758216858 %
00df : 11111111111111111111111011011011;  % 0xfffffedb  -0.004470518324524164 %
00e0 : 00000000000000000001010010010111;  % 0x00001497  0.08042909950017929 %
00e1 : 00000000000000000001010011110010;  % 0x000014f2  0.08181246370077133 %
00e2 : 11111111111111111111001011001110;  % 0xfffff2ce  -0.051545821130275726 %
00e3 : 00000000000000000000110000101110;  % 0x00000c2e  0.04757426679134369 %
00e4 : 11111111111111111110101001001011;  % 0xffffea4b  -0.08479968458414078 %
00e5 : 11111111111111111111101110111010;  % 0xfffffbba  -0.01668691076338291 %
00e6 : 00000000000000000000101011010011;  % 0x00000ad3  0.04227769002318382 %
00e7 : 11111111111111111111100000111001;  % 0xfffff839  -0.030386632308363914 %
00e8 : 00000000000000000000100001100111;  % 0x00000867  0.03282301500439644 %
00e9 : 11111111111111111111100110000101;  % 0xfffff985  -0.025316452607512474 %
00ea : 00000000000000000000001011101100;  % 0x000002ec  0.011406062170863152 %
00eb : 00000000000000000000001001011101;  % 0x0000025d  0.00923431571573019 %
00ec : 11111111111111111111110010110011;  % 0xfffffcb3  -0.012887381948530674 %
00ed : 00000000000000000001000011011001;  % 0x000010d9  0.06580819189548492 %
00ee : 11111111111111111111001111110100;  % 0xfffff3f4  -0.047056589275598526 %
00ef : 11111111111111111111110111100000;  % 0xfffffde0  -0.008306802250444889 %
00f0 : 00000000000000000000100101110111;  % 0x00000977  0.03697635978460312 %
00f1 : 00000000000000000000100011000111;  % 0x000008c7  0.03429234400391579 %
00f2 : 00000000000000000001011111111010;  % 0x000017fa  0.09366210550069809 %
00f3 : 00000000000000000001010110001010;  % 0x0000158a  0.08413473516702652 %
00f4 : 00000000000000000001000101110101;  % 0x00001175  0.06819372624158859 %
00f5 : 00000000000000000001010101000010;  % 0x00001542  0.0830438956618309 %
00f6 : 00000000000000000000100101001111;  % 0x0000094f  0.03636102005839348 %
00f7 : 00000000000000000010011001110010;  % 0x00002672  0.15017960965633392 %
00f8 : 00000000000000000011100111010101;  % 0x000039d5  0.225905641913414 %
00f9 : 00000000000000000010101101100000;  % 0x00002b60  0.16942913830280304 %
00fa : 00000000000000000000001111110001;  % 0x000003f1  0.015394147485494614 %
00fb : 11111111111111111111101101000000;  % 0xfffffb40  -0.018555156886577606 %
00fc : 00000000000000000000011010000100;  % 0x00000684  0.02545887976884842 %
00fd : 11111111111111111110101111010100;  % 0xffffebd4  -0.07879038900136948 %
00fe : 11111111111111111111100111101101;  % 0xfffff9ed  -0.02372288517653942 %
00ff : 11111111111111111110101011001111;  % 0xffffeacf  -0.08278391510248184 %
0100 : 11111111111111111111111010111010;  % 0xfffffeba  -0.004970594774931669 %
0101 : 11111111111111111110010001100001;  % 0xffffe461  -0.10788887739181519 %
0102 : 11111111111111111111110011100000;  % 0xfffffce0  -0.012208222411572933 %
0103 : 11111111111111111111101001111111;  % 0xfffffa7f  -0.02150205709040165 %
0104 : 00000000000000000000010110110111;  % 0x000005b7  0.02232900634407997 %
0105 : 11111111111111111111100100111011;  % 0xfffff93b  -0.026442186906933784 %
0106 : 00000000000000000000000000010101;  % 0x00000015  0.0003133107675239444 %
0107 : 00000000000000000000100001010101;  % 0x00000855  0.03254574537277222 %
0108 : 00000000000000000000001111000101;  % 0x000003c5  0.014720047824084759 %
0109 : 11111111111111111111111101101101;  % 0xffffff6d  -0.0022394449915736914 %
010a : 11111111111111111111011011101111;  % 0xfffff6ef  -0.035414814949035645 %
010b : 11111111111111111111010011110011;  % 0xfffff4f3  -0.04316900297999382 %
010c : 11111111111111111110111001001011;  % 0xffffee4b  -0.06916406005620956 %
010d : 11111111111111111111101100000110;  % 0xfffffb06  -0.019446779042482376 %
010e : 11111111111111111111011011000001;  % 0xfffff6c1  -0.03611600771546364 %
010f : 00000000000000000000010000001011;  % 0x0000040b  0.015800269320607185 %
0110 : 00000000000000000001011010000100;  % 0x00001684  0.08795192092657089 %
0111 : 00000000000000000001011110010011;  % 0x00001793  0.09209194779396057 %
0112 : 00000000000000000001111011000100;  % 0x00001ec4  0.12017915397882462 %
0113 : 00000000000000000000111011010010;  % 0x00000ed2  0.057885728776454926 %
0114 : 00000000000000000100100101011000;  % 0x00004958  0.28650155663490295 %
0115 : 00000000000000000010011000101001;  % 0x00002629  0.149065300822258 %
0116 : 00000000000000000001010101000100;  % 0x00001544  0.08307161182165146 %
0117 : 00000000000000000000001011101110;  % 0x000002ee  0.011436854489147663 %
0118 : 11111111111111111110110011111111;  % 0xffffecff  -0.07422756403684616 %
0119 : 11111111111111111111010111011110;  % 0xfffff5de  -0.03957810997962952 %
011a : 00000000000000000000010111010111;  % 0x000005d7  0.022807616740465164 %
011b : 11111111111111111111111001010011;  % 0xfffffe53  -0.0065444353967905045 %
011c : 11111111111111111111000001000000;  % 0xfffff040  -0.061516258865594864 %
011d : 11111111111111111111111111001000;  % 0xffffffc8  -0.0008534897933714092 %
011e : 11111111111111111110100001000011;  % 0xffffe843  -0.09273508191108704 %
011f : 00000000000000000000011011101011;  % 0x000006eb  0.02702578902244568 %
0120 : 00000000000000000000000011110011;  % 0x000000f3  0.0037049029488116503 %
0121 : 00000000000000000000100111110110;  % 0x000009f6  0.03891177475452423 %
0122 : 00000000000000000000001001100000;  % 0x00000260  0.009271586313843727 %
0123 : 11111111111111111111111100101000;  % 0xffffff28  -0.003290759166702628 %
0124 : 11111111111111111111101010110101;  % 0xfffffab5  -0.020682036876678467 %
0125 : 00000000000000000000000000001101;  % 0x0000000d  0.00019382627215236425 %
0126 : 11111111111111111111010100011111;  % 0xfffff51f  -0.04249883443117142 %
0127 : 11111111111111111111110101100100;  % 0xfffffd64  -0.01019367016851902 %
0128 : 11111111111111111110011101011010;  % 0xffffe75a  -0.09628775715827942 %
0129 : 11111111111111111101010111101010;  % 0xffffd5ea  -0.16439299285411835 %
012a : 11111111111111111100111011111000;  % 0xffffcef8  -0.19152285158634186 %
012b : 11111111111111111100000111110010;  % 0xffffc1f2  -0.24239465594291687 %
012c : 11111111111111111101001100010100;  % 0xffffd314  -0.17548254132270813 %
012d : 11111111111111111110001101100001;  % 0xffffe361  -0.11180266737937927 %
012e : 11111111111111111110001100000011;  % 0xffffe303  -0.11322939395904541 %
012f : 11111111111111111101111100100011;  % 0xffffdf23  -0.12837079167366028 %
0130 : 00000000000000000000011011110001;  % 0x000006f1  0.02711743302643299 %
0131 : 00000000000000000000111101100010;  % 0x00000f62  0.060086674988269806 %
0132 : 11111111111111111111110111100110;  % 0xfffffde6  -0.008216280490159988 %
0133 : 00000000000000000000100001000110;  % 0x00000846  0.03231562301516533 %
0134 : 11111111111111111111001101000000;  % 0xfffff340  -0.0498085655272007 %
0135 : 00000000000000000001001001001110;  % 0x0000124e  0.07150161266326904 %
0136 : 11111111111111111110111100011001;  % 0xffffef19  -0.0660257339477539 %
0137 : 11111111111111111111101111010000;  % 0xfffffbd0  -0.016354044899344444 %
0138 : 11111111111111111111010011010100;  % 0xfffff4d4  -0.04364180937409401 %
0139 : 11111111111111111111110010001111;  % 0xfffffc8f  -0.013444669544696808 %
013a : 11111111111111111111011101110110;  % 0xfffff776  -0.03335610777139664 %
013b : 00000000000000000000000001000011;  % 0x00000043  0.0010267844190821052 %
013c : 11111111111111111111101001100101;  % 0xfffffa65  -0.021894851699471474 %
013d : 11111111111111111111101011001001;  % 0xfffffac9  -0.020372390747070312 %
013e : 11111111111111111111010101000111;  % 0xfffff547  -0.04188018664717674 %
013f : 00000000000000000000000000010110;  % 0x00000016  0.0003414351958781481 %
0140 : 11111111111111111111101100011100;  % 0xfffffb1c  -0.019101988524198532 %
0141 : 00000000000000000000101011001100;  % 0x00000acc  0.04218286648392677 %
0142 : 11111111111111111111111101011110;  % 0xffffff5e  -0.0024792677722871304 %
0143 : 11111111111111111110111101101110;  % 0xffffef6e  -0.0647222250699997 %
0144 : 11111111111111111111000100101101;  % 0xfffff12d  -0.05790325626730919 %
0145 : 11111111111111111110001110001111;  % 0xffffe38f  -0.11109258979558945 %
0146 : 11111111111111111101000010011110;  % 0xffffd09e  -0.1850886195898056 %
0147 : 11111111111111111010110010010000;  % 0xffffac90  -0.32593241333961487 %
0148 : 11111111111111111000100011100100;  % 0xffff88e4  -0.4652763307094574 %
0149 : 11111111111111111000011111110000;  % 0xffff87f0  -0.46898844838142395 %
014a : 11111111111111111011010001101011;  % 0xffffb46b  -0.29524359107017517 %
014b : 11111111111111111011010101011111;  % 0xffffb55f  -0.29152169823646545 %
014c : 11111111111111111100110101110011;  % 0xffffcd73  -0.19746530055999756 %
014d : 11111111111111111110111100110010;  % 0xffffef32  -0.06563877314329147 %
014e : 00000000000000000000010010100000;  % 0x000004a0  0.01806274987757206 %
014f : 11111111111111111111000100111000;  % 0xfffff138  -0.05773359537124634 %
0150 : 00000000000000000001010011001110;  % 0x000014ce  0.08126824349164963 %
0151 : 11111111111111111111000110000010;  % 0xfffff182  -0.056606221944093704 %
0152 : 11111111111111111110110110111000;  % 0xffffedb8  -0.07140740007162094 %
0153 : 00000000000000000000000001000000;  % 0x00000040  0.0009695730987004936 %
0154 : 11111111111111111111011001101011;  % 0xfffff66b  -0.03743349388241768 %
0155 : 00000000000000000001000101001101;  % 0x0000114d  0.06757742166519165 %
0156 : 00000000000000000001001110011010;  % 0x0000139a  0.07656554132699966 %
0157 : 00000000000000000000001100010110;  % 0x00000316  0.012057570740580559 %
0158 : 11111111111111111111111110000001;  % 0xffffff81  -0.0019439393654465675 %
0159 : 11111111111111111111111010100101;  % 0xfffffea5  -0.005300894379615784 %
015a : 00000000000000000000011001111101;  % 0x0000067d  0.02534402348101139 %
015b : 00000000000000000000011101011011;  % 0x0000075b  0.028734229505062103 %
015c : 11111111111111111111101010110011;  % 0xfffffab3  -0.020704830065369606 %
015d : 00000000000000000000011010011000;  % 0x00000698  0.025764090940356255 %
015e : 11111111111111111111110001110110;  % 0xfffffc76  -0.013817253522574902 %
015f : 11111111111111111111100001100110;  % 0xfffff866  -0.029688017442822456 %
0160 : 11111111111111111111001010100011;  % 0xfffff2a3  -0.05220193415880203 %
0161 : 11111111111111111111110110011011;  % 0xfffffd9b  -0.009354622103273869 %
0162 : 00000000000000000000100001101001;  % 0x00000869  0.03285054862499237 %
0163 : 11111111111111111110111001101010;  % 0xffffee6a  -0.06870222091674805 %
0164 : 11111111111111111110000010011001;  % 0xffffe099  -0.12266106903553009 %
0165 : 11111111111111111011010000101100;  % 0xffffb42c  -0.2962111532688141 %
0166 : 11111111111111111011101111010100;  % 0xffffbbd4  -0.26629987359046936 %
0167 : 11111111111111111011100110011110;  % 0xffffb99e  -0.27492663264274597 %
0168 : 11111111111111111101010100010101;  % 0xffffd515  -0.1676444411277771 %
0169 : 11111111111111111110001111110101;  % 0xffffe3f5  -0.10954844951629639 %
016a : 00000000000000000001001101000000;  % 0x00001340  0.07519577443599701 %
016b : 11111111111111111111001000000001;  % 0xfffff201  -0.05467674881219864 %
016c : 11111111111111111111110001001100;  % 0xfffffc4c  -0.014465280808508396 %
016d : 11111111111111111111101111101010;  % 0xfffffbea  -0.01596461609005928 %
016e : 00000000000000000000001101111001;  % 0x00000379  0.013566634617745876 %
016f : 00000000000000000000101110001101;  % 0x00000b8d  0.04512590542435646 %
0170 : 11111111111111111111111111010110;  % 0xffffffd6  -0.0006444168975576758 %
0171 : 11111111111111111111101110101001;  % 0xfffffba9  -0.016956396400928497 %
0172 : 00000000000000000000010101110010;  % 0x00000572  0.021276073530316353 %
0173 : 11111111111111111111110000001001;  % 0xfffffc09  -0.015484306029975414 %
0174 : 00000000000000000000010110100100;  % 0x000005a4  0.02203093096613884 %
0175 : 11111111111111111111110010111000;  % 0xfffffcb8  -0.012824133969843388 %
0176 : 00000000000000000000011111111101;  % 0x000007fd  0.031199660152196884 %
0177 : 00000000000000000000110100011101;  % 0x00000d1d  0.05122493952512741 %
0178 : 00000000000000000000110001010010;  % 0x00000c52  0.04812474176287651 %
0179 : 00000000000000000000010101001111;  % 0x0000054f  0.02072981372475624 %
017a : 00000000000000000000101110010101;  % 0x00000b95  0.04523725435137749 %
017b : 11111111111111111111001101000110;  % 0xfffff346  -0.04971673712134361 %
017c : 11111111111111111111011010110100;  % 0xfffff6b4  -0.03631765767931938 %
017d : 00000000000000000000011100111100;  % 0x0000073c  0.028263971209526062 %
017e : 11111111111111111111011101000001;  % 0xfffff741  -0.03416123613715172 %
017f : 00000000000000000000111101010010;  % 0x00000f52  0.05984330177307129 %
0180 : 00000000000000000000101111000101;  % 0x00000bc5  0.045968588441610336 %
0181 : 11111111111111111110110011010010;  % 0xffffecd2  -0.07492226362228394 %
0182 : 11111111111111111100111111010110;  % 0xffffcfd6  -0.18814042210578918 %
0183 : 11111111111111111101011111100100;  % 0xffffd7e4  -0.15667659044265747 %
0184 : 11111111111111111110000000110011;  % 0xffffe033  -0.12422505766153336 %
0185 : 11111111111111111110110000001101;  % 0xffffec0d  -0.07792647182941437 %
0186 : 00000000000000000000001111101110;  % 0x000003ee  0.015356529504060745 %
0187 : 11111111111111111111000100111101;  % 0xfffff13d  -0.05767027661204338 %
0188 : 11111111111111111111011001010011;  % 0xfffff653  -0.03778979182243347 %
0189 : 00000000000000000001001110111100;  % 0x000013bc  0.07709448784589767 %
018a : 00000000000000000000101000101011;  % 0x00000a2b  0.03971830755472183 %
018b : 11111111111111111110101010011000;  % 0xffffea98  -0.08361635357141495 %
018c : 11111111111111111111001010010110;  % 0xfffff296  -0.05239970237016678 %
018d : 11111111111111111111111100111101;  % 0xffffff3d  -0.002981903264299035 %
018e : 00000000000000000000001001000000;  % 0x00000240  0.008796361275017262 %
018f : 00000000000000000000110110101100;  % 0x00000dac  0.053409699350595474 %
0190 : 00000000000000000000010100100010;  % 0x00000522  0.02004811353981495 %
0191 : 00000000000000000000111000100001;  % 0x00000e21  0.0551840178668499 %
0192 : 00000000000000000000110010000100;  % 0x00000c84  0.04888607934117317 %
0193 : 11111111111111111111101001011111;  % 0xfffffa5f  -0.021987540647387505 %
0194 : 00000000000000000000010000001010;  % 0x0000040a  0.01578078791499138 %
0195 : 00000000000000000000010110110001;  % 0x000005b1  0.022235777229070663 %
0196 : 00000000000000000000011010011110;  % 0x0000069e  0.02585252933204174 %
0197 : 00000000000000000000000011001101;  % 0x000000cd  0.003135059028863907 %
0198 : 00000000000000000000000010101010;  % 0x000000aa  0.0026013939641416073 %
0199 : 11111111111111111111001110101110;  % 0xfffff3ae  -0.04812931641936302 %
019a : 11111111111111111111101010010101;  % 0xfffffa95  -0.021162349730730057 %
019b : 11111111111111111111100001100011;  % 0xfffff863  -0.029745664447546005 %
019c : 00000000000000000000110101111011;  % 0x00000d7b  0.05265093222260475 %
019d : 00000000000000000000100101000010;  % 0x00000942  0.036168891936540604 %
019e : 11111111111111111111100000110100;  % 0xfffff834  -0.0304570309817791 %
019f : 11111111111111111110011110011101;  % 0xffffe79d  -0.09525898098945618 %
01a0 : 11111111111111111110111001100011;  % 0xffffee63  -0.06879822909832001 %
01a1 : 11111111111111111110000010010001;  % 0xffffe091  -0.12279129028320312 %
01a2 : 00000000000000000000000011000001;  % 0x000000c1  0.002944035455584526 %
01a3 : 11111111111111111111111001011011;  % 0xfffffe5b  -0.006426431704312563 %
01a4 : 11111111111111111110101000100010;  % 0xffffea22  -0.08542318642139435 %
01a5 : 00000000000000000000101111111100;  % 0x00000bfc  0.04680640250444412 %
01a6 : 11111111111111111111101110110101;  % 0xfffffbb5  -0.016774922609329224 %
01a7 : 00000000000000000000001101100101;  % 0x00000365  0.013255939818918705 %
01a8 : 11111111111111111110100000010101;  % 0xffffe815  -0.09342978149652481 %
01a9 : 11111111111111111111010110111111;  % 0xfffff5bf  -0.040056828409433365 %
01aa : 00000000000000000000001100000101;  % 0x00000305  0.01179327443242073 %
01ab : 11111111111111111111100010001111;  % 0xfffff88f  -0.02906535007059574 %
01ac : 00000000000000000000001001100111;  % 0x00000267  0.00937698781490326 %
01ad : 00000000000000000000111001011010;  % 0x00000e5a  0.05605505034327507 %
01ae : 00000000000000000000010101010100;  % 0x00000554  0.02081693336367607 %
01af : 11111111111111111111111000111011;  % 0xfffffe3b  -0.0069177597761154175 %
01b0 : 00000000000000000000111111111101;  % 0x00000ffd  0.06245659664273262 %
01b1 : 11111111111111111111111010011001;  % 0xfffffe99  -0.005478261969983578 %
01b2 : 11111111111111111111110010111100;  % 0xfffffcbc  -0.012761424295604229 %
01b3 : 11111111111111111111110101111100;  % 0xfffffd7c  -0.009819488041102886 %
01b4 : 11111111111111111111101011000001;  % 0xfffffac1  -0.020498255267739296 %
01b5 : 00000000000000000000001110010011;  % 0x00000393  0.01396702416241169 %
01b6 : 00000000000000000001000001011111;  % 0x0000105f  0.06395599991083145 %
01b7 : 00000000000000000000100011100100;  % 0x000008e4  0.0347219817340374 %
01b8 : 00000000000000000000010000101101;  % 0x0000042d  0.016304105520248413 %
01b9 : 00000000000000000000110101001100;  % 0x00000d4c  0.05193886533379555 %
01ba : 00000000000000000000101000000111;  % 0x00000a07  0.03916364163160324 %
01bb : 11111111111111111111000000010011;  % 0xfffff013  -0.06220972165465355 %
01bc : 11111111111111111110110110010111;  % 0xffffed97  -0.0719132348895073 %
01bd : 11111111111111111111011000110111;  % 0xfffff637  -0.03821822628378868 %
01be : 00000000000000000001000100000110;  % 0x00001106  0.0664929747581482 %
01bf : 00000000000000000001001110111101;  % 0x000013bd  0.07709517329931259 %
01c0 : 00000000000000000000001110001111;  % 0x0000038f  0.013899982906877995 %
01c1 : 11111111111111111111011001011110;  % 0xfffff65e  -0.03762472793459892 %
01c2 : 00000000000000000000001010001011;  % 0x0000028b  0.0099326865747571 %
01c3 : 11111111111111111111011110100110;  % 0xfffff7a6  -0.03263071924448013 %
01c4 : 00000000000000000000011011001110;  % 0x000006ce  0.02658647485077381 %
01c5 : 11111111111111111111110000000011;  % 0xfffffc03  -0.015573604963719845 %
01c6 : 11111111111111111101110010010011;  % 0xffffdc93  -0.1383894979953766 %
01c7 : 11111111111111111111110010001010;  % 0xfffffc8a  -0.01351999118924141 %
01c8 : 00000000000000000000000100101100;  % 0x0000012c  0.004576124716550112 %
01c9 : 11111111111111111111110111001100;  % 0xfffffdcc  -0.00861265603452921 %
01ca : 00000000000000000000010011010100;  % 0x000004d4  0.018865050747990608 %
01cb : 00000000000000000000011001100001;  % 0x00000661  0.024916213005781174 %
01cc : 11111111111111111111110011101001;  % 0xfffffce9  -0.01206937711685896 %
01cd : 00000000000000000001001101101001;  % 0x00001369  0.07581961899995804 %
01ce : 11111111111111111111110100001011;  % 0xfffffd0b  -0.011546548455953598 %
01cf : 11111111111111111111100101110101;  % 0xfffff975  -0.025550909340381622 %
01d0 : 00000000000000000000000100101000;  % 0x00000128  0.004515418782830238 %
01d1 : 11111111111111111111111100101111;  % 0xffffff2f  -0.003196155419573188 %
01d2 : 11111111111111111111101100000011;  % 0xfffffb03  -0.019485266879200935 %
01d3 : 00000000000000000000001010110001;  % 0x000002b1  0.010506590828299522 %
01d4 : 00000000000000000001000111100101;  % 0x000011e5  0.06989940255880356 %
01d5 : 11111111111111111111110100101001;  % 0xfffffd29  -0.011090744286775589 %
01d6 : 00000000000000000000001011000101;  % 0x000002c5  0.010811390355229378 %
01d7 : 00000000000000000000000010001111;  % 0x0000008f  0.0021803241688758135 %
01d8 : 11111111111111111111101111000001;  % 0xfffffbc1  -0.016586771234869957 %
01d9 : 11111111111111111111101011000101;  % 0xfffffac5  -0.020429877564311028 %
01da : 00000000000000000000110101111101;  % 0x00000d7d  0.052688080817461014 %
01db : 11111111111111111110111110111001;  % 0xffffefb9  -0.06358681619167328 %
01dc : 11111111111111111111100011000001;  % 0xfffff8c1  -0.028302710503339767 %
01dd : 11111111111111111111010110101001;  % 0xfffff5a9  -0.04039432853460312 %
01de : 11111111111111111110100111001011;  % 0xffffe9cb  -0.08673954010009766 %
01df : 00000000000000000001100001100001;  % 0x00001861  0.09523724019527435 %
01e0 : 11111111111111111111100001011100;  % 0xfffff85c  -0.029845116659998894 %
01e1 : 00000000000000000000000100110101;  % 0x00000135  0.00471806013956666 %
01e2 : 00000000000000000001001011101010;  % 0x000012ea  0.0738782212138176 %
01e3 : 11111111111111111110111011010011;  % 0xffffeed3  -0.06709960103034973 %
01e4 : 11111111111111111111100000110010;  % 0xfffff832  -0.030482850968837738 %
01e5 : 11111111111111111110111100010101;  % 0xffffef15  -0.06608262658119202 %
01e6 : 11111111111111111111100101101100;  % 0xfffff96c  -0.02569904737174511 %
01e7 : 11111111111111111111101111000101;  % 0xfffffbc5  -0.016530262306332588 %
01e8 : 11111111111111111111010000100001;  % 0xfffff421  -0.04637232795357704 %
01e9 : 11111111111111111110101101010101;  % 0xffffeb55  -0.08073506504297256 %
01ea : 00000000000000000000100100011110;  % 0x0000091e  0.03561554104089737 %
01eb : 00000000000000000001010110101011;  % 0x000015ab  0.08464758098125458 %
01ec : 00000000000000000000000001111111;  % 0x0000007f  0.0019436575239524245 %
01ed : 00000000000000000000011100011000;  % 0x00000718  0.027702419087290764 %
01ee : 00000000000000000001000110010111;  % 0x00001197  0.06871359795331955 %
01ef : 00000000000000000000110100110110;  % 0x00000d36  0.05160516873002052 %
01f0 : 11111111111111111111110010110100;  % 0xfffffcb4  -0.012885162606835365 %
01f1 : 00000000000000000000000001111110;  % 0x0000007e  0.0019272778881713748 %
01f2 : 00000000000000000000111011001010;  % 0x00000eca  0.05777356028556824 %
01f3 : 00000000000000000000000111000100;  % 0x000001c4  0.006901629269123077 %
01f4 : 11111111111111111111101111010000;  % 0xfffffbd0  -0.016357356682419777 %
01f5 : 11111111111111111110111101011111;  % 0xffffef5f  -0.0649574026465416 %
01f6 : 11111111111111111110100111010110;  % 0xffffe9d6  -0.08657145500183105 %
01f7 : 00000000000000000001010110101000;  % 0x000015a8  0.0845889300107956 %
01f8 : 00000000000000000000101111100000;  % 0x00000be0  0.04639069736003876 %
01f9 : 00000000000000000001010010110001;  % 0x000014b1  0.0808231309056282 %
01fa : 00000000000000000000101100011101;  % 0x00000b1d  0.043418385088443756 %
01fb : 11111111111111111110111111110011;  % 0xffffeff3  -0.06269490718841553 %
01fc : 00000000000000000000101100111101;  % 0x00000b3d  0.043901391327381134 %
01fd : 11111111111111111111000100111101;  % 0xfffff13d  -0.0576639361679554 %
01fe : 00000000000000000000000001010011;  % 0x00000053  0.00127254833932966 %
01ff : 00000000000000000000101100010100;  % 0x00000b14  0.043278977274894714 %
0200 : 11111111111111111110111111110000;  % 0xffffeff0  -0.06274151802062988 %
0201 : 11111111111111111110110001001110;  % 0xffffec4e  -0.07694213092327118 %
0202 : 11111111111111111110111001000110;  % 0xffffee46  -0.06923767924308777 %
0203 : 11111111111111111110111010001101;  % 0xffffee8d  -0.06816371530294418 %
0204 : 11111111111111111110111011011011;  % 0xffffeedb  -0.06696861982345581 %
0205 : 00000000000000000000101010101000;  % 0x00000aa8  0.04162464663386345 %
0206 : 11111111111111111111101010001100;  % 0xfffffa8c  -0.02129415236413479 %
0207 : 11111111111111111111011011001010;  % 0xfffff6ca  -0.03598138317465782 %
0208 : 00000000000000000000010000011101;  % 0x0000041d  0.016073141247034073 %
0209 : 00000000000000000000001100001111;  % 0x0000030f  0.011951678432524204 %
020a : 11111111111111111111110011101101;  % 0xfffffced  -0.012013631872832775 %
020b : 11111111111111111111111101010111;  % 0xffffff57  -0.0025860867463052273 %
020c : 00000000000000000000011001111011;  % 0x0000067b  0.025310862809419632 %
020d : 11111111111111111111101110111000;  % 0xfffffbb8  -0.01671653240919113 %
020e : 11111111111111111111110010100101;  % 0xfffffca5  -0.013104552403092384 %
020f : 00000000000000000000000000011101;  % 0x0000001d  0.00043545273365452886 %
0210 : 00000000000000000001000000011001;  % 0x00001019  0.06288177520036697 %
0211 : 11111111111111111111000010101011;  % 0xfffff0ab  -0.05988723039627075 %
0212 : 11111111111111111111011111011011;  % 0xfffff7db  -0.03180965781211853 %
0213 : 11111111111111111111101101100000;  % 0xfffffb60  -0.018064873293042183 %
0214 : 00000000000000000000010110000000;  % 0x00000580  0.021483808755874634 %
0215 : 11111111111111111111000001100000;  % 0xfffff060  -0.06103334575891495 %
0216 : 11111111111111111111111111101011;  % 0xffffffeb  -0.00031874424894340336 %
0217 : 11111111111111111111000100110111;  % 0xfffff137  -0.05775628238916397 %
0218 : 00000000000000000000110011101011;  % 0x00000ceb  0.05045495554804802 %
0219 : 00000000000000000000000100100100;  % 0x00000124  0.004461219068616629 %
021a : 00000000000000000001000110111011;  % 0x000011bb  0.06926719844341278 %
021b : 11111111111111111111100110011111;  % 0xfffff99f  -0.024913806468248367 %
021c : 00000000000000000000111111000010;  % 0x00000fc2  0.061550892889499664 %
021d : 11111111111111111111011000011011;  % 0xfffff61b  -0.03865678980946541 %
021e : 11111111111111111111100001011100;  % 0xfffff85c  -0.02984664961695671 %
021f : 00000000000000000000000111000001;  % 0x000001c1  0.006858259905129671 %
0220 : 00000000000000000000011010011100;  % 0x0000069c  0.025812964886426926 %
0221 : 11111111111111111111110111100110;  % 0xfffffde6  -0.00820578821003437 %
0222 : 00000000000000000000100110000111;  % 0x00000987  0.03721145913004875 %
0223 : 00000000000000000000101101110010;  % 0x00000b72  0.04471234232187271 %
0224 : 11111111111111111111100101010101;  % 0xfffff955  -0.02603917568922043 %
0225 : 00000000000000000000001000101111;  % 0x0000022f  0.008529577404260635 %
0226 : 00000000000000000000000011110011;  % 0x000000f3  0.0037094817962497473 %
0227 : 11111111111111111111000010011111;  % 0xfffff09f  -0.0600728765130043 %
0228 : 00000000000000000000110011010101;  % 0x00000cd5  0.0501258485019207 %
0229 : 11111111111111111111100110011001;  % 0xfffff999  -0.025008808821439743 %
022a : 11111111111111111111001010100100;  % 0xfffff2a4  -0.0521886944770813 %
022b : 00000000000000000000010100011011;  % 0x0000051b  0.019940689206123352 %
022c : 11111111111111111111110011011001;  % 0xfffffcd9  -0.012310134246945381 %
022d : 11111111111111111110101100011110;  % 0xffffeb1e  -0.08157709240913391 %
022e : 00000000000000000000111111111010;  % 0x00000ffa  0.06241127476096153 %
022f : 11111111111111111111110100110100;  % 0xfffffd34  -0.010928543284535408 %
0230 : 00000000000000000000001100010110;  % 0x00000316  0.01205010712146759 %
0231 : 11111111111111111111000111110001;  % 0xfffff1f1  -0.054909564554691315 %
0232 : 11111111111111111110111010001010;  % 0xffffee8a  -0.06821086257696152 %
0233 : 00000000000000000000101101101010;  % 0x00000b6a  0.04458470642566681 %
0234 : 00000000000000000000111011111000;  % 0x00000ef8  0.05847143009305 %
0235 : 11111111111111111111111010010101;  % 0xfffffe95  -0.005532288923859596 %
0236 : 00000000000000000000010111011010;  % 0x000005da  0.022851016372442245 %
0237 : 11111111111111111111011001000000;  % 0xfffff640  -0.03807949274778366 %
0238 : 00000000000000000000010010100011;  % 0x000004a3  0.018110178411006927 %
0239 : 00000000000000000000100111010011;  % 0x000009d3  0.0383785218000412 %
023a : 00000000000000000000110111110111;  % 0x00000df7  0.054556626826524734 %
023b : 00000000000000000000101111100001;  % 0x00000be1  0.04640578851103783 %
023c : 11111111111111111111111101110000;  % 0xffffff70  -0.0022022640332579613 %
023d : 00000000000000000000011100110001;  % 0x00000731  0.0280934926122427 %
023e : 00000000000000000000000100010101;  % 0x00000115  0.004231835249811411 %
023f : 11111111111111111111110011000011;  % 0xfffffcc3  -0.012644358910620213 %
0240 : 00000000000000000000100000110111;  % 0x00000837  0.032091595232486725 %
0241 : 00000000000000000000010011100000;  % 0x000004e0  0.019047729671001434 %
0242 : 00000000000000000000101010100111;  % 0x00000aa7  0.04160851240158081 %
0243 : 00000000000000000000000010000101;  % 0x00000085  0.0020278850570321083 %
0244 : 11111111111111111111011001100101;  % 0xfffff665  -0.03751613199710846 %
0245 : 00000000000000000000010000000010;  % 0x00000402  0.015655456110835075 %
0246 : 00000000000000000000100100000000;  % 0x00000900  0.03516163304448128 %
0247 : 11111111111111111111110111110010;  % 0xfffffdf2  -0.008027919568121433 %
0248 : 11111111111111111111100110000101;  % 0xfffff985  -0.025314804166555405 %
0249 : 00000000000000000000111110000000;  % 0x00000f80  0.06054053083062172 %
024a : 11111111111111111110101001011011;  % 0xffffea5b  -0.08455494791269302 %
024b : 00000000000000000000010101000010;  % 0x00000542  0.02054438926279545 %
024c : 11111111111111111111010111100111;  % 0xfffff5e7  -0.03944423049688339 %
024d : 00000000000000000001001111110011;  % 0x000013f3  0.0779263824224472 %
024e : 00000000000000000001010100011100;  % 0x0000151c  0.08246225118637085 %
024f : 00000000000000000000110100011000;  % 0x00000d18  0.051147110760211945 %
0250 : 11111111111111111111100100001001;  % 0xfffff909  -0.027211349457502365 %
0251 : 00000000000000000001000111110110;  % 0x000011f6  0.07015719264745712 %
0252 : 11111111111111111111111001000111;  % 0xfffffe47  -0.0067309667356312275 %
0253 : 00000000000000000000101110111010;  % 0x00000bba  0.0458102822303772 %
0254 : 00000000000000000000011100111000;  % 0x00000738  0.028191976249217987 %
0255 : 00000000000000000000101100110100;  % 0x00000b34  0.04375811293721199 %
0256 : 11111111111111111111111101011101;  % 0xffffff5d  -0.0024864748120307922 %
0257 : 00000000000000000000101101011110;  % 0x00000b5e  0.04440461844205856 %
0258 : 00000000000000000000111010101110;  % 0x00000eae  0.0573466531932354 %
0259 : 11111111111111111111110111101010;  % 0xfffffdea  -0.008147114887833595 %
025a : 00000000000000000000101010100101;  % 0x00000aa5  0.04157605394721031 %
025b : 00000000000000000001000111001100;  % 0x000011cc  0.06952354311943054 %
025c : 00000000000000000000001110101011;  % 0x000003ab  0.014321002177894115 %
025d : 00000000000000000000010100100100;  % 0x00000524  0.020082321017980576 %
025e : 00000000000000000000001000100010;  % 0x00000222  0.008332449942827225 %
025f : 00000000000000000000101111111011;  % 0x00000bfb  0.04679575189948082 %
0260 : 00000000000000000000011110001101;  % 0x0000078d  0.029491001740098 %
0261 : 00000000000000000000000101110001;  % 0x00000171  0.005624853540211916 %
0262 : 00000000000000000000110110000011;  % 0x00000d83  0.05277729406952858 %
0263 : 00000000000000000001100111011010;  % 0x000019da  0.10098997503519058 %
0264 : 00000000000000000000111010011010;  % 0x00000e9a  0.057037319988012314 %
0265 : 11111111111111111111011110100101;  % 0xfffff7a5  -0.03263502195477486 %
0266 : 11111111111111111110101100001001;  % 0xffffeb09  -0.0818934291601181 %
0267 : 00000000000000000000001011111010;  % 0x000002fa  0.011624179780483246 %
0268 : 11111111111111111111000110110010;  % 0xfffff1b2  -0.055882491171360016 %
0269 : 00000000000000000001010101100101;  % 0x00001565  0.08356575667858124 %
026a : 11111111111111111110101100100011;  % 0xffffeb23  -0.08149473369121552 %
026b : 11111111111111111111110001100011;  % 0xfffffc63  -0.014108654111623764 %
026c : 00000000000000000001101110110111;  % 0x00001bb7  0.10826466977596283 %
026d : 00000000000000000001100011001010;  % 0x000018ca  0.09683171659708023 %
026e : 11111111111111111111110001010100;  % 0xfffffc54  -0.01434721052646637 %
026f : 11111111111111111111101100000111;  % 0xfffffb07  -0.019418178126215935 %
0270 : 00000000000000000000011011110010;  % 0x000006f2  0.02713470719754696 %
0271 : 11111111111111111111100001111101;  % 0xfffff87d  -0.029340337961912155 %
0272 : 11111111111111111111111110000101;  % 0xffffff85  -0.001881066127680242 %
0273 : 00000000000000000000011101100101;  % 0x00000765  0.028881561011075974 %
0274 : 00000000000000000000000010101011;  % 0x000000ab  0.002607102971524 %
0275 : 11111111111111111111111001010011;  % 0xfffffe53  -0.0065497420728206635 %
0276 : 00000000000000000000101011011110;  % 0x00000ade  0.04245217144489288 %
0277 : 11111111111111111111110110000011;  % 0xfffffd83  -0.009716158732771873 %
0278 : 00000000000000000000101100011100;  % 0x00000b1c  0.043393757194280624 %
0279 : 00000000000000000000100010111100;  % 0x000008bc  0.034116555005311966 %
027a : 11111111111111111111110010010001;  % 0xfffffc91  -0.013411207124590874 %
027b : 00000000000000000000101001111110;  % 0x00000a7e  0.040981560945510864 %
027c : 00000000000000000000010110000100;  % 0x00000584  0.02154281735420227 %
027d : 00000000000000000000010011111110;  % 0x000004fe  0.019494935870170593 %
027e : 00000000000000000000110110111011;  % 0x00000dbb  0.05362779647111893 %
027f : 00000000000000000000101101100111;  % 0x00000b67  0.04454615339636803 %
0280 : 00000000000000000000110001100000;  % 0x00000c60  0.048345282673835754 %
0281 : 00000000000000000000001010101100;  % 0x000002ac  0.010436068288981915 %
0282 : 00000000000000000000101010011110;  % 0x00000a9e  0.041479092091321945 %
0283 : 11111111111111111111100010100000;  % 0xfffff8a0  -0.028804868459701538 %
0284 : 00000000000000000000010000110111;  % 0x00000437  0.016459651291370392 %
0285 : 11111111111111111111010110110101;  % 0xfffff5b5  -0.040203239768743515 %
0286 : 11111111111111111111010011110011;  % 0xfffff4f3  -0.04316403716802597 %
0287 : 00000000000000000001000011100010;  % 0x000010e2  0.06594811379909515 %
0288 : 00000000000000000000001111110110;  % 0x000003f6  0.0154661750420928 %
0289 : 11111111111111111111111100011100;  % 0xffffff1c  -0.003482567146420479 %
028a : 00000000000000000010000110110000;  % 0x000021b0  0.13158459961414337 %
028b : 11111111111111111111011110111110;  % 0xfffff7be  -0.03225027024745941 %
028c : 00000000000000000000110111111110;  % 0x00000dfe  0.05466156080365181 %
028d : 00000000000000000000000110000101;  % 0x00000185  0.005940367467701435 %
028e : 00000000000000000001010000110100;  % 0x00001434  0.07891426235437393 %
028f : 11111111111111111111011100110000;  % 0xfffff730  -0.034430619329214096 %
0290 : 00000000000000000001000111011100;  % 0x000011dc  0.06975697726011276 %
0291 : 11111111111111111111011001010100;  % 0xfffff654  -0.03777424991130829 %
0292 : 00000000000000000000110101000010;  % 0x00000d42  0.05178268253803253 %
0293 : 11111111111111111111110110100001;  % 0xfffffda1  -0.009266437962651253 %
0294 : 00000000000000000000011110101001;  % 0x000007a9  0.02992435358464718 %
0295 : 00000000000000000000010001001110;  % 0x0000044e  0.01680949330329895 %
0296 : 11111111111111111111110111100000;  % 0xfffffde0  -0.008295220322906971 %
0297 : 11111111111111111111111100100100;  % 0xffffff24  -0.0033589648082852364 %
0298 : 00000000000000000000011001111100;  % 0x0000067c  0.02533106505870819 %
0299 : 11111111111111111111000111111001;  % 0xfffff1f9  -0.05479274317622185 %
029a : 11111111111111111111111000101111;  % 0xfffffe2f  -0.007092095445841551 %
029b : 11111111111111111111111100111001;  % 0xffffff39  -0.003031756030395627 %
029c : 00000000000000000000001100001111;  % 0x0000030f  0.011944207362830639 %
029d : 00000000000000000000011100001101;  % 0x0000070d  0.027544843032956123 %
029e : 11111111111111111111101111110101;  % 0xfffffbf5  -0.015796007588505745 %
029f : 11111111111111111110111000001000;  % 0xffffee08  -0.07018828392028809 %
02a0 : 11111111111111111111000011110010;  % 0xfffff0f2  -0.05880804359912872 %
02a1 : 11111111111111111111101001000100;  % 0xfffffa44  -0.022406548261642456 %
02a2 : 00000000000000000001001011101110;  % 0x000012ee  0.07394111156463623 %
02a3 : 11111111111111111111011110011011;  % 0xfffff79b  -0.0327984094619751 %
02a4 : 00000000000000000000010101001001;  % 0x00000549  0.020640360191464424 %
02a5 : 11111111111111111110111001110011;  % 0xffffee73  -0.0685538575053215 %
02a6 : 00000000000000000001011001101001;  % 0x00001669  0.08754345774650574 %
02a7 : 00000000000000000000111100011110;  % 0x00000f1e  0.0590495802462101 %
02a8 : 11111111111111111111000010000111;  % 0xfffff087  -0.06043810024857521 %
02a9 : 00000000000000000000011011100111;  % 0x000006e7  0.02696014940738678 %
02aa : 00000000000000000000101101000101;  % 0x00000b45  0.044020842760801315 %
02ab : 11111111111111111111011101000111;  % 0xfffff747  -0.034068260341882706 %
02ac : 00000000000000000000011101110100;  % 0x00000774  0.029107512906193733 %
02ad : 00000000000000000000110000111100;  % 0x00000c3c  0.04779497906565666 %
02ae : 00000000000000000000010011111110;  % 0x000004fe  0.019500406458973885 %
02af : 11111111111111111111111110100101;  % 0xffffffa5  -0.0013957325136289 %
02b0 : 11111111111111111111101010100010;  % 0xfffffaa2  -0.020962407812476158 %
02b1 : 11111111111111111111001001000101;  % 0xfffff245  -0.05362904816865921 %
02b2 : 00000000000000000001000101010000;  % 0x00001150  0.06763293594121933 %
02b3 : 11111111111111111111000010101001;  % 0xfffff0a9  -0.059920988976955414 %
02b4 : 00000000000000000000010001011000;  % 0x00000458  0.016964752227067947 %
02b5 : 11111111111111111110111001101110;  % 0xffffee6e  -0.06863848119974136 %
02b6 : 11111111111111111111101010001101;  % 0xfffffa8d  -0.02128797397017479 %
02b7 : 11111111111111111111110101000010;  % 0xfffffd42  -0.010715438053011894 %
02b8 : 00000000000000000000010011000101;  % 0x000004c5  0.01863468438386917 %
02b9 : 00000000000000000000000010101011;  % 0x000000ab  0.002610503463074565 %
02ba : 00000000000000000000011011101110;  % 0x000006ee  0.027073916047811508 %
02bb : 00000000000000000000110000110001;  % 0x00000c31  0.047618307173252106 %
02bc : 11111111111111111110111111010100;  % 0xffffefd4  -0.06317895650863647 %
02bd : 00000000000000000001001111101000;  % 0x000013e8  0.07776225358247757 %
02be : 11111111111111111111100101010101;  % 0xfffff955  -0.026053179055452347 %
02bf : 00000000000000000001010000100110;  % 0x00001426  0.07871086150407791 %
02c0 : 11111111111111111111001110000010;  % 0xfffff382  -0.048801809549331665 %
02c1 : 11111111111111111111000010110001;  % 0xfffff0b1  -0.05980296432971954 %
02c2 : 00000000000000000000001100101101;  % 0x0000032d  0.012411163188517094 %
02c3 : 00000000000000000000010110101111;  % 0x000005af  0.02220848761498928 %
02c4 : 11111111111111111111011010110000;  % 0xfffff6b0  -0.03637514263391495 %
02c5 : 00000000000000000000100110101100;  % 0x000009ac  0.03777904808521271 %
02c6 : 11111111111111111111111000001010;  % 0xfffffe0a  -0.007658505346626043 %
02c7 : 11111111111111111111110001000001;  % 0xfffffc41  -0.014632713049650192 %
02c8 : 00000000000000000000101001000100;  % 0x00000a44  0.040104348212480545 %
02c9 : 11111111111111111111100111011010;  % 0xfffff9da  -0.02402229979634285 %
02ca : 00000000000000000000110110111110;  % 0x00000dbe  0.053673531860113144 %
02cb : 11111111111111111111010101000110;  % 0xfffff546  -0.04190736263990402 %
02cc : 00000000000000000000111110000101;  % 0x00000f85  0.06062377244234085 %
02cd : 00000000000000000001111100100111;  % 0x00001f27  0.12168839573860168 %
02ce : 11111111111111111111100111001110;  % 0xfffff9ce  -0.02419731765985489 %
02cf : 00000000000000000000000110100100;  % 0x000001a4  0.006404111161828041 %
02d0 : 00000000000000000000010100100111;  % 0x00000527  0.02012852393090725 %
02d1 : 00000000000000000000100111100011;  % 0x000009e3  0.03862442821264267 %
02d2 : 00000000000000000000000110111011;  % 0x000001bb  0.006766453385353088 %
02d3 : 00000000000000000000100111111001;  % 0x000009f9  0.038962993770837784 %
02d4 : 00000000000000000001001111111111;  % 0x000013ff  0.0781053751707077 %
02d5 : 00000000000000000000110010010110;  % 0x00000c96  0.0491640642285347 %
02d6 : 11111111111111111111100001100101;  % 0xfffff865  -0.029701579362154007 %
02d7 : 11111111111111111111101110001001;  % 0xfffffb89  -0.017445750534534454 %
02d8 : 00000000000000000000010101100101;  % 0x00000565  0.021076075732707977 %
02d9 : 00000000000000000000000010100000;  % 0x000000a0  0.0024375468492507935 %
02da : 11111111111111111110101101000110;  % 0xffffeb46  -0.08096785098314285 %
02db : 00000000000000000000001000100011;  % 0x00000223  0.008350148797035217 %
02dc : 00000000000000000000110101100100;  % 0x00000d64  0.05230466648936272 %
02dd : 11111111111111111111010000001010;  % 0xfffff40a  -0.04672624543309212 %
02de : 00000000000000000000001101111011;  % 0x0000037b  0.013601584360003471 %
02df : 11111111111111111111000000110111;  % 0xfffff037  -0.06165635213255882 %
02e0 : 11111111111111111110011111011100;  % 0xffffe7dc  -0.09429485350847244 %
02e1 : 11111111111111111110111100101100;  % 0xffffef2c  -0.0657290443778038 %
02e2 : 11111111111111111110110100011110;  % 0xffffed1e  -0.07375510036945343 %
02e3 : 11111111111111111111101001001001;  % 0xfffffa49  -0.022322023287415504 %
02e4 : 00000000000000000001100011000101;  % 0x000018c5  0.09675101190805435 %
02e5 : 00000000000000000000110011100001;  % 0x00000ce1  0.050305046141147614 %
02e6 : 00000000000000000000101111100000;  % 0x00000be0  0.04639163240790367 %
02e7 : 00000000000000000001001110011000;  % 0x00001398  0.07653066515922546 %
02e8 : 11111111111111111111000111110011;  % 0xfffff1f3  -0.05488605797290802 %
02e9 : 00000000000000000000011111000110;  % 0x000007c6  0.030372271314263344 %
02ea : 11111111111111111111101101001011;  % 0xfffffb4b  -0.01837928406894207 %
02eb : 00000000000000000000101100100101;  % 0x00000b25  0.04352613165974617 %
02ec : 00000000000000000001000111110101;  % 0x000011f5  0.07014360278844833 %
02ed : 00000000000000000000010101110101;  % 0x00000575  0.02132175862789154 %
02ee : 11111111111111111111100010110110;  % 0xfffff8b6  -0.028478097170591354 %
02ef : 00000000000000000001000101011111;  % 0x0000115f  0.06785930693149567 %
02f0 : 11111111111111111111110111111101;  % 0xfffffdfd  -0.007863633334636688 %
02f1 : 11111111111111111110110101010110;  % 0xffffed56  -0.07290307432413101 %
02f2 : 00000000000000000000100110100100;  % 0x000009a4  0.03766482323408127 %
02f3 : 11111111111111111110111111101111;  % 0xffffefef  -0.06275258958339691 %
02f4 : 11111111111111111111011110100100;  % 0xfffff7a4  -0.03264797851443291 %
02f5 : 11111111111111111111010100101011;  % 0xfffff52b  -0.04230806231498718 %
02f6 : 00000000000000000000100011111110;  % 0x000008fe  0.03511875122785568 %
02f7 : 11111111111111111111110110111100;  % 0xfffffdbc  -0.00885751098394394 %
02f8 : 00000000000000000001000100100101;  % 0x00001125  0.06697248667478561 %
02f9 : 11111111111111111110101111110001;  % 0xffffebf1  -0.07834984362125397 %
02fa : 11111111111111111111100011000010;  % 0xfffff8c2  -0.02828950621187687 %
02fb : 11111111111111111111001101010001;  % 0xfffff351  -0.04953782260417938 %
02fc : 11111111111111111110110000001101;  % 0xffffec0d  -0.0779314935207367 %
02fd : 00000000000000000001001010011000;  % 0x00001298  0.0726248100399971 %
02fe : 11111111111111111111001100100100;  % 0xfffff324  -0.05022594332695007 %
02ff : 11111111111111111111110011101101;  % 0xfffffced  -0.012013880535960197 %
0300 : 11111111111111111111101101000110;  % 0xfffffb46  -0.018463192507624626 %
0301 : 11111111111111111111010010001100;  % 0xfffff48c  -0.04474368318915367 %
0302 : 11111111111111111111000100010111;  % 0xfffff117  -0.05823741853237152 %
0303 : 00000000000000000000001110001011;  % 0x0000038b  0.013842531479895115 %
0304 : 00000000000000000000100101110000;  % 0x00000970  0.03685802221298218 %
0305 : 11111111111111111111011010001101;  % 0xfffff68d  -0.036914389580488205 %
0306 : 00000000000000000001010110011010;  % 0x0000159a  0.08438284695148468 %
0307 : 11111111111111111111110111111100;  % 0xfffffdfc  -0.007873404771089554 %
0308 : 00000000000000000001001001100101;  % 0x00001265  0.07186123728752136 %
0309 : 00000000000000000000011110101011;  % 0x000007ab  0.029956940561532974 %
030a : 11111111111111111111011111101111;  % 0xfffff7ef  -0.0315081961452961 %
030b : 00000000000000000000001101000010;  % 0x00000342  0.012731954455375671 %
030c : 11111111111111111111010011111010;  % 0xfffff4fa  -0.04306172579526901 %
030d : 11111111111111111111010100111110;  % 0xfffff53e  -0.0420222170650959 %
030e : 00000000000000000000000010010111;  % 0x00000097  0.002301156520843506 %
030f : 00000000000000000000101100000001;  % 0x00000b01  0.04297848790884018 %
END;
